{
  "version": "1.0",
  "truncation": null,
  "padding": null,
  "added_tokens": [
    {
      "id": 0,
      "content": "<pad>",
      "single_word": false,
      "lstrip": false,
      "rstrip": false,
      "normalized": false,
      "special": true
    },
    {
      "id": 1,
      "content": "<bos>",
      "single_word": false,
      "lstrip": false,
      "rstrip": false,
      "normalized": false,
      "special": true
    },
    {
      "id": 2,
      "content": "<eos>",
      "single_word": false,
      "lstrip": false,
      "rstrip": false,
      "normalized": false,
      "special": true
    },
    {
      "id": 3,
      "content": "<unk>",
      "single_word": false,
      "lstrip": false,
      "rstrip": false,
      "normalized": false,
      "special": true
    },
    {
      "id": 4,
      "content": "<2hi>",
      "single_word": false,
      "lstrip": false,
      "rstrip": false,
      "normalized": false,
      "special": true
    },
    {
      "id": 5,
      "content": "<2te>",
      "single_word": false,
      "lstrip": false,
      "rstrip": false,
      "normalized": false,
      "special": true
    }
  ],
  "normalizer": null,
  "pre_tokenizer": {
    "type": "Whitespace"
  },
  "post_processor": null,
  "decoder": null,
  "model": {
    "type": "BPE",
    "dropout": null,
    "unk_token": "<unk>",
    "continuing_subword_prefix": null,
    "end_of_word_suffix": null,
    "fuse_unk": false,
    "byte_fallback": false,
    "ignore_merges": false,
    "vocab": {
      "<pad>": 0,
      "<bos>": 1,
      "<eos>": 2,
      "<unk>": 3,
      "<2hi>": 4,
      "<2te>": 5,
      "!": 6,
      "\"": 7,
      "#": 8,
      "$": 9,
      "%": 10,
      "&": 11,
      "'": 12,
      "(": 13,
      ")": 14,
      "*": 15,
      "+": 16,
      ",": 17,
      "-": 18,
      ".": 19,
      "/": 20,
      "0": 21,
      "1": 22,
      "2": 23,
      "3": 24,
      "4": 25,
      "5": 26,
      "6": 27,
      "7": 28,
      "8": 29,
      "9": 30,
      ":": 31,
      "<": 32,
      "=": 33,
      ">": 34,
      "?": 35,
      "@": 36,
      "A": 37,
      "B": 38,
      "C": 39,
      "D": 40,
      "E": 41,
      "F": 42,
      "G": 43,
      "H": 44,
      "I": 45,
      "J": 46,
      "K": 47,
      "L": 48,
      "M": 49,
      "N": 50,
      "O": 51,
      "P": 52,
      "Q": 53,
      "R": 54,
      "S": 55,
      "T": 56,
      "U": 57,
      "V": 58,
      "W": 59,
      "X": 60,
      "Y": 61,
      "Z": 62,
      "[": 63,
      "\\": 64,
      "]": 65,
      "_": 66,
      "`": 67,
      "a": 68,
      "b": 69,
      "c": 70,
      "d": 71,
      "e": 72,
      "f": 73,
      "g": 74,
      "h": 75,
      "i": 76,
      "j": 77,
      "k": 78,
      "l": 79,
      "m": 80,
      "n": 81,
      "o": 82,
      "p": 83,
      "q": 84,
      "r": 85,
      "s": 86,
      "t": 87,
      "u": 88,
      "v": 89,
      "w": 90,
      "x": 91,
      "y": 92,
      "z": 93,
      "{": 94,
      "|": 95,
      "}": 96,
      "~": 97,
      "¡": 98,
      "¨": 99,
      "©": 100,
      "ª": 101,
      "°": 102,
      "²": 103,
      "¶": 104,
      "»": 105,
      "Â": 106,
      "Ó": 107,
      "×": 108,
      "á": 109,
      "æ": 110,
      "è": 111,
      "é": 112,
      "í": 113,
      "ï": 114,
      "ñ": 115,
      "ó": 116,
      "ə": 117,
      "ˌ": 118,
      "ː": 119,
      "β": 120,
      "χ": 121,
      "ְ": 122,
      "ִ": 123,
      "ֵ": 124,
      "ֶ": 125,
      "ַ": 126,
      "ָ": 127,
      "ֹ": 128,
      "ּ": 129,
      "א": 130,
      "ה": 131,
      "ו": 132,
      "ז": 133,
      "ט": 134,
      "י": 135,
      "כ": 136,
      "ל": 137,
      "מ": 138,
      "ס": 139,
      "פ": 140,
      "ר": 141,
      "آ": 142,
      "ا": 143,
      "ب": 144,
      "ة": 145,
      "ت": 146,
      "ح": 147,
      "د": 148,
      "ر": 149,
      "ش": 150,
      "ض": 151,
      "ط": 152,
      "ع": 153,
      "ق": 154,
      "ك": 155,
      "ل": 156,
      "م": 157,
      "ن": 158,
      "ي": 159,
      "ٰ": 160,
      "پ": 161,
      "ی": 162,
      "ँ": 163,
      "ं": 164,
      "ः": 165,
      "अ": 166,
      "आ": 167,
      "इ": 168,
      "ई": 169,
      "उ": 170,
      "ऊ": 171,
      "ऋ": 172,
      "ऌ": 173,
      "ऍ": 174,
      "ऎ": 175,
      "ए": 176,
      "ऐ": 177,
      "ऑ": 178,
      "ओ": 179,
      "औ": 180,
      "क": 181,
      "ख": 182,
      "ग": 183,
      "घ": 184,
      "ङ": 185,
      "च": 186,
      "छ": 187,
      "ज": 188,
      "झ": 189,
      "ञ": 190,
      "ट": 191,
      "ठ": 192,
      "ड": 193,
      "ढ": 194,
      "ण": 195,
      "त": 196,
      "थ": 197,
      "द": 198,
      "ध": 199,
      "न": 200,
      "ऩ": 201,
      "प": 202,
      "फ": 203,
      "ब": 204,
      "भ": 205,
      "म": 206,
      "य": 207,
      "र": 208,
      "ऱ": 209,
      "ल": 210,
      "ळ": 211,
      "व": 212,
      "श": 213,
      "ष": 214,
      "स": 215,
      "ह": 216,
      "़": 217,
      "ऽ": 218,
      "ा": 219,
      "ि": 220,
      "ी": 221,
      "ु": 222,
      "ू": 223,
      "ृ": 224,
      "ॅ": 225,
      "ॆ": 226,
      "े": 227,
      "ै": 228,
      "ॉ": 229,
      "ॊ": 230,
      "ो": 231,
      "ौ": 232,
      "्": 233,
      "क़": 234,
      "ख़": 235,
      "ग़": 236,
      "ज़": 237,
      "ड़": 238,
      "ढ़": 239,
      "फ़": 240,
      "य़": 241,
      "ॠ": 242,
      "।": 243,
      "॥": 244,
      "०": 245,
      "१": 246,
      "२": 247,
      "३": 248,
      "४": 249,
      "५": 250,
      "६": 251,
      "७": 252,
      "८": 253,
      "९": 254,
      "॰": 255,
      "ং": 256,
      "ক": 257,
      "ঙ": 258,
      "জ": 259,
      "ট": 260,
      "ত": 261,
      "দ": 262,
      "ব": 263,
      "য": 264,
      "র": 265,
      "ল": 266,
      "শ": 267,
      "স": 268,
      "়": 269,
      "া": 270,
      "ি": 271,
      "ী": 272,
      "ে": 273,
      "্": 274,
      "ᐅ": 275,
      "​": 276,
      "‌": 277,
      "‍": 278,
      "‎": 279,
      "–": 280,
      "—": 281,
      "‘": 282,
      "’": 283,
      "“": 284,
      "”": 285,
      "•": 286,
      "…": 287,
      "€": 288,
      "₹": 289,
      "™": 290,
      "⊆": 291,
      "□": 292,
      "▪": 293,
      "▫": 294,
      "◆": 295,
      "♫": 296,
      "": 297,
      "﻿": 298,
      "th": 299,
      "in": 300,
      "an": 301,
      "er": 302,
      "the": 303,
      "on": 304,
      "के": 305,
      "re": 306,
      "्र": 307,
      "at": 308,
      "ार": 309,
      "en": 310,
      "ें": 311,
      "is": 312,
      "ने": 313,
      "है": 314,
      "ed": 315,
      "या": 316,
      "al": 317,
      "or": 318,
      "ar": 319,
      "में": 320,
      "es": 321,
      "as": 322,
      "ों": 323,
      "of": 324,
      "and": 325,
      "की": 326,
      "to": 327,
      "का": 328,
      "ing": 329,
      "कि": 330,
      "ou": 331,
      "से": 332,
      "it": 333,
      "कर": 334,
      "को": 335,
      "ion": 336,
      "स्": 337,
      "र्": 338,
      "और": 339,
      "ता": 340,
      "ic": 341,
      "ना": 342,
      "il": 343,
      "क्": 344,
      "ent": 345,
      "st": 346,
      "he": 347,
      "प्र": 348,
      "ान": 349,
      "ro": 350,
      "पर": 351,
      "्य": 352,
      "लि": 353,
      "वि": 354,
      "le": 355,
      "ला": 356,
      "वा": 357,
      "ही": 358,
      "ad": 359,
      "रा": 360,
      "be": 361,
      "id": 362,
      "हा": 363,
      "ले": 364,
      "ve": 365,
      "ct": 366,
      "se": 367,
      "सा": 368,
      "am": 369,
      "for": 370,
      "nd": 371,
      "om": 372,
      "ति": 373,
      "नि": 374,
      "ch": 375,
      "जा": 376,
      "ter": 377,
      "इस": 378,
      "कार": 379,
      "न्": 380,
      "मा": 381,
      "हैं": 382,
      "ol": 383,
      "ver": 384,
      "दे": 385,
      "हो": 386,
      "ation": 387,
      "The": 388,
      "ay": 389,
      "त्र": 390,
      "ur": 391,
      "ha": 392,
      "दि": 393,
      "भी": 394,
      "im": 395,
      "ir": 396,
      "\"\"": 397,
      "ते": 398,
      "सं": 399,
      "ce": 400,
      "सी": 401,
      "res": 402,
      "बा": 403,
      "ित": 404,
      "क्ष": 405,
      "ती": 406,
      "ly": 407,
      "ot": 408,
      "tr": 409,
      "लिए": 410,
      "wh": 411,
      "de": 412,
      "ड़": 413,
      "ment": 414,
      "हु": 415,
      "are": 416,
      "पा": 417,
      "एक": 418,
      "गा": 419,
      "ow": 420,
      "ill": 421,
      "मि": 422,
      "ag": 423,
      "ली": 424,
      "त्": 425,
      "ig": 426,
      "हीं": 427,
      "ल्": 428,
      "that": 429,
      "20": 430,
      "us": 431,
      "था": 432,
      "मु": 433,
      "con": 434,
      "ith": 435,
      "नी": 436,
      "ab": 437,
      "et": 438,
      "ak": 439,
      "ere": 440,
      "ut": 441,
      "यों": 442,
      "pro": 443,
      "नहीं": 444,
      "किया": 445,
      "ul": 446,
      "ोग": 447,
      "ers": 448,
      "Ind": 449,
      "भा": 450,
      "el": 451,
      "un": 452,
      "जि": 453,
      "has": 454,
      "ंग": 455,
      "री": 456,
      "our": 457,
      "op": 458,
      "ac": 459,
      "com": 460,
      "with": 461,
      "ate": 462,
      "ia": 463,
      "दा": 464,
      "so": 465,
      "was": 466,
      "रि": 467,
      "od": 468,
      "सम": 469,
      "सि": 470,
      "द्": 471,
      "दी": 472,
      "्ट": 473,
      "ain": 474,
      "est": 475,
      "अप": 476,
      "li": 477,
      "कहा": 478,
      "भार": 479,
      "हम": 480,
      "su": 481,
      "pe": 482,
      "sa": 483,
      "देश": 484,
      "मं": 485,
      "all": 486,
      "धि": 487,
      "पु": 488,
      "by": 489,
      "रह": 490,
      "ri": 491,
      "art": 492,
      "sh": 493,
      "जी": 494,
      "ap": 495,
      "will": 496,
      "शा": 497,
      "have": 498,
      "यह": 499,
      "his": 500,
      "पू": 501,
      "ld": 502,
      "सर": 503,
      "over": 504,
      "करने": 505,
      "चा": 506,
      "ne": 507,
      "उन": 508,
      "rom": 509,
      "मे": 510,
      "रू": 511,
      "न्ह": 512,
      "हि": 513,
      "श्": 514,
      "not": 515,
      "वे": 516,
      "me": 517,
      "्री": 518,
      "ies": 519,
      "पी": 520,
      "गया": 521,
      "said": 522,
      "from": 523,
      "मी": 524,
      "pl": 525,
      "वार": 526,
      "सु": 527,
      "ये": 528,
      "ice": 529,
      "राज": 530,
      "जो": 531,
      "उन्ह": 532,
      "उस": 533,
      "te": 534,
      "रे": 535,
      "ra": 536,
      "मंत्र": 537,
      "बी": 538,
      "रो": 539,
      "टी": 540,
      "कु": 541,
      "ts": 542,
      "ex": 543,
      "um": 544,
      "inis": 545,
      "साथ": 546,
      "ity": 547,
      "ess": 548,
      "ther": 549,
      "if": 550,
      "hi": 551,
      "this": 552,
      "ंड": 553,
      "India": 554,
      "तो": 555,
      "lo": 556,
      "अन": 557,
      "स्ट": 558,
      "we": 559,
      "one": 560,
      "ction": 561,
      "वी": 562,
      "igh": 563,
      "शि": 564,
      "तु": 565,
      "mo": 566,
      "00": 567,
      "201": 568,
      "per": 569,
      "क्र": 570,
      "तर": 571,
      "ong": 572,
      "po": 573,
      "por": 574,
      "iv": 575,
      "मान": 576,
      "म्": 577,
      "oun": 578,
      "ial": 579,
      "ष्ट": 580,
      "फि": 581,
      "ंद": 582,
      "end": 583,
      "out": 584,
      "also": 585,
      "स्थ": 586,
      "लोग": 587,
      "्या": 588,
      "been": 589,
      "ive": 590,
      "ारी": 591,
      "ind": 592,
      "मै": 593,
      "up": 594,
      "ist": 595,
      "वर्": 596,
      "ोंने": 597,
      "भारत": 598,
      "He": 599,
      "वह": 600,
      "मंत्री": 601,
      "ud": 602,
      "ard": 603,
      "िक": 604,
      "In": 605,
      "ओं": 606,
      "ef": 607,
      "दो": 608,
      "ant": 609,
      "qu": 610,
      "गे": 611,
      "you": 612,
      "ould": 613,
      "inister": 614,
      "खा": 615,
      "सक": 616,
      "अधि": 617,
      "रु": 618,
      "तक": 619,
      "बाद": 620,
      "नों": 621,
      "गी": 622,
      "wor": 623,
      "ah": 624,
      "पह": 625,
      "उन्होंने": 626,
      "cl": 627,
      "आई": 628,
      "दिया": 629,
      "ress": 630,
      "part": 631,
      "ian": 632,
      "ंध": 633,
      "fe": 634,
      "ge": 635,
      "यो": 636,
      "ज़": 637,
      "man": 638,
      "dis": 639,
      "pol": 640,
      "अपने": 641,
      "्रे": 642,
      "परि": 643,
      "िया": 644,
      "red": 645,
      "प्रति": 646,
      "overn": 647,
      "ated": 648,
      "ढ़": 649,
      "मो": 650,
      "av": 651,
      "प्": 652,
      "च्": 653,
      "थी": 654,
      "ust": 655,
      "19": 656,
      "gh": 657,
      "ारे": 658,
      "day": 659,
      "cas": 660,
      "ंच": 661,
      "धान": 662,
      "ime": 663,
      "port": 664,
      "were": 665,
      "शन": 666,
      "und": 667,
      "एस": 668,
      "ke": 669,
      "ear": 670,
      "\"\"\"": 671,
      "सरकार": 672,
      "af": 673,
      "em": 674,
      "ary": 675,
      "हुए": 676,
      "चु": 677,
      "sp": 678,
      "टे": 679,
      "जब": 680,
      "Th": 681,
      "ार्": 682,
      "मिल": 683,
      "had": 684,
      "पूर्": 685,
      "जन": 686,
      "इन": 687,
      "ident": 688,
      "Minister": 689,
      "Pr": 690,
      "रहे": 691,
      "their": 692,
      "age": 693,
      "मुख": 694,
      "ich": 695,
      "gr": 696,
      "who": 697,
      "ियों": 698,
      "आप": 699,
      "ous": 700,
      "Ch": 701,
      "act": 702,
      "्रा": 703,
      "बे": 704,
      "overnment": 705,
      "ord": 706,
      "क्षा": 707,
      "अनु": 708,
      "शु": 709,
      "ach": 710,
      "निर्": 711,
      "ence": 712,
      "form": 713,
      "थे": 714,
      "pr": 715,
      "उप": 716,
      "लिस": 717,
      "जिस": 718,
      "चि": 719,
      "दर्": 720,
      "coun": 721,
      "पुलिस": 722,
      "रूप": 723,
      "गई": 724,
      "यु": 725,
      "ौर": 726,
      "them": 727,
      "टर": 728,
      "हर": 729,
      "धार": 730,
      "its": 731,
      "har": 732,
      "do": 733,
      "off": 734,
      "चार": 735,
      "योग": 736,
      "ip": 737,
      "ore": 738,
      "सू": 739,
      "राज्य": 740,
      "du": 741,
      "बना": 742,
      "aj": 743,
      "पि": 744,
      "ok": 745,
      "they": 746,
      "माम": 747,
      "which": 748,
      "ure": 749,
      "लो": 750,
      "try": 751,
      "ll": 752,
      "ev": 753,
      "रहा": 754,
      "डी": 755,
      "बि": 756,
      "aw": 757,
      "au": 758,
      "ever": 759,
      "ast": 760,
      "मौ": 761,
      "any": 762,
      "cre": 763,
      "डि": 764,
      "जे": 765,
      "खि": 766,
      "दू": 767,
      "ish": 768,
      ".\"": 769,
      "ber": 770,
      "लों": 771,
      "बै": 772,
      "लोगों": 773,
      "तीय": 774,
      "can": 775,
      "ep": 776,
      "कोई": 777,
      "ight": 778,
      "no": 779,
      "सब": 780,
      "क्षे": 781,
      "रही": 782,
      "करते": 783,
      "व्य": 784,
      "वर": 785,
      "ंक": 786,
      "मैं": 787,
      "wo": 788,
      "यर": 789,
      "जाए": 790,
      "ans": 791,
      "कुछ": 792,
      "ib": 793,
      "ome": 794,
      "बंध": 795,
      "उत्": 796,
      "बात": 797,
      "गु": 798,
      "लय": 799,
      "एम": 800,
      "St": 801,
      "ire": 802,
      "ance": 803,
      "other": 804,
      "ail": 805,
      "्रीय": 806,
      "बर": 807,
      "ची": 808,
      "ho": 809,
      "द्वार": 810,
      "सिं": 811,
      "ानी": 812,
      "ations": 813,
      "स्ता": 814,
      "ide": 815,
      "यू": 816,
      "राष्ट": 817,
      "ough": 818,
      "क्षेत्र": 819,
      "ash": 820,
      "tak": 821,
      "किन": 822,
      "इसके": 823,
      "वं": 824,
      "ब्": 825,
      "ass": 826,
      "ath": 827,
      "गर": 828,
      "Indian": 829,
      "गए": 830,
      "उनके": 831,
      "ople": 832,
      "कार्य": 833,
      "द्वारा": 834,
      "),": 835,
      "ang": 836,
      "pres": 837,
      "reg": 838,
      "क्त": 839,
      "टा": 840,
      "under": 841,
      "मह": 842,
      "Sing": 843,
      "वाले": 844,
      "10": 845,
      "Rs": 846,
      "लिया": 847,
      "ध्य": 848,
      "ition": 849,
      "go": 850,
      "ple": 851,
      "ष्": 852,
      "किसी": 853,
      "सिंह": 854,
      "ict": 855,
      "It": 856,
      "श्री": 857,
      "दु": 858,
      "vel": 859,
      "कों": 860,
      "ंत": 861,
      "पार": 862,
      "ame": 863,
      "पो": 864,
      "ile": 865,
      "We": 866,
      "now": 867,
      "Singh": 868,
      "ru": 869,
      "पे": 870,
      "लेकिन": 871,
      "द्र": 872,
      "cent": 873,
      "बता": 874,
      "प्रा": 875,
      "ack": 876,
      "co": 877,
      "ank": 878,
      "ound": 879,
      "ew": 880,
      "ical": 881,
      "bl": 882,
      "ates": 883,
      "vi": 884,
      "ult": 885,
      "comm": 886,
      "ace": 887,
      "ser": 888,
      "state": 889,
      "police": 890,
      "पहले": 891,
      "लग": 892,
      "सो": 893,
      "As": 894,
      "there": 895,
      "काम": 896,
      "अपनी": 897,
      "ational": 898,
      "ड़ा": 899,
      "भारतीय": 900,
      "स्‍": 901,
      "कै": 902,
      "able": 903,
      "work": 904,
      "again": 905,
      "मार": 906,
      "people": 907,
      "med": 908,
      "esh": 909,
      "ree": 910,
      "bo": 911,
      "बढ़": 912,
      "Sh": 913,
      "cus": 914,
      "government": 915,
      "कृ": 916,
      "ine": 917,
      "ज्": 918,
      "मू": 919,
      "This": 920,
      "रख": 921,
      "तथा": 922,
      "र्ट": 923,
      "योज": 924,
      "ci": 925,
      "णा": 926,
      "डा": 927,
      "धा": 928,
      "कर्": 929,
      "old": 930,
      "ell": 931,
      "iz": 932,
      "शे": 933,
      "ater": 934,
      "आर": 935,
      "स्त": 936,
      "way": 937,
      "भि": 938,
      "after": 939,
      "हां": 940,
      "fer": 941,
      "fil": 942,
      "बार": 943,
      "ign": 944,
      "ions": 945,
      "pos": 946,
      "but": 947,
      "pre": 948,
      "ted": 949,
      "लगा": 950,
      "जान": 951,
      "ade": 952,
      "year": 953,
      "han": 954,
      "her": 955,
      "क्या": 956,
      "Wh": 957,
      "शी": 958,
      "करना": 959,
      "तरह": 960,
      "रुप": 961,
      "JP": 962,
      "ctor": 963,
      "him": 964,
      "att": 965,
      "ड़ी": 966,
      "fir": 967,
      "द्य": 968,
      "new": 969,
      "एवं": 970,
      "कारी": 971,
      "होने": 972,
      "जै": 973,
      "cial": 974,
      "Del": 975,
      "two": 976,
      "cont": 977,
      "ens": 978,
      "मुख्य": 979,
      "मत": 980,
      "cted": 981,
      "12": 982,
      "BJP": 983,
      "De": 984,
      "दान": 985,
      "Un": 986,
      "कह": 987,
      "फी": 988,
      "गि": 989,
      "करें": 990,
      "Delhi": 991,
      "br": 992,
      "enc": 993,
      "चे": 994,
      "ट्र": 995,
      "cr": 996,
      "बहु": 997,
      "against": 998,
      "जू": 999,
      "फिल्": 1000,
      "je": 1001,
      "एं": 1002,
      "prov": 1003,
      "यन": 1004,
      "cur": 1005,
      "ंग्रे": 1006,
      "खिला": 1007,
      "ck": 1008,
      "बो": 1009,
      "ren": 1010,
      "about": 1011,
      "चाहि": 1012,
      "उन्हें": 1013,
      "टि": 1014,
      "सभी": 1015,
      "inter": 1016,
      "दिल्": 1017,
      "case": 1018,
      "mar": 1019,
      "would": 1020,
      "इं": 1021,
      "time": 1022,
      "यम": 1023,
      "भू": 1024,
      "हुआ": 1025,
      "मामले": 1026,
      "mis": 1027,
      "र्थ": 1028,
      "होगा": 1029,
      "सद": 1030,
      "हुई": 1031,
      "जु": 1032,
      "my": 1033,
      "your": 1034,
      "Cong": 1035,
      "चाहिए": 1036,
      "खु": 1037,
      "पै": 1038,
      "ite": 1039,
      "भाग": 1040,
      "तुम": 1041,
      "ंप": 1042,
      "comp": 1043,
      "low": 1044,
      "ons": 1045,
      "समय": 1046,
      "Congress": 1047,
      "ue": 1048,
      "uring": 1049,
      "प्रधान": 1050,
      "कम": 1051,
      "पास": 1052,
      "All": 1053,
      "ai": 1054,
      "Mod": 1055,
      "get": 1056,
      "शामिल": 1057,
      "कांग्रे": 1058,
      "एन": 1059,
      "फा": 1060,
      "स्था": 1061,
      "दिल्ली": 1062,
      "own": 1063,
      "inv": 1064,
      "ोड़": 1065,
      "ारा": 1066,
      "कांग्रेस": 1067,
      "cess": 1068,
      "पति": 1069,
      "क्ति": 1070,
      "fore": 1071,
      "पूर्व": 1072,
      "सकता": 1073,
      "ful": 1074,
      "यी": 1075,
      "incl": 1076,
      "वर्ष": 1077,
      "फिल्म": 1078,
      "अव": 1079,
      "कई": 1080,
      "15": 1081,
      "ele": 1082,
      "हू": 1083,
      "add": 1084,
      "ज्ञ": 1085,
      "og": 1086,
      "Com": 1087,
      "वन": 1088,
      "मोदी": 1089,
      "mon": 1090,
      "छा": 1091,
      "सह": 1092,
      "ick": 1093,
      "Raj": 1094,
      "प्रदेश": 1095,
      "And": 1096,
      "डे": 1097,
      "int": 1098,
      "पहु": 1099,
      "्यू": 1100,
      "पुर": 1101,
      "first": 1102,
      "फो": 1103,
      "्‍": 1104,
      "फिर": 1105,
      "An": 1106,
      "eng": 1107,
      "like": 1108,
      "Ar": 1109,
      "spe": 1110,
      "ual": 1111,
      "विश्": 1112,
      "ities": 1113,
      "come": 1114,
      "ourt": 1115,
      "velop": 1116,
      "Modi": 1117,
      "चल": 1118,
      "देख": 1119,
      "बीच": 1120,
      "istan": 1121,
      "बहुत": 1122,
      "14": 1123,
      "ड़े": 1124,
      "lead": 1125,
      "दौर": 1126,
      "air": 1127,
      "bet": 1128,
      "pp": 1129,
      "cro": 1130,
      "ild": 1131,
      "न्या": 1132,
      "अन्य": 1133,
      "बु": 1134,
      "अधिक": 1135,
      "mb": 1136,
      "निक": 1137,
      "जाने": 1138,
      "जाता": 1139,
      "should": 1140,
      "अं": 1141,
      "केंद": 1142,
      "country": 1143,
      "प्रधानमंत्री": 1144,
      "mak": 1145,
      "योजना": 1146,
      "tain": 1147,
      "सकते": 1148,
      "pers": 1149,
      "offic": 1150,
      "ied": 1151,
      "200": 1152,
      "गो": 1153,
      "खे": 1154,
      "रक्षा": 1155,
      "ase": 1156,
      "स्व": 1157,
      "द्ध": 1158,
      "किए": 1159,
      "बताया": 1160,
      "विका": 1161,
      "when": 1162,
      "्टी": 1163,
      "Pak": 1164,
      "आरो": 1165,
      "पर्": 1166,
      "ings": 1167,
      "क्यों": 1168,
      "ari": 1169,
      "नाव": 1170,
      "दोनों": 1171,
      "फ्": 1172,
      "know": 1173,
      "उसे": 1174,
      "कॉ": 1175,
      "हत": 1176,
      "हों": 1177,
      "50": 1178,
      "फ़": 1179,
      "बारे": 1180,
      "ose": 1181,
      "मन": 1182,
      "हे": 1183,
      "स्तान": 1184,
      "राष्ट्र": 1185,
      "Se": 1186,
      "sc": 1187,
      "उसके": 1188,
      "say": 1189,
      "विकास": 1190,
      "दार": 1191,
      "ital": 1192,
      "क्स": 1193,
      "amil": 1194,
      "रुपये": 1195,
      "vis": 1196,
      "गत": 1197,
      "ग्र": 1198,
      "then": 1199,
      "करता": 1200,
      "न्न": 1201,
      "000": 1202,
      "some": 1203,
      "तार": 1204,
      "film": 1205,
      "Pol": 1206,
      "क्रम": 1207,
      "But": 1208,
      "दौरान": 1209,
      "ंत्र": 1210,
      "mit": 1211,
      "vers": 1212,
      "उनकी": 1213,
      "God": 1214,
      "धन": 1215,
      "सभा": 1216,
      "than": 1217,
      "more": 1218,
      "धी": 1219,
      "भाव": 1220,
      "pt": 1221,
      "ory": 1222,
      "very": 1223,
      "30": 1224,
      "सान": 1225,
      "ann": 1226,
      "संबंध": 1227,
      "ya": 1228,
      "while": 1229,
      "पाकि": 1230,
      "खिलाफ": 1231,
      "Mo": 1232,
      "त्य": 1233,
      "oc": 1234,
      "rel": 1235,
      "present": 1236,
      "इंड": 1237,
      "मद": 1238,
      "ise": 1239,
      "न्‍": 1240,
      "Pakistan": 1241,
      "18": 1242,
      "So": 1243,
      "ments": 1244,
      "भाज": 1245,
      "pur": 1246,
      "ased": 1247,
      "नाम": 1248,
      "झे": 1249,
      "ced": 1250,
      "mat": 1251,
      "being": 1252,
      "into": 1253,
      "sel": 1254,
      "दिन": 1255,
      "oy": 1256,
      "ices": 1257,
      "त्व": 1258,
      "tal": 1259,
      "लन": 1260,
      "लेकर": 1261,
      "कारण": 1262,
      "होता": 1263,
      "play": 1264,
      "ener": 1265,
      "स्थान": 1266,
      "Af": 1267,
      "करा": 1268,
      "वै": 1269,
      "For": 1270,
      "gan": 1271,
      "लै": 1272,
      "पूर्ण": 1273,
      "ral": 1274,
      "sion": 1275,
      "ting": 1276,
      "चित": 1277,
      "stit": 1278,
      "वाई": 1279,
      "शुरू": 1280,
      "भाजपा": 1281,
      "ating": 1282,
      "adesh": 1283,
      "leg": 1284,
      "mer": 1285,
      "ject": 1286,
      "ma": 1287,
      "घा": 1288,
      "पता": 1289,
      "सार": 1290,
      "करण": 1291,
      "निया": 1292,
      "जारी": 1293,
      "ठा": 1294,
      "प्त": 1295,
      "सबसे": 1296,
      "नेता": 1297,
      "चुनाव": 1298,
      "There": 1299,
      "made": 1300,
      "ry": 1301,
      "resident": 1302,
      "फै": 1303,
      "शो": 1304,
      "सम्": 1305,
      "11": 1306,
      "ubl": 1307,
      "ents": 1308,
      "cord": 1309,
      "नीति": 1310,
      "वो": 1311,
      "जांच": 1312,
      "देने": 1313,
      "what": 1314,
      "ss": 1315,
      "ख़": 1316,
      "ph": 1317,
      "घट": 1318,
      "चना": 1319,
      "serv": 1320,
      "सर्": 1321,
      "urn": 1322,
      "Re": 1323,
      "land": 1324,
      "समा": 1325,
      "issu": 1326,
      "वाली": 1327,
      "national": 1328,
      "ty": 1329,
      "पं": 1330,
      "साम": 1331,
      "tem": 1332,
      "ob": 1333,
      "cer": 1334,
      "fin": 1335,
      "set": 1336,
      "cond": 1337,
      "ctions": 1338,
      "Prime": 1339,
      "जाएगा": 1340,
      "How": 1341,
      "वाद": 1342,
      "such": 1343,
      "च्च": 1344,
      "सेवा": 1345,
      "tra": 1346,
      "hand": 1347,
      "सन": 1348,
      "ats": 1349,
      "महि": 1350,
      "टीम": 1351,
      "Chi": 1352,
      "la": 1353,
      "अध्य": 1354,
      "आज": 1355,
      "rest": 1356,
      "तीन": 1357,
      "led": 1358,
      "read": 1359,
      "ors": 1360,
      "Shri": 1361,
      "ंगा": 1362,
      "these": 1363,
      "New": 1364,
      "during": 1365,
      "distr": 1366,
      "Chief": 1367,
      "एल": 1368,
      "They": 1369,
      "Government": 1370,
      "स्थि": 1371,
      "includ": 1372,
      "कू": 1373,
      "कंप": 1374,
      "ंकि": 1375,
      "inc": 1376,
      "arn": 1377,
      "शेष": 1378,
      "बद": 1379,
      "रत": 1380,
      "पार्टी": 1381,
      "rough": 1382,
      "यल": 1383,
      "where": 1384,
      "ution": 1385,
      "produ": 1386,
      "पाकिस्तान": 1387,
      "..": 1388,
      "giv": 1389,
      "बन": 1390,
      "hel": 1391,
      "develop": 1392,
      "क्रि": 1393,
      "लोक": 1394,
      "only": 1395,
      "ween": 1396,
      "ana": 1397,
      "करोड़": 1398,
      "far": 1399,
      "गठ": 1400,
      "केट": 1401,
      "ited": 1402,
      "करे": 1403,
      "17": 1404,
      "main": 1405,
      "बल": 1406,
      "यक": 1407,
      "13": 1408,
      "Mah": 1409,
      "ik": 1410,
      "हाला": 1411,
      "between": 1412,
      "reat": 1413,
      "नियम": 1414,
      "इससे": 1415,
      "ship": 1416,
      "च्छ": 1417,
      "Police": 1418,
      "ऐसा": 1419,
      "three": 1420,
      "those": 1421,
      "दर्ज": 1422,
      "राष्ट्रीय": 1423,
      "आरोप": 1424,
      "ंट": 1425,
      "अभि": 1426,
      "row": 1427,
      "लाख": 1428,
      "ause": 1429,
      "मुझे": 1430,
      "जय": 1431,
      "जिन": 1432,
      "नर": 1433,
      "ेंगे": 1434,
      "need": 1435,
      "ness": 1436,
      "ऐसे": 1437,
      "डॉ": 1438,
      "माण": 1439,
      "sub": 1440,
      "द्योग": 1441,
      "जार": 1442,
      "भे": 1443,
      "करी": 1444,
      "ters": 1445,
      "President": 1446,
      "ट्": 1447,
      "युक्त": 1448,
      "16": 1449,
      "तै": 1450,
      "यत": 1451,
      "लत": 1452,
      "स्वा": 1453,
      "क्षण": 1454,
      "Pradesh": 1455,
      "हूं": 1456,
      "how": 1457,
      "अब": 1458,
      "दर": 1459,
      "oper": 1460,
      "पहुंच": 1461,
      "Man": 1462,
      "cap": 1463,
      "mu": 1464,
      "आधार": 1465,
      "मार्": 1466,
      "समझ": 1467,
      "Ad": 1468,
      "En": 1469,
      "famil": 1470,
      "high": 1471,
      "ward": 1472,
      "take": 1473,
      "मुख्यमंत्री": 1474,
      "invest": 1475,
      "dec": 1476,
      "meet": 1477,
      "लॉ": 1478,
      "arg": 1479,
      "विक": 1480,
      "लू": 1481,
      "thing": 1482,
      "many": 1483,
      "crore": 1484,
      "ved": 1485,
      "कान": 1486,
      "इसमें": 1487,
      "पोर्ट": 1488,
      "rit": 1489,
      "ंस": 1490,
      "ism": 1491,
      "प्रे": 1492,
      "2019": 1493,
      "क्रिया": 1494,
      "महिला": 1495,
      "No": 1496,
      "एफ": 1497,
      "क़": 1498,
      "नो": 1499,
      "through": 1500,
      "ower": 1501,
      "official": 1502,
      "ces": 1503,
      "well": 1504,
      "ालय": 1505,
      "परा": 1506,
      "see": 1507,
      "State": 1508,
      "did": 1509,
      "आत": 1510,
      "इसे": 1511,
      "akh": 1512,
      "world": 1513,
      "ublic": 1514,
      "sha": 1515,
      "अमे": 1516,
      "report": 1517,
      "सुरक्षा": 1518,
      "Con": 1519,
      "टो": 1520,
      "ative": 1521,
      "24": 1522,
      "ran": 1523,
      "ush": 1524,
      "जैसे": 1525,
      "25": 1526,
      "Pro": 1527,
      "र्ड": 1528,
      "every": 1529,
      "ग्रा": 1530,
      "जर": 1531,
      "वज": 1532,
      "ask": 1533,
      "्यादा": 1534,
      "taken": 1535,
      "fl": 1536,
      "रण": 1537,
      "ata": 1538,
      "alth": 1539,
      "क्‍": 1540,
      "विशेष": 1541,
      "घटना": 1542,
      "col": 1543,
      "she": 1544,
      "रिया": 1545,
      "हमारे": 1546,
      "अधिकार": 1547,
      "बैंक": 1548,
      "Al": 1549,
      "कता": 1550,
      "भाष": 1551,
      "सरे": 1552,
      "umb": 1553,
      "हन": 1554,
      "ally": 1555,
      "order": 1556,
      "Su": 1557,
      "अगर": 1558,
      "यार": 1559,
      "ink": 1560,
      "ेंद्र": 1561,
      "सेना": 1562,
      "विश्व": 1563,
      "अध्यक्ष": 1564,
      "call": 1565,
      "ister": 1566,
      "चाह": 1567,
      "inistry": 1568,
      "तुम्": 1569,
      "may": 1570,
      "minister": 1571,
      "wom": 1572,
      "अभी": 1573,
      "क्योंकि": 1574,
      "put": 1575,
      "घर": 1576,
      "घो": 1577,
      "शत": 1578,
      "cho": 1579,
      "श्‍": 1580,
      "ific": 1581,
      "बढ़ा": 1582,
      "स्थिति": 1583,
      "अमेरि": 1584,
      "Ex": 1585,
      "les": 1586,
      "mber": 1587,
      "press": 1588,
      "यालय": 1589,
      "accus": 1590,
      "मंत्रालय": 1591,
      "mark": 1592,
      "PM": 1593,
      "हित": 1594,
      "str": 1595,
      "पिछ": 1596,
      "cause": 1597,
      "टन": 1598,
      "als": 1599,
      "भूमि": 1600,
      "person": 1601,
      "राष्ट्रपति": 1602,
      "here": 1603,
      "min": 1604,
      "आए": 1605,
      "इस्": 1606,
      "उम्": 1607,
      "महा": 1608,
      "साल": 1609,
      "chi": 1610,
      "्ड": 1611,
      "stud": 1612,
      "fo": 1613,
      "दों": 1614,
      "हमें": 1615,
      "अपना": 1616,
      "pect": 1617,
      "बैठ": 1618,
      ",\"\"": 1619,
      "Cent": 1620,
      "Khan": 1621,
      "US": 1622,
      "could": 1623,
      "last": 1624,
      "tar": 1625,
      "ves": 1626,
      "तहत": 1627,
      "सै": 1628,
      "stand": 1629,
      "त्रा": 1630,
      "sy": 1631,
      "ving": 1632,
      "सला": 1633,
      "राम": 1634,
      "ollow": 1635,
      "गिर": 1636,
      "Sha": 1637,
      "dif": 1638,
      "अला": 1639,
      "arch": 1640,
      "life": 1641,
      "तुम्ह": 1642,
      "fa": 1643,
      "fic": 1644,
      "ध्या": 1645,
      "नई": 1646,
      "वान": 1647,
      "संख": 1648,
      "most": 1649,
      "Allah": 1650,
      "mir": 1651,
      "today": 1652,
      "वाला": 1653,
      "even": 1654,
      "मौत": 1655,
      "व्यक्ति": 1656,
      "years": 1657,
      "ms": 1658,
      "जल": 1659,
      "वल": 1660,
      "व्या": 1661,
      "inform": 1662,
      "gu": 1663,
      "भर": 1664,
      "प्रतिशत": 1665,
      "जबकि": 1666,
      "car": 1667,
      "just": 1668,
      "बल्": 1669,
      "कुमार": 1670,
      "परिवार": 1671,
      "accused": 1672,
      "resp": 1673,
      "पत्": 1674,
      "श्य": 1675,
      "तान": 1676,
      "जीत": 1677,
      "मीद": 1678,
      "icket": 1679,
      "cle": 1680,
      "ures": 1681,
      "हार": 1682,
      "ुदा": 1683,
      "र्स": 1684,
      "start": 1685,
      "cons": 1686,
      "ष्ठ": 1687,
      "Kum": 1688,
      "ax": 1689,
      "dire": 1690,
      "फे": 1691,
      "हालांकि": 1692,
      "She": 1693,
      "प्रो": 1694,
      "साइ": 1695,
      "happ": 1696,
      "दन": 1697,
      "यहां": 1698,
      "लं": 1699,
      "beli": 1700,
      "Gand": 1701,
      "प्रमुख": 1702,
      "प्रदर्": 1703,
      "ular": 1704,
      "अलावा": 1705,
      "Is": 1706,
      "ured": 1707,
      "विधा": 1708,
      "21": 1709,
      "Bo": 1710,
      "test": 1711,
      "सके": 1712,
      "ural": 1713,
      "used": 1714,
      "Union": 1715,
      "पक्ष": 1716,
      "वास": 1717,
      "Me": 1718,
      "On": 1719,
      "des": 1720,
      "four": 1721,
      "नौ": 1722,
      "party": 1723,
      "ways": 1724,
      "पिछले": 1725,
      ").": 1726,
      "fr": 1727,
      "power": 1728,
      "आगे": 1729,
      "श्र": 1730,
      "chan": 1731,
      "sup": 1732,
      "जिसमें": 1733,
      "ible": 1734,
      "्‍य": 1735,
      "विधान": 1736,
      "ndra": 1737,
      "जूद": 1738,
      "Par": 1739,
      "pri": 1740,
      "ven": 1741,
      "सित": 1742,
      "ised": 1743,
      "olog": 1744,
      "family": 1745,
      "उम्मीद": 1746,
      "ave": 1747,
      "war": 1748,
      "खान": 1749,
      "ret": 1750,
      "ared": 1751,
      "देशों": 1752,
      "ix": 1753,
      "ivers": 1754,
      "काफी": 1755,
      "ताओं": 1756,
      "help": 1757,
      "You": 1758,
      "law": 1759,
      "sur": 1760,
      "अग": 1761,
      "अंत": 1762,
      "बॉ": 1763,
      "यान": 1764,
      "ility": 1765,
      "before": 1766,
      "post": 1767,
      "उत्तर": 1768,
      "सदस्": 1769,
      "bod": 1770,
      "cor": 1771,
      "court": 1772,
      "ious": 1773,
      "organ": 1774,
      "क्टर": 1775,
      "होती": 1776,
      "ंधी": 1777,
      "cret": 1778,
      "good": 1779,
      "घोष": 1780,
      "Nare": 1781,
      "long": 1782,
      "फल": 1783,
      "होगी": 1784,
      "उसने": 1785,
      "केंद्र": 1786,
      "Narendra": 1787,
      "Ministry": 1788,
      "जग": 1789,
      "णी": 1790,
      "तरी": 1791,
      "सचि": 1792,
      "स्वी": 1793,
      "पूर": 1794,
      "स्थित": 1795,
      "Kumar": 1796,
      "Kash": 1797,
      "तौर": 1798,
      "incre": 1799,
      "ond": 1800,
      "हाल": 1801,
      "Gandhi": 1802,
      "Ram": 1803,
      "Tr": 1804,
      "aim": 1805,
      "back": 1806,
      "cover": 1807,
      "ओर": 1808,
      "ज्यादा": 1809,
      "कुल": 1810,
      "विभाग": 1811,
      "वाल": 1812,
      "माल": 1813,
      "2020": 1814,
      "chief": 1815,
      "22": 1816,
      "bu": 1817,
      "ten": 1818,
      "अलग": 1819,
      "आव": 1820,
      "ati": 1821,
      "oup": 1822,
      "परी": 1823,
      "ided": 1824,
      "मांग": 1825,
      "त्या": 1826,
      "National": 1827,
      "lakh": 1828,
      "par": 1829,
      "दम": 1830,
      "पद": 1831,
      "ision": 1832,
      "र्म": 1833,
      "हमने": 1834,
      "मीर": 1835,
      "team": 1836,
      "Kap": 1837,
      "kill": 1838,
      "गांधी": 1839,
      "हिस्": 1840,
      "सूचना": 1841,
      "self": 1842,
      "follow": 1843,
      "mor": 1844,
      "कल": 1845,
      "वहीं": 1846,
      "stru": 1847,
      "ports": 1848,
      "spital": 1849,
      "mission": 1850,
      "make": 1851,
      ".\"\"\"": 1852,
      "Court": 1853,
      "Pun": 1854,
      "amp": 1855,
      "इसका": 1856,
      "इसलिए": 1857,
      "दिखा": 1858,
      "soci": 1859,
      "ज्ञान": 1860,
      "However": 1861,
      "Shar": 1862,
      "ric": 1863,
      "अल्": 1864,
      "तन": 1865,
      "प्रदान": 1866,
      "लिये": 1867,
      "विष": 1868,
      "सीट": 1869,
      "पूरी": 1870,
      "ble": 1871,
      "गै": 1872,
      "जरू": 1873,
      "arge": 1874,
      "वित्": 1875,
      "मेरे": 1876,
      "बनाने": 1877,
      "दूसरे": 1878,
      "Kashmir": 1879,
      "mand": 1880,
      "run": 1881,
      "sit": 1882,
      "कश्": 1883,
      "दारी": 1884,
      "अधिकारी": 1885,
      "view": 1886,
      "80": 1887,
      "down": 1888,
      "hold": 1889,
      "vari": 1890,
      "अम": 1891,
      "चौ": 1892,
      "डिया": 1893,
      "फर": 1894,
      "child": 1895,
      "ended": 1896,
      "register": 1897,
      "district": 1898,
      "अस्": 1899,
      "शल": 1900,
      "ouse": 1901,
      "ched": 1902,
      "peri": 1903,
      "lim": 1904,
      "छो": 1905,
      "पत्र": 1906,
      "inj": 1907,
      "shall": 1908,
      "2017": 1909,
      "लैंड": 1910,
      "Act": 1911,
      "MP": 1912,
      "rele": 1913,
      "वेश": 1914,
      "उसकी": 1915,
      "कृति": 1916,
      "curity": 1917,
      "मदद": 1918,
      "came": 1919,
      "num": 1920,
      "arrest": 1921,
      "पाल": 1922,
      "निर्माण": 1923,
      "ought": 1924,
      "करेंगे": 1925,
      "given": 1926,
      "संख्या": 1927,
      "GB": 1928,
      "जहां": 1929,
      "याद": 1930,
      "वित": 1931,
      "ंगे": 1932,
      "2018": 1933,
      "gram": 1934,
      "अनुसार": 1935,
      "incident": 1936,
      "wal": 1937,
      "पश्": 1938,
      "ब्र": 1939,
      "काल": 1940,
      "head": 1941,
      "हाँ": 1942,
      "निश्": 1943,
      "exam": 1944,
      "स्टे": 1945,
      "धारा": 1946,
      "फोन": 1947,
      "केंद्रीय": 1948,
      "including": 1949,
      "कानू": 1950,
      "val": 1951,
      "ग्": 1952,
      "ीय": 1953,
      "ale": 1954,
      "held": 1955,
      "कार्यक्रम": 1956,
      "both": 1957,
      "ency": 1958,
      "clo": 1959,
      "oor": 1960,
      "ताब": 1961,
      "मैच": 1962,
      "उत्पा": 1963,
      "दुनिया": 1964,
      "cording": 1965,
      "गिरफ्": 1966,
      "Gu": 1967,
      "public": 1968,
      "लु": 1969,
      "ics": 1970,
      "दिए": 1971,
      "sure": 1972,
      "पूरा": 1973,
      "BI": 1974,
      "men": 1975,
      "इला": 1976,
      "उठा": 1977,
      "ख्": 1978,
      "तों": 1979,
      "काश": 1980,
      "stem": 1981,
      "ext": 1982,
      "सकती": 1983,
      "What": 1984,
      "differ": 1985,
      "registered": 1986,
      "Ro": 1987,
      "ट्रे": 1988,
      "ठी": 1989,
      "ese": 1990,
      "प्रि": 1991,
      "road": 1992,
      "death": 1993,
      "प्राप्त": 1994,
      "भिन्न": 1995,
      "बैठक": 1996,
      "ie": 1997,
      "जाना": 1998,
      "eld": 1999,
      "उनका": 2000,
      "loc": 2001,
      "ives": 2002,
      "polit": 2003,
      "इंडिया": 2004,
      "बंद": 2005,
      "ont": 2006,
      "import": 2007,
      "conom": 2008,
      "contin": 2009,
      "ft": 2010,
      "nor": 2011,
      "ning": 2012,
      "sing": 2013,
      "ंब": 2014,
      "पक": 2015,
      "सौ": 2016,
      "हरा": 2017,
      "कोर्ट": 2018,
      "tern": 2019,
      "जीवन": 2020,
      "मीडिया": 2021,
      "fac": 2022,
      "पट": 2023,
      "सल": 2024,
      "ants": 2025,
      "यास": 2026,
      "विचार": 2027,
      "tru": 2028,
      "त्म": 2029,
      "तैयार": 2030,
      "chool": 2031,
      "70": 2032,
      "Co": 2033,
      "each": 2034,
      "पड़": 2035,
      "शर्": 2036,
      "andid": 2037,
      "look": 2038,
      "टू": 2039,
      "भग": 2040,
      "number": 2041,
      "uk": 2042,
      "xt": 2043,
      "तब": 2044,
      "तंत्र": 2045,
      "यहो": 2046,
      "chn": 2047,
      "project": 2048,
      "पीएम": 2049,
      "उपल": 2050,
      "media": 2051,
      "99": 2052,
      "CC": 2053,
      "Hind": 2054,
      "जें": 2055,
      "partic": 2056,
      "does": 2057,
      "bus": 2058,
      "jab": 2059,
      "ror": 2060,
      "among": 2061,
      "ety": 2062,
      "रिपोर्ट": 2063,
      "show": 2064,
      "cases": 2065,
      "former": 2066,
      "मामला": 2067,
      "development": 2068,
      "यहोवा": 2069,
      "उपलब्": 2070,
      "ben": 2071,
      "oth": 2072,
      "pass": 2073,
      "sent": 2074,
      "कपूर": 2075,
      "।\"": 2076,
      "ins": 2077,
      "iness": 2078,
      "requ": 2079,
      "trans": 2080,
      "ploy": 2081,
      "जानकारी": 2082,
      "month": 2083,
      "meeting": 2084,
      "Shah": 2085,
      "Jam": 2086,
      "ऑफ": 2087,
      "जवा": 2088,
      "व्यव": 2089,
      "अंतर": 2090,
      "खेल": 2091,
      "40": 2092,
      "use": 2093,
      "उद्": 2094,
      "बू": 2095,
      "लें": 2096,
      "reme": 2097,
      "मिक": 2098,
      "app": 2099,
      "डियो": 2100,
      "पंजा": 2101,
      "कश्मीर": 2102,
      "100": 2103,
      "23": 2104,
      "His": 2105,
      "cy": 2106,
      "डल": 2107,
      "किसान": 2108,
      "नाग": 2109,
      "विद्": 2110,
      "रात": 2111,
      "place": 2112,
      "augh": 2113,
      "Je": 2114,
      "mers": 2115,
      "sto": 2116,
      "water": 2117,
      "कभी": 2118,
      "गति": 2119,
      "चर्": 2120,
      "वृ": 2121,
      "ala": 2122,
      "करती": 2123,
      "सां": 2124,
      "चीन": 2125,
      "प्रदर्शन": 2126,
      "Kapoor": 2127,
      "Res": 2128,
      "मेंट": 2129,
      "इसी": 2130,
      "संघ": 2131,
      "president": 2132,
      "मूल": 2133,
      "भूमिका": 2134,
      "Go": 2135,
      "ior": 2136,
      "ina": 2137,
      "reach": 2138,
      "ides": 2139,
      "ake": 2140,
      "रोध": 2141,
      "rent": 2142,
      "होंगे": 2143,
      "support": 2144,
      "अस्पता": 2145,
      "Ac": 2146,
      "Sab": 2147,
      "रल": 2148,
      "सहा": 2149,
      "urther": 2150,
      "tries": 2151,
      "पहली": 2152,
      "पंजाब": 2153,
      "found": 2154,
      "आया": 2155,
      "यता": 2156,
      "sector": 2157,
      "ament": 2158,
      "मौके": 2159,
      "महत्व": 2160,
      "ged": 2161,
      "mot": 2162,
      "नजर": 2163,
      "उपयोग": 2164,
      "cretary": 2165,
      "Punjab": 2166,
      "Bh": 2167,
      "sed": 2168,
      "मर": 2169,
      "सत": 2170,
      "eneral": 2171,
      "gy": 2172,
      "king": 2173,
      "बड़ी": 2174,
      "नाथ": 2175,
      "जाती": 2176,
      "ages": 2177,
      "ंग्": 2178,
      "fect": 2179,
      "spot": 2180,
      "ार्थ": 2181,
      "बेह": 2182,
      "क्षेत्रों": 2183,
      "investig": 2184,
      "umbai": 2185,
      "निश्चित": 2186,
      "28": 2187,
      "Rah": 2188,
      "want": 2189,
      "भु": 2190,
      "षि": 2191,
      "हरी": 2192,
      "प्रक्रिया": 2193,
      "second": 2194,
      "द्धि": 2195,
      "सचिव": 2196,
      "Mal": 2197,
      "Mumbai": 2198,
      "दक्ष": 2199,
      "ुक": 2200,
      "प्रयास": 2201,
      "परमे": 2202,
      "न्द्र": 2203,
      "शिक्षा": 2204,
      "partment": 2205,
      "hospital": 2206,
      "body": 2207,
      "If": 2208,
      "candid": 2209,
      "sen": 2210,
      "जल्": 2211,
      "rece": 2212,
      "arh": 2213,
      "commun": 2214,
      "सहयोग": 2215,
      "az": 2216,
      "cation": 2217,
      "ner": 2218,
      "ude": 2219,
      "‘‘": 2220,
      "ars": 2221,
      "होते": 2222,
      "trib": 2223,
      "memb": 2224,
      "attack": 2225,
      "stitut": 2226,
      "कंपनी": 2227,
      "members": 2228,
      "Wor": 2229,
      "che": 2230,
      "ek": 2231,
      "आने": 2232,
      "गू": 2233,
      "ination": 2234,
      "ince": 2235,
      "ort": 2236,
      "लाह": 2237,
      "लेख": 2238,
      "sever": 2239,
      "process": 2240,
      "ified": 2241,
      "days": 2242,
      "मौजूद": 2243,
      "Sabha": 2244,
      "26": 2245,
      "CO": 2246,
      "Cha": 2247,
      "Te": 2248,
      "econom": 2249,
      "grow": 2250,
      "अदा": 2251,
      "एच": 2252,
      "नए": 2253,
      "सरा": 2254,
      "aring": 2255,
      "विभिन्न": 2256,
      "लाई": 2257,
      "semb": 2258,
      "plain": 2259,
      "रेल": 2260,
      "आवश्य": 2261,
      "Ut": 2262,
      "sm": 2263,
      "तम": 2264,
      "बड़ा": 2265,
      "प्रकार": 2266,
      "विदेश": 2267,
      "train": 2268,
      "coming": 2269,
      "comple": 2270,
      "समर्थ": 2271,
      "ग्रह": 2272,
      "सामने": 2273,
      "ready": 2274,
      "भाषा": 2275,
      "bank": 2276,
      "jo": 2277,
      "nt": 2278,
      "sign": 2279,
      "उच्च": 2280,
      "केवल": 2281,
      "because": 2282,
      "हुल": 2283,
      "उसका": 2284,
      "tee": 2285,
      "स्वास्थ": 2286,
      "वजह": 2287,
      "different": 2288,
      "action": 2289,
      "ield": 2290,
      "झा": 2291,
      "पित": 2292,
      "thor": 2293,
      "स्तु": 2294,
      "लेने": 2295,
      "शाह": 2296,
      "qual": 2297,
      "hov": 2298,
      "संबंधित": 2299,
      "laun": 2300,
      "27": 2301,
      "der": 2302,
      "nam": 2303,
      "कौ": 2304,
      "डर": 2305,
      "remain": 2306,
      "दाय": 2307,
      "group": 2308,
      "आपको": 2309,
      "due": 2310,
      "अवसर": 2311,
      "leader": 2312,
      "Jehov": 2313,
      "Jehovah": 2314,
      "SP": 2315,
      "bal": 2316,
      "vill": 2317,
      "मृ": 2318,
      "कीमत": 2319,
      "प्रबंध": 2320,
      "rol": 2321,
      "security": 2322,
      "social": 2323,
      "सिल": 2324,
      "परियोजना": 2325,
      "women": 2326,
      "Le": 2327,
      "अभ": 2328,
      "टक": 2329,
      "मध्य": 2330,
      "यदि": 2331,
      "वाह": 2332,
      "इसकी": 2333,
      "मिले": 2334,
      "claim": 2335,
      "अस्पताल": 2336,
      "स्वास्थ्य": 2337,
      "jay": 2338,
      "less": 2339,
      "उद्योग": 2340,
      "वें": 2341,
      "ists": 2342,
      "स्तर": 2343,
      "role": 2344,
      "राहुल": 2345,
      "imple": 2346,
      "संगठ": 2347,
      "शिका": 2348,
      "कूल": 2349,
      "Eng": 2350,
      "Do": 2351,
      "got": 2352,
      "lit": 2353,
      "ड्": 2354,
      "पानी": 2355,
      "बस": 2356,
      "outh": 2357,
      "ानि": 2358,
      "बाइ": 2359,
      "पिता": 2360,
      "ज्ञा": 2361,
      "अमेरिका": 2362,
      "arrested": 2363,
      "पश्चि": 2364,
      "गिरफ्तार": 2365,
      "ंबई": 2366,
      "sembly": 2367,
      "35": 2368,
      "ID": 2369,
      "fact": 2370,
      "line": 2371,
      "same": 2372,
      "गृ": 2373,
      "देते": 2374,
      "पांच": 2375,
      "ology": 2376,
      "Sharma": 2377,
      "Uttar": 2378,
      "Bi": 2379,
      "Of": 2380,
      "ंबर": 2381,
      "उल्": 2382,
      "खंड": 2383,
      "न्यू": 2384,
      "लर": 2385,
      "वरी": 2386,
      "told": 2387,
      "seen": 2388,
      "दूर": 2389,
      "occas": 2390,
      "right": 2391,
      "son": 2392,
      "win": 2393,
      "ंति": 2394,
      "अच्छ": 2395,
      "बयान": 2396,
      "रखा": 2397,
      "लड़": 2398,
      "समु": 2399,
      "प्रभा": 2400,
      "प्रशा": 2401,
      "वालों": 2402,
      "राव": 2403,
      "तरफ": 2404,
      "व्यवस्था": 2405,
      "Ko": 2406,
      "Pat": 2407,
      "aid": 2408,
      "अफ": 2409,
      "ऐसी": 2410,
      "गं": 2411,
      "ani": 2412,
      "नेट": 2413,
      "let": 2414,
      "क्षित": 2415,
      "ized": 2416,
      "After": 2417,
      "नरेंद्र": 2418,
      "दक्षि": 2419,
      "ling": 2420,
      "pend": 2421,
      "wit": 2422,
      "अर्": 2423,
      "खो": 2424,
      "लब": 2425,
      "र्ष": 2426,
      "सीमा": 2427,
      "मिला": 2428,
      "त्‍": 2429,
      "मुंबई": 2430,
      "accoun": 2431,
      "2015": 2432,
      "spir": 2433,
      "countries": 2434,
      "करीब": 2435,
      "श्‍वर": 2436,
      "injured": 2437,
      "Rahul": 2438,
      "29": 2439,
      "धित": 2440,
      "ason": 2441,
      "area": 2442,
      "मान्य": 2443,
      "अधिनियम": 2444,
      "मैंने": 2445,
      "commit": 2446,
      "भावना": 2447,
      "ख़ुदा": 2448,
      "Mahar": 2449,
      "ध्यान": 2450,
      "change": 2451,
      "जरूरत": 2452,
      "Lord": 2453,
      "bas": 2454,
      "fair": 2455,
      "टल": 2456,
      "निय": 2457,
      "निवेश": 2458,
      "दिनों": 2459,
      "cept": 2460,
      "respect": 2461,
      "मिली": 2462,
      "avail": 2463,
      "जेपी": 2464,
      "added": 2465,
      "issue": 2466,
      "must": 2467,
      "गार": 2468,
      "गढ़": 2469,
      "took": 2470,
      "health": 2471,
      "प्री": 2472,
      "प्रत्य": 2473,
      "त्री": 2474,
      "बाहर": 2475,
      "conne": 2476,
      "समू": 2477,
      "ष्ट्र": 2478,
      "discus": 2479,
      "निर्देश": 2480,
      "book": 2481,
      "current": 2482,
      "says": 2483,
      "various": 2484,
      "परमेश्‍वर": 2485,
      "Bank": 2486,
      "High": 2487,
      "Jan": 2488,
      "Mad": 2489,
      "Sup": 2490,
      "hum": 2491,
      "io": 2492,
      "ired": 2493,
      "ub": 2494,
      "ंभ": 2495,
      "ंव": 2496,
      "गें": 2497,
      "दृ": 2498,
      "पन": 2499,
      "भव": 2500,
      "मजब": 2501,
      "ross": 2502,
      "लिख": 2503,
      "ider": 2504,
      "abad": 2505,
      "open": 2506,
      "next": 2507,
      "राजनीति": 2508,
      "regard": 2509,
      "ष्‍": 2510,
      "matter": 2511,
      "नागरि": 2512,
      "occasion": 2513,
      "मजबू": 2514,
      "Pl": 2515,
      "great": 2516,
      "vir": 2517,
      "अर": 2518,
      "अति": 2519,
      "षण": 2520,
      "ines": 2521,
      "लाने": 2522,
      "appe": 2523,
      "सुन": 2524,
      "ashtra": 2525,
      "लगभग": 2526,
      "न्याय": 2527,
      "system": 2528,
      "चर्चा": 2529,
      "महत्वपूर्ण": 2530,
      "IT": 2531,
      "कट": 2532,
      "कल्": 2533,
      "जम्": 2534,
      "फ्र": 2535,
      "erv": 2536,
      "total": 2537,
      "र्फ": 2538,
      "terror": 2539,
      "हमारी": 2540,
      "2014": 2541,
      "2016": 2542,
      "च्छा": 2543,
      "कर्म": 2544,
      "visit": 2545,
      "children": 2546,
      "शर्मा": 2547,
      "IP": 2548,
      "One": 2549,
      "Shi": 2550,
      "further": 2551,
      "ris": 2552,
      "too": 2553,
      "क्षम": 2554,
      "ष्टि": 2555,
      "ajor": 2556,
      "मार्ट": 2557,
      "बोर्ड": 2558,
      "क्रिकेट": 2559,
      "called": 2560,
      "important": 2561,
      "उपलब्ध": 2562,
      "cut": 2563,
      "done": 2564,
      "fall": 2565,
      "vot": 2566,
      "आदि": 2567,
      "कदम": 2568,
      "धे": 2569,
      "सदी": 2570,
      "edu": 2571,
      "iti": 2572,
      "ilit": 2573,
      "जिले": 2574,
      "indust": 2575,
      "Inter": 2576,
      "keep": 2577,
      "पेश": 2578,
      "ट्रो": 2579,
      "खुद": 2580,
      "छात्र": 2581,
      "leaders": 2582,
      "न्यायालय": 2583,
      "करेगा": 2584,
      "reported": 2585,
      "Mar": 2586,
      "based": 2587,
      "आर्थ": 2588,
      "चो": 2589,
      "alleg": 2590,
      "comes": 2591,
      "suc": 2592,
      "कृत": 2593,
      "students": 2594,
      "उम्मीदवार": 2595,
      "situ": 2596,
      "75": 2597,
      "ls": 2598,
      "lish": 2599,
      "na": 2600,
      "pay": 2601,
      "vent": 2602,
      "चर": 2603,
      "जों": 2604,
      "मही": 2605,
      "स्प": 2606,
      "imes": 2607,
      "मुद्": 2608,
      "program": 2609,
      "रोक": 2610,
      "quest": 2611,
      "ideo": 2612,
      "महारा": 2613,
      "going": 2614,
      "अल्लाह": 2615,
      "benef": 2616,
      "several": 2617,
      "अदालत": 2618,
      "At": 2619,
      "Beng": 2620,
      "CM": 2621,
      "San": 2622,
      "ham": 2623,
      "jud": 2624,
      "light": 2625,
      "ys": 2626,
      "दबा": 2627,
      "मॉ": 2628,
      "ones": 2629,
      "यात्रा": 2630,
      "around": 2631,
      "कोवि": 2632,
      "move": 2633,
      "Commission": 2634,
      "information": 2635,
      "Bengal": 2636,
      "Dr": 2637,
      "bir": 2638,
      "शान": 2639,
      "another": 2640,
      "परे": 2641,
      "लाइ": 2642,
      "कार्या": 2643,
      "होना": 2644,
      "जिसके": 2645,
      "कैसे": 2646,
      "ences": 2647,
      "आर्थिक": 2648,
      "60": 2649,
      "kar": 2650,
      "ंचा": 2651,
      "चै": 2652,
      "बच्च": 2653,
      "यं": 2654,
      "ication": 2655,
      "प्रकाश": 2656,
      "विधि": 2657,
      "search": 2658,
      "decl": 2659,
      "illion": 2660,
      "भाई": 2661,
      "योजन": 2662,
      "ज़ा": 2663,
      "चुके": 2664,
      "योजित": 2665,
      "interest": 2666,
      "known": 2667,
      "started": 2668,
      "विधानसभा": 2669,
      "Maharashtra": 2670,
      "five": 2671,
      "पना": 2672,
      "सें": 2673,
      "सफल": 2674,
      "लिक": 2675,
      "तिहा": 2676,
      "कार्र": 2677,
      "areas": 2678,
      "lier": 2679,
      "भारी": 2680,
      "riend": 2681,
      "...": 2682,
      "Jammu": 2683,
      "Am": 2684,
      "dom": 2685,
      "hit": 2686,
      "ias": 2687,
      "jar": 2688,
      "list": 2689,
      "ned": 2690,
      "pet": 2691,
      "vict": 2692,
      "वरि": 2693,
      "हजार": 2694,
      "जाते": 2695,
      "माध्य": 2696,
      "संयुक्त": 2697,
      "ज़ि": 2698,
      "Chand": 2699,
      "viol": 2700,
      "phone": 2701,
      "operation": 2702,
      "asked": 2703,
      "iversity": 2704,
      "परीक्षा": 2705,
      "कार्रवाई": 2706,
      "Nor": 2707,
      "name": 2708,
      "आयोग": 2709,
      "एक्": 2710,
      "पढ़": 2711,
      "बड़े": 2712,
      "रै": 2713,
      "along": 2714,
      "become": 2715,
      "पुन": 2716,
      "announ": 2717,
      "match": 2718,
      "Central": 2719,
      "others": 2720,
      "शिकायत": 2721,
      "West": 2722,
      "mi": 2723,
      "major": 2724,
      "अर्थ": 2725,
      "छोड़": 2726,
      "थि": 2727,
      "समि": 2728,
      "कां": 2729,
      "लागू": 2730,
      "agar": 2731,
      "मेरी": 2732,
      "बीजेपी": 2733,
      "ife": 2734,
      "gether": 2735,
      "बनाए": 2736,
      "रुपए": 2737,
      "address": 2738,
      "Au": 2739,
      "Lok": 2740,
      "Sen": 2741,
      "fun": 2742,
      "writ": 2743,
      "अहम": 2744,
      "बह": 2745,
      "तेमाल": 2746,
      "demand": 2747,
      "ल्ड": 2748,
      "जिन्ह": 2749,
      "employ": 2750,
      "When": 2751,
      "clear": 2752,
      "कानून": 2753,
      "जम्मू": 2754,
      "Mus": 2755,
      "Part": 2756,
      "den": 2757,
      "hal": 2758,
      "छे": 2759,
      "शहर": 2760,
      "together": 2761,
      "heart": 2762,
      "seats": 2763,
      "न्द": 2764,
      "नीय": 2765,
      "सरकारी": 2766,
      "States": 2767,
      "ulture": 2768,
      "कृषि": 2769,
      "रखने": 2770,
      "persons": 2771,
      "अधिकारियों": 2772,
      "happen": 2773,
      "वित्त": 2774,
      "Ab": 2775,
      "Ag": 2776,
      "Air": 2777,
      "IS": 2778,
      "Just": 2779,
      "Pe": 2780,
      "bro": 2781,
      "ram": 2782,
      "ta": 2783,
      "नगर": 2784,
      "think": 2785,
      "ref": 2786,
      "real": 2787,
      "करो": 2788,
      "करके": 2789,
      "राज्यों": 2790,
      "special": 2791,
      "sche": 2792,
      "wards": 2793,
      "respons": 2794,
      "chnology": 2795,
      "समिति": 2796,
      "ues": 2797,
      "आम": 2798,
      "कला": 2799,
      "मण": 2800,
      "मारी": 2801,
      "inde": 2802,
      "ताकि": 2803,
      "condu": 2804,
      "prote": 2805,
      "सिर्फ": 2806,
      "शिया": 2807,
      "market": 2808,
      "हिस्सा": 2809,
      "implement": 2810,
      "Spe": 2811,
      "face": 2812,
      "house": 2813,
      "mind": 2814,
      "school": 2815,
      "won": 2816,
      "पड़ा": 2817,
      "रन": 2818,
      "era": 2819,
      "top": 2820,
      "states": 2821,
      "लाभ": 2822,
      "adv": 2823,
      "संस्": 2824,
      "els": 2825,
      "वीडियो": 2826,
      "effect": 2827,
      "बनाया": 2828,
      "wood": 2829,
      "जाएगी": 2830,
      "statement": 2831,
      "ference": 2832,
      "सहित": 2833,
      "मार्ग": 2834,
      "return": 2835,
      "build": 2836,
      "Im": 2837,
      "best": 2838,
      "field": 2839,
      "home": 2840,
      "later": 2841,
      "met": 2842,
      "video": 2843,
      "मरा": 2844,
      "लना": 2845,
      "हाथ": 2846,
      "olly": 2847,
      "दिव": 2848,
      "जिसे": 2849,
      "ours": 2850,
      "word": 2851,
      "परिणा": 2852,
      "आतंक": 2853,
      "दक्षिण": 2854,
      "32": 2855,
      "Dis": 2856,
      "IC": 2857,
      "Ne": 2858,
      "band": 2859,
      "sol": 2860,
      "लने": 2861,
      "सरी": 2862,
      "िकी": 2863,
      "ature": 2864,
      "गांव": 2865,
      "soon": 2866,
      "plan": 2867,
      "week": 2868,
      "oney": 2869,
      "ights": 2870,
      "शुरु": 2871,
      "सम्मान": 2872,
      "decision": 2873,
      "सदस्य": 2874,
      "घोषणा": 2875,
      "जवाब": 2876,
      "World": 2877,
      "समर्थन": 2878,
      "परिणाम": 2879,
      "31": 2880,
      "Har": 2881,
      "rist": 2882,
      "आदेश": 2883,
      "र्जा": 2884,
      "level": 2885,
      "भीर": 2886,
      "सीसी": 2887,
      "जिला": 2888,
      "द्धा": 2889,
      "ived": 2890,
      "म्मे": 2891,
      "China": 2892,
      "Develop": 2893,
      "making": 2894,
      "Secretary": 2895,
      "इस्तेमाल": 2896,
      "ठीक": 2897,
      "available": 2898,
      "Fin": 2899,
      "give": 2900,
      "lot": 2901,
      "ग्री": 2902,
      "तना": 2903,
      "बरा": 2904,
      "यां": 2905,
      "रहने": 2906,
      "वार्": 2907,
      "बिना": 2908,
      "series": 2909,
      "फैसला": 2910,
      "ST": 2911,
      "bre": 2912,
      "rain": 2913,
      "six": 2914,
      "गयी": 2915,
      "वु": 2916,
      "वहां": 2917,
      "शब्": 2918,
      "across": 2919,
      "complain": 2920,
      "स्ट्रे": 2921,
      "poin": 2922,
      "वर्ग": 2923,
      "position": 2924,
      "टिंग": 2925,
      "stitution": 2926,
      "बदला": 2927,
      "Bihar": 2928,
      "Day": 2929,
      "Rail": 2930,
      "शं": 2931,
      "ेक": 2932,
      "charg": 2933,
      "संर": 2934,
      "result": 2935,
      "without": 2936,
      "appro": 2937,
      "हिं": 2938,
      "मीटर": 2939,
      "polic": 2940,
      "प्ता": 2941,
      "These": 2942,
      "चीत": 2943,
      "इंटर": 2944,
      "elections": 2945,
      "ually": 2946,
      "ट्स": 2947,
      "महाराष्ट्र": 2948,
      "90": 2949,
      "Ah": 2950,
      "Cor": 2951,
      "Home": 2952,
      "To": 2953,
      "bs": 2954,
      "bar": 2955,
      "dy": 2956,
      "fire": 2957,
      "उपा": 2958,
      "एक्स": 2959,
      "धर": 2960,
      "श्रे": 2961,
      "already": 2962,
      "स्कूल": 2963,
      "प्रस्ता": 2964,
      "बाजार": 2965,
      "acc": 2966,
      "शिश": 2967,
      "price": 2968,
      "बातचीत": 2969,
      "पोस्ट": 2970,
      "तुम्हारे": 2971,
      "बल्कि": 2972,
      "विद्यालय": 2973,
      "ML": 2974,
      "May": 2975,
      "hon": 2976,
      "ps": 2977,
      "pra": 2978,
      "अच्छा": 2979,
      "आयोजित": 2980,
      "एजें": 2981,
      "गर्": 2982,
      "दल": 2983,
      "शक": 2984,
      "ined": 2985,
      "anch": 2986,
      "नियों": 2987,
      "दिर": 2988,
      "concer": 2989,
      "ately": 2990,
      "समान": 2991,
      "सुधार": 2992,
      "बीआई": 2993,
      "ession": 2994,
      "शनल": 2995,
      "शेयर": 2996,
      "poss": 2997,
      "posed": 2998,
      "कहते": 2999,
      "compan": 3000,
      "strong": 3001,
      "killed": 3002,
      "Gujar": 3003,
      "business": 3004,
      "सहायता": 3005,
      "वरिष्ठ": 3006,
      "ollywood": 3007,
      "Dire": 3008,
      "Him": 3009,
      "Hary": 3010,
      "eve": 3011,
      "friend": 3012,
      "large": 3013,
      "pop": 3014,
      "ईमान": 3015,
      "खरी": 3016,
      "बचा": 3017,
      "कार्": 3018,
      "proper": 3019,
      "हमे": 3020,
      "धिकार": 3021,
      "express": 3022,
      "थीं": 3023,
      "जनता": 3024,
      "away": 3025,
      "angu": 3026,
      "much": 3027,
      "consider": 3028,
      "Development": 3029,
      "AN": 3030,
      "care": 3031,
      "ost": 3032,
      "wife": 3033,
      "आग": 3034,
      "सार्": 3035,
      "कोशिश": 3036,
      "नाटक": 3037,
      "ults": 3038,
      "उनसे": 3039,
      "सुविधा": 3040,
      "ards": 3041,
      "region": 3042,
      "दुर्": 3043,
      "certain": 3044,
      "officials": 3045,
      "बल्ले": 3046,
      "period": 3047,
      "Aust": 3048,
      "My": 3049,
      "ton": 3050,
      "सही": 3051,
      "ोह": 3052,
      "thir": 3053,
      "प्रयोग": 3054,
      "लिखा": 3055,
      "\"\"\"\"": 3056,
      "uty": 3057,
      "टेस्ट": 3058,
      "बिहार": 3059,
      "Haryana": 3060,
      "Ak": 3061,
      "ka": 3062,
      "tion": 3063,
      "भो": 3064,
      "शक्ति": 3065,
      "िश": 3066,
      "ising": 3067,
      "itiz": 3068,
      "वायर": 3069,
      "cture": 3070,
      "chang": 3071,
      "कार्ड": 3072,
      "त्ता": 3073,
      "aka": 3074,
      "plac": 3075,
      "जोर": 3076,
      "च्चे": 3077,
      "आपके": 3078,
      "जिससे": 3079,
      "ानीय": 3080,
      "itional": 3081,
      "include": 3082,
      "घायल": 3083,
      "services": 3084,
      "लोकसभा": 3085,
      "क्‍त": 3086,
      "father": 3087,
      "particip": 3088,
      "गृह": 3089,
      "गंभीर": 3090,
      "Supreme": 3091,
      "Bollywood": 3092,
      "Karn": 3093,
      "free": 3094,
      "एयर": 3095,
      "बद्ध": 3096,
      "atives": 3097,
      "विरोध": 3098,
      "हासिल": 3099,
      "तेल": 3100,
      "allow": 3101,
      "never": 3102,
      "love": 3103,
      "Christ": 3104,
      "offer": 3105,
      "कहना": 3106,
      "international": 3107,
      "पत्नी": 3108,
      "पश्चिम": 3109,
      "account": 3110,
      "माध्यम": 3111,
      "ather": 3112,
      "daugh": 3113,
      "kind": 3114,
      "अन्": 3115,
      "गण": 3116,
      "दौ": 3117,
      "हरिया": 3118,
      "्व": 3119,
      "initi": 3120,
      "heav": 3121,
      "प्रौ": 3122,
      "संबो": 3123,
      "cell": 3124,
      "hist": 3125,
      "पूरे": 3126,
      "उससे": 3127,
      "lock": 3128,
      "ंदर": 3129,
      "ians": 3130,
      "agement": 3131,
      "गुज": 3132,
      "आरोपी": 3133,
      "saying": 3134,
      "Add": 3135,
      "political": 3136,
      "समूह": 3137,
      "success": 3138,
      "वुड": 3139,
      "Gujarat": 3140,
      "Bhar": 3141,
      "Ele": 3142,
      "Sa": 3143,
      "VID": 3144,
      "ban": 3145,
      "अल": 3146,
      "तृ": 3147,
      "यही": 3148,
      "लगे": 3149,
      "ancial": 3150,
      "atch": 3151,
      "asthan": 3152,
      "स्क": 3153,
      "र्गत": 3154,
      "icle": 3155,
      "stor": 3156,
      "cts": 3157,
      "del": 3158,
      "देशक": 3159,
      "meas": 3160,
      "चुका": 3161,
      "author": 3162,
      "cost": 3163,
      "लगता": 3164,
      "bring": 3165,
      "farmers": 3166,
      "According": 3167,
      "मजबूत": 3168,
      "Muslim": 3169,
      "General": 3170,
      "Jo": 3171,
      "Yad": 3172,
      "gre": 3173,
      "hu": 3174,
      "money": 3175,
      "nation": 3176,
      "rid": 3177,
      "जित": 3178,
      "धर्म": 3179,
      "पॉ": 3180,
      "किस": 3181,
      "वाप": 3182,
      "liament": 3183,
      "peace": 3184,
      "near": 3185,
      "endra": 3186,
      "परिवर्": 3187,
      "medi": 3188,
      "election": 3189,
      "selves": 3190,
      "talk": 3191,
      "चाहता": 3192,
      "किसानों": 3193,
      "situation": 3194,
      "बल्लेबा": 3195,
      "Austral": 3196,
      "Serv": 3197,
      "gress": 3198,
      "yet": 3199,
      "चला": 3200,
      "तू": 3201,
      "बित": 3202,
      "बंगा": 3203,
      "ेंस": 3204,
      "तियों": 3205,
      "तेज": 3206,
      "det": 3207,
      "मुताब": 3208,
      "pected": 3209,
      "शिव": 3210,
      "टेड": 3211,
      "prof": 3212,
      "Department": 3213,
      "reng": 3214,
      "पैदा": 3215,
      "candidates": 3216,
      "COVID": 3217,
      "fairs": 3218,
      "प्रौद्योग": 3219,
      "मुताबिक": 3220,
      "ca": 3221,
      "ेंट": 3222,
      "स्या": 3223,
      "लाल": 3224,
      "adi": 3225,
      "देव": 3226,
      "देखा": 3227,
      "deal": 3228,
      "लीवुड": 3229,
      "ources": 3230,
      "ibility": 3231,
      "लगाया": 3232,
      "स्वतंत्र": 3233,
      "साइट": 3234,
      "senior": 3235,
      "जल्द": 3236,
      "अभिया": 3237,
      "महीने": 3238,
      "Yadav": 3239,
      "South": 3240,
      "hya": 3241,
      "lam": 3242,
      "net": 3243,
      "since": 3244,
      "wa": 3245,
      "अनि": 3246,
      "ऊर्जा": 3247,
      "कप्": 3248,
      "चन": 3249,
      "चान": 3250,
      "डो": 3251,
      "ढा": 3252,
      "मति": 3253,
      "लौ": 3254,
      "though": 3255,
      "recent": 3256,
      "किये": 3257,
      "step": 3258,
      "point": 3259,
      "upon": 3260,
      "effor": 3261,
      "few": 3262,
      "ियां": 3263,
      "प्रतिनि": 3264,
      "199": 3265,
      "यादव": 3266,
      "human": 3267,
      "हरियाणा": 3268,
      "500": 3269,
      "Sam": 3270,
      "Vi": 3271,
      "big": 3272,
      "di": 3273,
      "dri": 3274,
      "died": 3275,
      "अपरा": 3276,
      "एंड": 3277,
      "वही": 3278,
      "सड़": 3279,
      "streng": 3280,
      "proble": 3281,
      "ateg": 3282,
      "सिक": 3283,
      "मंदिर": 3284,
      "मेलन": 3285,
      "earth": 3286,
      "जिसका": 3287,
      "cannot": 3288,
      "यूनि": 3289,
      "Army": 3290,
      "न्याया": 3291,
      "issues": 3292,
      "आधारित": 3293,
      "food": 3294,
      "informed": 3295,
      "believe": 3296,
      "संगठन": 3297,
      "spirit": 3298,
      "नियंत्र": 3299,
      "हमेशा": 3300,
      "Be": 3301,
      "II": 3302,
      "camp": 3303,
      "till": 3304,
      "turn": 3305,
      "उसी": 3306,
      "गम": 3307,
      "डु": 3308,
      "तरा": 3309,
      "still": 3310,
      "तिम": 3311,
      "दिल": 3312,
      "संस्थान": 3313,
      "त्सा": 3314,
      "protest": 3315,
      "acy": 3316,
      "समस्या": 3317,
      "हमले": 3318,
      "स्थानीय": 3319,
      "युवा": 3320,
      "hoto": 3321,
      "cricket": 3322,
      "Rajasthan": 3323,
      "mitted": 3324,
      "colle": 3325,
      "increase": 3326,
      "उद्देश": 3327,
      "बेहतर": 3328,
      "आवश्यकता": 3329,
      "स्पष्ट": 3330,
      "बच्चों": 3331,
      "bed": 3332,
      "gg": 3333,
      "minis": 3334,
      "ग़": 3335,
      "तला": 3336,
      "धो": 3337,
      "मित": 3338,
      "मगर": 3339,
      "िज": 3340,
      "things": 3341,
      "inal": 3342,
      "esus": 3343,
      "ilities": 3344,
      "साय": 3345,
      "chall": 3346,
      "aged": 3347,
      "Indias": 3348,
      "une": 3349,
      "ump": 3350,
      "ivil": 3351,
      "मामलों": 3352,
      "वरण": 3353,
      "ically": 3354,
      "कर्नाटक": 3355,
      "brought": 3356,
      "अंतिम": 3357,
      "भेज": 3358,
      "बॉलीवुड": 3359,
      "growth": 3360,
      "village": 3361,
      "alleged": 3362,
      "question": 3363,
      "कोविड": 3364,
      "Karnat": 3365,
      "कप्तान": 3366,
      "Amit": 3367,
      "CP": 3368,
      "Col": 3369,
      "fund": 3370,
      "side": 3371,
      "went": 3372,
      "जरि": 3373,
      "भविष": 3374,
      "मर्": 3375,
      "हत्या": 3376,
      "केस": 3377,
      "isation": 3378,
      "विकेट": 3379,
      "सामान्य": 3380,
      "ury": 3381,
      "why": 3382,
      "पाए": 3383,
      "शांति": 3384,
      "means": 3385,
      "exp": 3386,
      "पहला": 3387,
      "taking": 3388,
      "company": 3389,
      "elect": 3390,
      "हूँ": 3391,
      "पर्य": 3392,
      "महिलाओं": 3393,
      "वजनिक": 3394,
      "अमेरिकी": 3395,
      "Director": 3396,
      "सार्वजनिक": 3397,
      "third": 3398,
      "प्रौद्योगिकी": 3399,
      "भविष्य": 3400,
      "55": 3401,
      "Ash": 3402,
      "CBI": 3403,
      "Jesus": 3404,
      "Ker": 3405,
      "Pri": 3406,
      "Red": 3407,
      "Sat": 3408,
      "cri": 3409,
      "तारी": 3410,
      "दें": 3411,
      "सले": 3412,
      "’’": 3413,
      "aran": 3414,
      "प्रभाव": 3415,
      "विज्ञान": 3416,
      "वायु": 3417,
      "cele": 3418,
      "समे": 3419,
      "मेरा": 3420,
      "वेब": 3421,
      "सुनिश्चित": 3422,
      "वीट": 3423,
      "oung": 3424,
      "custo": 3425,
      "University": 3426,
      "वृद्धि": 3427,
      "रेलवे": 3428,
      "announced": 3429,
      "बंगाल": 3430,
      "Karnataka": 3431,
      "36": 3432,
      "MS": 3433,
      "glo": 3434,
      "ners": 3435,
      "pare": 3436,
      "उन्‍": 3437,
      "टॉ": 3438,
      "टिक": 3439,
      "फु": 3440,
      "ब्रा": 3441,
      "रॉ": 3442,
      "स्कार": 3443,
      "ily": 3444,
      "beg": 3445,
      "section": 3446,
      "deli": 3447,
      "जिक": 3448,
      "within": 3449,
      "समी": 3450,
      "ंद्र": 3451,
      "निर्धार": 3452,
      "बिज": 3453,
      "relig": 3454,
      "ट्वीट": 3455,
      "ग्राम": 3456,
      "following": 3457,
      "त्मक": 3458,
      "मूल्य": 3459,
      "प्रभावित": 3460,
      "Shiv": 3461,
      "education": 3462,
      "complaint": 3463,
      "स्ट्रेलिया": 3464,
      "IN": 3465,
      "rate": 3466,
      "whe": 3467,
      "कमी": 3468,
      "खबर": 3469,
      "गये": 3470,
      "धु": 3471,
      "बर्": 3472,
      "नेक": 3473,
      "नेशनल": 3474,
      "aries": 3475,
      "itive": 3476,
      "र्जी": 3477,
      "प्रणा": 3478,
      "idence": 3479,
      "निजी": 3480,
      "माता": 3481,
      "संभावना": 3482,
      "ither": 3483,
      "mean": 3484,
      "सुर": 3485,
      "ंडी": 3486,
      "स्टो": 3487,
      "That": 3488,
      "Assembly": 3489,
      "रखते": 3490,
      "provide": 3491,
      "आरोपियों": 3492,
      "local": 3493,
      "प्रबंधन": 3494,
      "अभियान": 3495,
      "37": 3496,
      "48": 3497,
      "Ke": 3498,
      "Ra": 3499,
      "Test": 3500,
      "cour": 3501,
      "city": 3502,
      "div": 3503,
      "hy": 3504,
      "nal": 3505,
      "sim": 3506,
      "tre": 3507,
      "शव": 3508,
      "ख़ुदा": 3509,
      "recover": 3510,
      "किलो": 3511,
      "कोरो": 3512,
      "विद्य": 3513,
      "लाइन": 3514,
      "राब": 3515,
      "निका": 3516,
      "दिशा": 3517,
      "results": 3518,
      "समार": 3519,
      "धिक": 3520,
      "मीण": 3521,
      "मीन": 3522,
      "राजस्थान": 3523,
      "वीं": 3524,
      "portun": 3525,
      "चुकी": 3526,
      "इनमें": 3527,
      "activ": 3528,
      "दूसरी": 3529,
      "anka": 3530,
      "invol": 3531,
      "फोटो": 3532,
      "धीन": 3533,
      "condition": 3534,
      "Board": 3535,
      "reached": 3536,
      "प्रत्येक": 3537,
      "currently": 3538,
      "अतिरि": 3539,
      "Justice": 3540,
      "गुजरात": 3541,
      "65": 3542,
      "Bang": 3543,
      "Med": 3544,
      "Sal": 3545,
      "ball": 3546,
      "cam": 3547,
      "mad": 3548,
      "आद": 3549,
      "तः": 3550,
      "नल": 3551,
      "फॉ": 3552,
      "ream": 3553,
      "ission": 3554,
      "विरा": 3555,
      "देता": 3556,
      "ets": 3557,
      "aking": 3558,
      "जिम्मे": 3559,
      "हमला": 3560,
      "ount": 3561,
      "inder": 3562,
      "class": 3563,
      "key": 3564,
      "स्थापित": 3565,
      "कंपनियों": 3566,
      "विकसित": 3567,
      "ग्रामीण": 3568,
      "Centre": 3569,
      "ब्रि": 3570,
      "सलमान": 3571,
      "industry": 3572,
      "North": 3573,
      "celebr": 3574,
      "AT": 3575,
      "Def": 3576,
      "Mon": 3577,
      "gir": 3578,
      "gener": 3579,
      "million": 3580,
      "phas": 3581,
      "times": 3582,
      "vate": 3583,
      "शरी": 3584,
      "ड़ा": 3585,
      "ड़ी": 3586,
      "reed": 3587,
      "ste": 3588,
      "adu": 3589,
      "राशि": 3590,
      "हाद": 3591,
      "deep": 3592,
      "contrib": 3593,
      "opportun": 3594,
      "वेदन": 3595,
      "वर्त": 3596,
      "चुनौ": 3597,
      "actor": 3598,
      "चिकि": 3599,
      "लगातार": 3600,
      "United": 3601,
      "फीसदी": 3602,
      "अवधि": 3603,
      "better": 3604,
      "पर्या": 3605,
      "played": 3606,
      "meric": 3607,
      "final": 3608,
      "shared": 3609,
      "Parliament": 3610,
      "जगह": 3611,
      "economic": 3612,
      "क्षमता": 3613,
      "समारोह": 3614,
      "47": 3615,
      "Our": 3616,
      "gn": 3617,
      "rul": 3618,
      "sil": 3619,
      "कत": 3620,
      "चरण": 3621,
      "जता": 3622,
      "नया": 3623,
      "always": 3624,
      "काब": 3625,
      "कोह": 3626,
      "क्ता": 3627,
      "द्वि": 3628,
      "ried": 3629,
      "appl": 3630,
      "पीछे": 3631,
      "aff": 3632,
      "मिलने": 3633,
      "Commit": 3634,
      "पुरस्कार": 3635,
      "related": 3636,
      "captain": 3637,
      "अगले": 3638,
      "घोषित": 3639,
      "projects": 3640,
      "प्रस्ताव": 3641,
      "कोरोना": 3642,
      "Coun": 3643,
      "dra": 3644,
      "dist": 3645,
      "data": 3646,
      "fail": 3647,
      "past": 3648,
      "vest": 3649,
      "wer": 3650,
      "अप्र": 3651,
      "नै": 3652,
      "record": 3653,
      "स्त्र": 3654,
      "icts": 3655,
      "learn": 3656,
      "left": 3657,
      "हाई": 3658,
      "दियों": 3659,
      "मियों": 3660,
      "prove": 3661,
      "ulation": 3662,
      "unt": 3663,
      "रीज": 3664,
      "श्वर": 3665,
      "ival": 3666,
      "सूल": 3667,
      "working": 3668,
      "filed": 3669,
      "शील": 3670,
      "news": 3671,
      "समझौ": 3672,
      "चाहते": 3673,
      "small": 3674,
      "launched": 3675,
      "45": 3676,
      "AA": 3677,
      "Americ": 3678,
      "BS": 3679,
      "Mr": 3680,
      "ji": 3681,
      "joy": 3682,
      "larg": 3683,
      "अक्": 3684,
      "आन": 3685,
      "आयोजन": 3686,
      "इट": 3687,
      "लक": 3688,
      "िता": 3689,
      "towards": 3690,
      "काउ": 3691,
      "र्क": 3692,
      "ential": 3693,
      "विस्त": 3694,
      "nder": 3695,
      "def": 3696,
      "मुकाब": 3697,
      "according": 3698,
      "पुरा": 3699,
      "ify": 3700,
      "तुलना": 3701,
      "एसटी": 3702,
      "earlier": 3703,
      "टेल": 3704,
      "निर्ण": 3705,
      "event": 3706,
      "vious": 3707,
      "सोशल": 3708,
      "ize": 3709,
      "spec": 3710,
      "issued": 3711,
      "received": 3712,
      "International": 3713,
      "Kerala": 3714,
      "वर्तमान": 3715,
      "33": 3716,
      "49": 3717,
      "TV": 3718,
      "mes": 3719,
      "might": 3720,
      "tax": 3721,
      "आय": 3722,
      "जवान": 3723,
      "टों": 3724,
      "ट्ट": 3725,
      "लान": 3726,
      "वक्त": 3727,
      "सवाल": 3728,
      "ह्": 3729,
      "ara": 3730,
      "वादी": 3731,
      "having": 3732,
      "संशो": 3733,
      "ल्स": 3734,
      "मुला": 3735,
      "constru": 3736,
      "ablish": 3737,
      "ung": 3738,
      "hip": 3739,
      "मानव": 3740,
      "दोष": 3741,
      "आईपी": 3742,
      "अनुमति": 3743,
      "prices": 3744,
      "चिका": 3745,
      "close": 3746,
      "investigation": 3747,
      "राजनीतिक": 3748,
      "policy": 3749,
      "Australia": 3750,
      "ministr": 3751,
      "प्रणाली": 3752,
      "46": 3753,
      "AM": 3754,
      "DI": 3755,
      "Dev": 3756,
      "SC": 3757,
      "Tri": 3758,
      "\\\"\"": 3759,
      "cu": 3760,
      "dest": 3761,
      "kes": 3762,
      "non": 3763,
      "spo": 3764,
      "इल": 3765,
      "उन्": 3766,
      "गरी": 3767,
      "टै": 3768,
      "न्य": 3769,
      "पल": 3770,
      "रों": 3771,
      "लक्ष": 3772,
      "लयों": 3773,
      "विमान": 3774,
      "वास्त": 3775,
      "राय": 3776,
      "सामा": 3777,
      "न्स": 3778,
      "देना": 3779,
      "dev": 3780,
      "ute": 3781,
      "सिंग": 3782,
      "sho": 3783,
      "उनमें": 3784,
      "हिंद": 3785,
      "redu": 3786,
      "active": 3787,
      "award": 3788,
      "पेट्रो": 3789,
      "सोच": 3790,
      "Ass": 3791,
      "cience": 3792,
      "ctors": 3793,
      "provided": 3794,
      "यीशु": 3795,
      "कराया": 3796,
      "financial": 3797,
      "production": 3798,
      "woman": 3799,
      "release": 3800,
      "function": 3801,
      "daughter": 3802,
      "संबोधित": 3803,
      "detail": 3804,
      "efforts": 3805,
      "Cl": 3806,
      "Gr": 3807,
      "Ran": 3808,
      "equ": 3809,
      "langu": 3810,
      "os": 3811,
      "vol": 3812,
      "ंदा": 3813,
      "घु": 3814,
      "ali": 3815,
      "र्च": 3816,
      "ilar": 3817,
      "tri": 3818,
      "dead": 3819,
      "मंडल": 3820,
      "member": 3821,
      "experi": 3822,
      "2013": 3823,
      "वर्ण": 3824,
      "पहचान": 3825,
      "आईटी": 3826,
      "parties": 3827,
      "ished": 3828,
      "वर्षों": 3829,
      "धीश": 3830,
      "Affairs": 3831,
      "प्रेर": 3832,
      "विषय": 3833,
      "runs": 3834,
      "released": 3835,
      "38": 3836,
      "Bha": 3837,
      "Govern": 3838,
      "Its": 3839,
      "Ja": 3840,
      "Sy": 3841,
      "Son": 3842,
      "\\\\": 3843,
      "find": 3844,
      "hus": 3845,
      "rup": 3846,
      "wel": 3847,
      "ंतर": 3848,
      "एँ": 3849,
      "प्य": 3850,
      "रसूल": 3851,
      "वॉ": 3852,
      "arri": 3853,
      "enter": 3854,
      "प्रार": 3855,
      "कारो": 3856,
      "ल्‍": 3857,
      "आईसी": 3858,
      "understand": 3859,
      "सम्मेलन": 3860,
      "समाज": 3861,
      "बढ़ाने": 3862,
      "faith": 3863,
      "व्यापार": 3864,
      "सदस्यों": 3865,
      "तरीके": 3866,
      "गैर": 3867,
      "single": 3868,
      "England": 3869,
      "Party": 3870,
      "उन्‍ह": 3871,
      "Committee": 3872,
      "''": 3873,
      "AI": 3874,
      "Ear": 3875,
      "Ka": 3876,
      "Ma": 3877,
      "UP": 3878,
      "fut": 3879,
      "fight": 3880,
      "mod": 3881,
      "pict": 3882,
      "sal": 3883,
      "wr": 3884,
      "इंग्": 3885,
      "जमा": 3886,
      "बनी": 3887,
      "भर्": 3888,
      "वधान": 3889,
      "reason": 3890,
      "associ": 3891,
      "tour": 3892,
      "ently": 3893,
      "लिम": 3894,
      "न्तु": 3895,
      "माना": 3896,
      "ays": 3897,
      "तेजी": 3898,
      "पालन": 3899,
      "ability": 3900,
      "promot": 3901,
      "live": 3902,
      "suf": 3903,
      "Health": 3904,
      "रुष": 3905,
      "ipur": 3906,
      "सूची": 3907,
      "देखने": 3908,
      "सामना": 3909,
      "विश्वविद्यालय": 3910,
      "उत्पाद": 3911,
      "People": 3912,
      "शुरुआत": 3913,
      "pract": 3914,
      "उद्देश्य": 3915,
      "Can": 3916,
      "Oc": 3917,
      "fav": 3918,
      "garh": 3919,
      "hard": 3920,
      "milit": 3921,
      "nes": 3922,
      "treat": 3923,
      "wn": 3924,
      "आयु": 3925,
      "कहीं": 3926,
      "डू": 3927,
      "याचिका": 3928,
      "tober": 3929,
      "क्शन": 3930,
      "star": 3931,
      "लागत": 3932,
      "veh": 3933,
      "निंग": 3934,
      "immedi": 3935,
      "cember": 3936,
      "दावा": 3937,
      "हमारा": 3938,
      "sum": 3939,
      "teach": 3940,
      "pose": 3941,
      "वहन": 3942,
      "प्ले": 3943,
      "formation": 3944,
      "December": 3945,
      "पहुँ": 3946,
      "likely": 3947,
      "फ़ि": 3948,
      "जिनमें": 3949,
      "however": 3950,
      "विधायक": 3951,
      "उत्पादन": 3952,
      "विदेशी": 3953,
      "कौन": 3954,
      "basis": 3955,
      "companies": 3956,
      "सड़क": 3957,
      "सामाजिक": 3958,
      "39": 3959,
      "Ph": 3960,
      "Pre": 3961,
      "Sm": 3962,
      "eas": 3963,
      "gold": 3964,
      "ties": 3965,
      "uary": 3966,
      "vo": 3967,
      "कप": 3968,
      "थो": 3969,
      "मई": 3970,
      "मना": 3971,
      "शै": 3972,
      "ensure": 3973,
      "ories": 3974,
      "सेट": 3975,
      "stat": 3976,
      "char": 3977,
      "संस्था": 3978,
      "trad": 3979,
      "using": 3980,
      "पुरुष": 3981,
      "approv": 3982,
      "पूछ": 3983,
      "स्टार": 3984,
      "office": 3985,
      "full": 3986,
      "बदल": 3987,
      "society": 3988,
      "continue": 3989,
      "claimed": 3990,
      "अच्छे": 3991,
      "Madhya": 3992,
      "programme": 3993,
      "न्यायाधीश": 3994,
      "October": 3995,
      "AS": 3996,
      "Apr": 3997,
      "NE": 3998,
      "Or": 3999,
      "bat": 4000,
      "cing": 4001,
      "citiz": 4002,
      "dont": 4003,
      "jour": 4004,
      "sus": 4005,
      "vind": 4006,
      "फ्ट": 4007,
      "यात": 4008,
      "aster": 4009,
      "स्पे": 4010,
      "क्ट": 4011,
      "लियन": 4012,
      "लाया": 4013,
      "बाल": 4014,
      "पात": 4015,
      "सियों": 4016,
      "दीप": 4017,
      "हम्": 4018,
      "short": 4019,
      "फिल": 4020,
      "formed": 4021,
      "गुण": 4022,
      "ultural": 4023,
      "serious": 4024,
      "स्‍थ": 4025,
      "cient": 4026,
      "ization": 4027,
      "शीर्ष": 4028,
      "crit": 4029,
      "फाय": 4030,
      "पर्क": 4031,
      "मनो": 4032,
      "vision": 4033,
      "decided": 4034,
      "Sub": 4035,
      "सलाह": 4036,
      "अंतर्रा": 4037,
      "scheme": 4038,
      "दिवस": 4039,
      "परिवर्तन": 4040,
      "समेत": 4041,
      "वेबसाइट": 4042,
      "निर्णय": 4043,
      "भर्ती": 4044,
      "DA": 4045,
      "During": 4046,
      "Not": 4047,
      "Sp": 4048,
      "Sri": 4049,
      "Some": 4050,
      "Vir": 4051,
      "fare": 4052,
      "lab": 4053,
      "mal": 4054,
      "pati": 4055,
      "san": 4056,
      "tell": 4057,
      "wicket": 4058,
      "young": 4059,
      "एड": 4060,
      "तस्वी": 4061,
      "नती": 4062,
      "पण": 4063,
      "प्ट": 4064,
      "बधा": 4065,
      "मसी": 4066,
      "केन्द्र": 4067,
      "stri": 4068,
      "लित": 4069,
      "seven": 4070,
      "सात": 4071,
      "ड़ों": 4072,
      "expected": 4073,
      "खास": 4074,
      "parts": 4075,
      "प्‍": 4076,
      "Then": 4077,
      "जनवरी": 4078,
      "central": 4079,
      "जैसा": 4080,
      "जैसी": 4081,
      "विश्‍": 4082,
      "देखते": 4083,
      "वैश्": 4084,
      "नेताओं": 4085,
      "फैसले": 4086,
      "सर्व": 4087,
      "focus": 4088,
      "months": 4089,
      "प्रशासन": 4090,
      "अतिरिक्त": 4091,
      "Defence": 4092,
      "CE": 4093,
      "Far": 4094,
      "Gur": 4095,
      "With": 4096,
      "bi": 4097,
      "bit": 4098,
      "ye": 4099,
      "अली": 4100,
      "ठि": 4101,
      "पृ": 4102,
      "शू": 4103,
      "ील": 4104,
      "onment": 4105,
      "्रो": 4106,
      "ention": 4107,
      "प्रस्तु": 4108,
      "निदेशक": 4109,
      "true": 4110,
      "पाया": 4111,
      "जीव": 4112,
      "lood": 4113,
      "स्टा": 4114,
      "पूर्ति": 4115,
      "Stud": 4116,
      "ferred": 4117,
      "control": 4118,
      "मतलब": 4119,
      "foreign": 4120,
      "कराने": 4121,
      "भेजा": 4122,
      "प्रेस": 4123,
      "स्वीकार": 4124,
      "अच्छी": 4125,
      "गेंदबा": 4126,
      "कोहली": 4127,
      "April": 4128,
      "हम्मद": 4129,
      "बधाई": 4130,
      "TI": 4131,
      "Tamil": 4132,
      "cil": 4133,
      "date": 4134,
      "fast": 4135,
      "gave": 4136,
      "hli": 4137,
      "hous": 4138,
      "nts": 4139,
      "ped": 4140,
      "rish": 4141,
      "round": 4142,
      "उदा": 4143,
      "जन्": 4144,
      "तय": 4145,
      "दरा": 4146,
      "पसं": 4147,
      "बढ़": 4148,
      "ैल": 4149,
      "ज़ा": 4150,
      "स्मार्ट": 4151,
      "entire": 4152,
      "stated": 4153,
      "तिक": 4154,
      "charge": 4155,
      "जाय": 4156,
      "मिशन": 4157,
      "ल्क": 4158,
      "abin": 4159,
      "establish": 4160,
      "Institut": 4161,
      "youth": 4162,
      "197": 4163,
      "ground": 4164,
      "जिसने": 4165,
      "हरण": 4166,
      "contest": 4167,
      "crim": 4168,
      "खुश": 4169,
      "stitu": 4170,
      "करेगी": 4171,
      "डॉलर": 4172,
      "capital": 4173,
      "Mean": 4174,
      "increased": 4175,
      "कृतिक": 4176,
      "इलाके": 4177,
      "particular": 4178,
      "भुग": 4179,
      "community": 4180,
      "launch": 4181,
      "Offic": 4182,
      "ष्‍ट": 4183,
      "declared": 4184,
      "बदलाव": 4185,
      "accident": 4186,
      "camera": 4187,
      "वैश्विक": 4188,
      "89": 4189,
      "Ap": 4190,
      "FI": 4191,
      "Who": 4192,
      "bow": 4193,
      "ees": 4194,
      "hur": 4195,
      "hra": 4196,
      "lat": 4197,
      "mess": 4198,
      "ron": 4199,
      "sat": 4200,
      "tle": 4201,
      "अंक": 4202,
      "अनेक": 4203,
      "आस": 4204,
      "इतिहा": 4205,
      "ऊपर": 4206,
      "जरी": 4207,
      "बने": 4208,
      "बच्चे": 4209,
      "किंग": 4210,
      "स्टी": 4211,
      "वासी": 4212,
      "became": 4213,
      "force": 4214,
      "मां": 4215,
      "abo": 4216,
      "रिश्": 4217,
      "ains": 4218,
      "tegr": 4219,
      "स्टि": 4220,
      "percent": 4221,
      "ivid": 4222,
      "fear": 4223,
      "aug": 4224,
      "दूसरा": 4225,
      "कर्ता": 4226,
      "preci": 4227,
      "फाइन": 4228,
      "fully": 4229,
      "Kohli": 4230,
      "building": 4231,
      "charges": 4232,
      "MLA": 4233,
      "अप्रैल": 4234,
      "husband": 4235,
      "भुगतान": 4236,
      "इतिहास": 4237,
      "64": 4238,
      "cir": 4239,
      "dr": 4240,
      "hot": 4241,
      "km": 4242,
      "sens": 4243,
      "wan": 4244,
      "इयों": 4245,
      "गन": 4246,
      "जनों": 4247,
      "नुक": 4248,
      "पौ": 4249,
      "मक": 4250,
      "रान": 4251,
      "शहरी": 4252,
      "हॉ": 4253,
      "itor": 4254,
      "station": 4255,
      "परवर": 4256,
      "लिंग": 4257,
      "विजय": 4258,
      "विधे": 4259,
      "निर": 4260,
      "निपट": 4261,
      "न्व": 4262,
      "दिगार": 4263,
      "संसा": 4264,
      "संचार": 4265,
      "ल्प": 4266,
      "conf": 4267,
      "भागी": 4268,
      "ंगी": 4269,
      "ope": 4270,
      "सुना": 4271,
      "सुप्री": 4272,
      "ending": 4273,
      "feel": 4274,
      "fected": 4275,
      "मोहन": 4276,
      "pris": 4277,
      "doing": 4278,
      "व्यक्त": 4279,
      "cogn": 4280,
      "जुड़े": 4281,
      "पहुंचा": 4282,
      "विश्वास": 4283,
      "service": 4284,
      "Reg": 4285,
      "ledge": 4286,
      "districts": 4287,
      "ification": 4288,
      "सीटों": 4289,
      "अमित": 4290,
      "continu": 4291,
      "CCI": 4292,
      "Hindi": 4293,
      "सांसद": 4294,
      "words": 4295,
      "treatment": 4296,
      "abinet": 4297,
      "परवरदिगार": 4298,
      "51": 4299,
      "Cr": 4300,
      "ED": 4301,
      "Ju": 4302,
      "Lo": 4303,
      "March": 4304,
      "mp": 4305,
      "nel": 4306,
      "oil": 4307,
      "photo": 4308,
      "twe": 4309,
      "wide": 4310,
      "ंदी": 4311,
      "अधीन": 4312,
      "ऑन": 4313,
      "कथ": 4314,
      "खार": 4315,
      "बारी": 4316,
      "यहाँ": 4317,
      "रोग": 4318,
      "ल्यू": 4319,
      "वस्तु": 4320,
      "सप्ता": 4321,
      "हरे": 4322,
      "ances": 4323,
      "enn": 4324,
      "esides": 4325,
      "कात": 4326,
      "oud": 4327,
      "icles": 4328,
      "amount": 4329,
      "कारा": 4330,
      "संक्रम": 4331,
      "संविधान": 4332,
      "ceed": 4333,
      "सीरीज": 4334,
      "tract": 4335,
      "मुस्": 4336,
      "access": 4337,
      "रहते": 4338,
      "except": 4339,
      "स्टर": 4340,
      "वीर": 4341,
      "mocr": 4342,
      "ively": 4343,
      "anti": 4344,
      "que": 4345,
      "एसपी": 4346,
      "vie": 4347,
      "जानते": 4348,
      "temple": 4349,
      "मार्च": 4350,
      "range": 4351,
      "पत्ति": 4352,
      "वित्तीय": 4353,
      "उल्लेख": 4354,
      "connection": 4355,
      "दृष्टि": 4356,
      "लिखित": 4357,
      "pointed": 4358,
      "storage": 4359,
      "recently": 4360,
      "नियंत्रण": 4361,
      "global": 4362,
      "समीक्षा": 4363,
      "आदमी": 4364,
      "प्यार": 4365,
      "Meanwhile": 4366,
      "East": 4367,
      "Ho": 4368,
      "King": 4369,
      "Sep": 4370,
      "fest": 4371,
      "gl": 4372,
      "general": 4373,
      "hol": 4374,
      "sk": 4375,
      "आती": 4376,
      "आंक": 4377,
      "गल": 4378,
      "ट्रा": 4379,
      "तत्": 4380,
      "दय": 4381,
      "बिक": 4382,
      "ery": 4383,
      "केरल": 4384,
      "rep": 4385,
      "reports": 4386,
      "review": 4387,
      "alli": 4388,
      "प्रसार": 4389,
      "विवाद": 4390,
      "लादेश": 4391,
      "ada": 4392,
      "sele": 4393,
      "माने": 4394,
      "irus": 4395,
      "igarh": 4396,
      "progress": 4397,
      "ops": 4398,
      "सिटी": 4399,
      "शासन": 4400,
      "चाहे": 4401,
      "ples": 4402,
      "2011": 4403,
      "ष्ट्रीय": 4404,
      "मैन": 4405,
      "वर्क": 4406,
      "quir": 4407,
      "Ministers": 4408,
      "बेटी": 4409,
      "योगदान": 4410,
      "Art": 4411,
      "हेतु": 4412,
      "giving": 4413,
      "needs": 4414,
      "डॉक्टर": 4415,
      "front": 4416,
      "private": 4417,
      "छोटे": 4418,
      "complete": 4419,
      "quality": 4420,
      "January": 4421,
      "Finance": 4422,
      "Bharat": 4423,
      "वापस": 4424,
      "प्रतिनिधि": 4425,
      "parents": 4426,
      "निर्धारित": 4427,
      "सुरक्षित": 4428,
      "फिलहाल": 4429,
      "नुकसान": 4430,
      "Edu": 4431,
      "Fe": 4432,
      "Nar": 4433,
      "School": 4434,
      "Ur": 4435,
      "cru": 4436,
      "pot": 4437,
      "uch": 4438,
      "van": 4439,
      "इन्": 4440,
      "उत": 4441,
      "एशिया": 4442,
      "घं": 4443,
      "म्र": 4444,
      "सत्र": 4445,
      "सहम": 4446,
      "ड़े": 4447,
      "infl": 4448,
      "represent": 4449,
      "यानी": 4450,
      "roll": 4451,
      "least": 4452,
      "iding": 4453,
      "लेज": 4454,
      "vember": 4455,
      "sec": 4456,
      "resh": 4457,
      "बाव": 4458,
      "मिन": 4459,
      "त्मा": 4460,
      "नीचे": 4461,
      "loss": 4462,
      "movie": 4463,
      "2012": 4464,
      "म्स": 4465,
      "avirus": 4466,
      "जनरल": 4467,
      "उपस्थित": 4468,
      "युव": 4469,
      "themselves": 4470,
      "गुरु": 4471,
      "medical": 4472,
      "डाल": 4473,
      "बारिश": 4474,
      "Why": 4475,
      "officers": 4476,
      "2009": 4477,
      "Gods": 4478,
      "November": 4479,
      "Islam": 4480,
      "गैस": 4481,
      "परियोजनाओं": 4482,
      "victim": 4483,
      "half": 4484,
      "bsite": 4485,
      "measures": 4486,
      "अपराध": 4487,
      "बिजली": 4488,
      "विराट": 4489,
      "इंग्लैंड": 4490,
      "तस्वीर": 4491,
      "ividual": 4492,
      "सुप्रीम": 4493,
      "300": 4494,
      "42": 4495,
      "House": 4496,
      "June": 4497,
      "Kar": 4498,
      "Kol": 4499,
      "Mem": 4500,
      "card": 4501,
      "mun": 4502,
      "yes": 4503,
      "ंख": 4504,
      "इड": 4505,
      "ऑस्ट्रेलिया": 4506,
      "खू": 4507,
      "पथ": 4508,
      "यद": 4509,
      "सक्रि": 4510,
      "onavirus": 4511,
      "ena": 4512,
      "काली": 4513,
      "itation": 4514,
      "sequ": 4515,
      "साक्ष": 4516,
      "जाति": 4517,
      "क्षक": 4518,
      "uss": 4519,
      "constitu": 4520,
      "ंगल": 4521,
      "रिक": 4522,
      "द्वी": 4523,
      "रोजग": 4524,
      "mother": 4525,
      "वहार": 4526,
      "space": 4527,
      "बेटे": 4528,
      "forms": 4529,
      "board": 4530,
      "मतदान": 4531,
      "ushed": 4532,
      "तुम्हें": 4533,
      "अंतर्गत": 4534,
      "बेहद": 4535,
      "birth": 4536,
      "आतंकवाद": 4537,
      "एजेंसी": 4538,
      "expressed": 4539,
      "जरिए": 4540,
      "Bangl": 4541,
      "विधेयक": 4542,
      "69": 4543,
      "Hy": 4544,
      "Tha": 4545,
      "Tel": 4546,
      "dou": 4547,
      "fill": 4548,
      "job": 4549,
      "night": 4550,
      "pen": 4551,
      "अथ": 4552,
      "आखि": 4553,
      "इका": 4554,
      "छह": 4555,
      "तमिल": 4556,
      "पान": 4557,
      "भ्र": 4558,
      "वक्ता": 4559,
      "हार्": 4560,
      "ering": 4561,
      "केन्द": 4562,
      "research": 4563,
      "atul": 4564,
      "नेतृ": 4565,
      "याण": 4566,
      "aland": 4567,
      "कोल": 4568,
      "र्ना": 4569,
      "story": 4570,
      "प्रशि": 4571,
      "लिमि": 4572,
      "निभा": 4573,
      "त्रि": 4574,
      "urs": 4575,
      "imp": 4576,
      "\"\".\"": 4577,
      "संपर्क": 4578,
      "सीबीआई": 4579,
      "सिद्ध": 4580,
      "मंजू": 4581,
      "शादी": 4582,
      "उनको": 4583,
      "टीवी": 4584,
      "2010": 4585,
      "क्रा": 4586,
      "feat": 4587,
      "मोहम्मद": 4588,
      "creen": 4589,
      "created": 4590,
      "उत्तरा": 4591,
      "assist": 4592,
      "getting": 4593,
      "स्वयं": 4594,
      "इंडि": 4595,
      "पहुंचे": 4596,
      "इस्ला": 4597,
      "respond": 4598,
      "happy": 4599,
      "हिस्से": 4600,
      "इलाज": 4601,
      "Patel": 4602,
      "छात्रों": 4603,
      "petition": 4604,
      "शब्द": 4605,
      "strengthen": 4606,
      "मर्श": 4607,
      "future": 4608,
      "उदाहरण": 4609,
      "Education": 4610,
      "बावजूद": 4611,
      "AR": 4612,
      "Ali": 4613,
      "Every": 4614,
      "Rash": 4615,
      "Ste": 4616,
      "Two": 4617,
      "nath": 4618,
      "pan": 4619,
      "wind": 4620,
      "आइ": 4621,
      "आता": 4622,
      "गौर": 4623,
      "छू": 4624,
      "नन": 4625,
      "नरे": 4626,
      "व्‍य": 4627,
      "हटा": 4628,
      "iting": 4629,
      "करनी": 4630,
      "seat": 4631,
      "ames": 4632,
      "जाये": 4633,
      "aya": 4634,
      "संभव": 4635,
      "trade": 4636,
      "department": 4637,
      "ague": 4638,
      "etc": 4639,
      "ained": 4640,
      "supp": 4641,
      "शांत": 4642,
      "मेल": 4643,
      "हिमा": 4644,
      "वेस्ट": 4645,
      "पीड़": 4646,
      "राजधान": 4647,
      "exist": 4648,
      "website": 4649,
      "mob": 4650,
      "ज़ी": 4651,
      "workers": 4652,
      "मूर्": 4653,
      "डाय": 4654,
      "ट्रंप": 4655,
      "energy": 4656,
      "सेवाओं": 4657,
      "share": 4658,
      "design": 4659,
      "Trump": 4660,
      "example": 4661,
      "truth": 4662,
      "Hindu": 4663,
      "candidate": 4664,
      "आवश्यक": 4665,
      "कार्यालय": 4666,
      "पुनर्": 4667,
      "written": 4668,
      "जिन्हें": 4669,
      "responsibility": 4670,
      "विस्तार": 4671,
      "अंतर्राष्ट्रीय": 4672,
      "Virat": 4673,
      "रोजगार": 4674,
      "केन्द्रीय": 4675,
      "Bible": 4676,
      "Ge": 4677,
      "Many": 4678,
      "bor": 4679,
      "dam": 4680,
      "hind": 4681,
      "jit": 4682,
      "lod": 4683,
      "mater": 4684,
      "sl": 4685,
      "sold": 4686,
      "uro": 4687,
      "ंजी": 4688,
      "आवेदन": 4689,
      "उद्य": 4690,
      "कद": 4691,
      "ण्ड": 4692,
      "थम": 4693,
      "once": 4694,
      "astru": 4695,
      "assembly": 4696,
      "स्ते": 4697,
      "प्रगति": 4698,
      "resol": 4699,
      "बांग्": 4700,
      "mention": 4701,
      "गाँ": 4702,
      "promis": 4703,
      "lives": 4704,
      "क्रो": 4705,
      "म्प": 4706,
      "individual": 4707,
      "शुल्क": 4708,
      "चारियों": 4709,
      "बंधन": 4710,
      "चीज़": 4711,
      "प्राथ": 4712,
      "स्‍था": 4713,
      "लगाने": 4714,
      "जून": 4715,
      "compet": 4716,
      "engers": 4717,
      "speak": 4718,
      "शोक": 4719,
      "वोट": 4720,
      "object": 4721,
      "Also": 4722,
      "carry": 4723,
      "दिखाई": 4724,
      "required": 4725,
      "Technology": 4726,
      "रावट": 4727,
      "witter": 4728,
      "Aug": 4729,
      "जिन्होंने": 4730,
      "implementation": 4731,
      "खरीद": 4732,
      "चुनौती": 4733,
      "Institute": 4734,
      "लिमिटेड": 4735,
      "52": 4736,
      "56": 4737,
      "Des": 4738,
      "Her": 4739,
      "Nit": 4740,
      "Sw": 4741,
      "Sun": 4742,
      "aut": 4743,
      "bad": 4744,
      "gar": 4745,
      "game": 4746,
      "mur": 4747,
      "mult": 4748,
      "vs": 4749,
      "ंता": 4750,
      "कने": 4751,
      "घन": 4752,
      "चले": 4753,
      "छु": 4754,
      "टरी": 4755,
      "पड़े": 4756,
      "पटेल": 4757,
      "मों": 4758,
      "रानी": 4759,
      "institut": 4760,
      "recogn": 4761,
      "isions": 4762,
      "aled": 4763,
      "often": 4764,
      "किल": 4765,
      "करार": 4766,
      "ilater": 4767,
      "stay": 4768,
      "stant": 4769,
      "प्रचार": 4770,
      "लिका": 4771,
      "वाज": 4772,
      "लेक्": 4773,
      "साबित": 4774,
      "कारों": 4775,
      "माह": 4776,
      "दिसं": 4777,
      "संचा": 4778,
      "त्तर": 4779,
      "सुपर": 4780,
      "तुर": 4781,
      "poor": 4782,
      "म्‍": 4783,
      "स्थल": 4784,
      "early": 4785,
      "चुना": 4786,
      "achal": 4787,
      "निर्वा": 4788,
      "बिल": 4789,
      "जाएंगे": 4790,
      "यूरो": 4791,
      "works": 4792,
      "डाउन": 4793,
      "previous": 4794,
      "गिरावट": 4795,
      "mony": 4796,
      "ption": 4797,
      "tember": 4798,
      "includes": 4799,
      "भाषण": 4800,
      "घरों": 4801,
      "study": 4802,
      "direct": 4803,
      "frastru": 4804,
      "ट्रेन": 4805,
      "named": 4806,
      "मृत्य": 4807,
      "समुदाय": 4808,
      "कल्याण": 4809,
      "कर्मचारियों": 4810,
      "benefit": 4811,
      "मॉडल": 4812,
      "violence": 4813,
      "वायरस": 4814,
      "तलाश": 4815,
      "Priy": 4816,
      "Council": 4817,
      "पसंद": 4818,
      "सप्ताह": 4819,
      "September": 4820,
      "Bangladesh": 4821,
      "दिसंबर": 4822,
      "Cap": 4823,
      "Jud": 4824,
      "dies": 4825,
      "govern": 4826,
      "hours": 4827,
      "publ": 4828,
      "ंज": 4829,
      "उचित": 4830,
      "ऑफि": 4831,
      "कं": 4832,
      "खर": 4833,
      "खी": 4834,
      "नॉ": 4835,
      "बन्": 4836,
      "रंग": 4837,
      "कित": 4838,
      "ताप": 4839,
      "वाही": 4840,
      "राहत": 4841,
      "fort": 4842,
      "देगा": 4843,
      "सीएम": 4844,
      "trict": 4845,
      "रिली": 4846,
      "रहेंगे": 4847,
      "technology": 4848,
      "क्रे": 4849,
      "गीत": 4850,
      "परिवहन": 4851,
      "ghan": 4852,
      "pray": 4853,
      "common": 4854,
      "encies": 4855,
      "jee": 4856,
      "टिप्": 4857,
      "चलते": 4858,
      "relation": 4859,
      "शोध": 4860,
      "गठबंधन": 4861,
      "च्छे": 4862,
      "लॉक": 4863,
      "लॉन्": 4864,
      "श्रद्धा": 4865,
      "witness": 4866,
      "Sena": 4867,
      "conducted": 4868,
      "संरक्षण": 4869,
      "Services": 4870,
      "largest": 4871,
      "मुलाकात": 4872,
      "उन्‍होंने": 4873,
      "प्रस्तुत": 4874,
      "कथित": 4875,
      "मुस्लिम": 4876,
      "राजधानी": 4877,
      "बांग्लादेश": 4878,
      "मृत्यु": 4879,
      "370": 4880,
      "67": 4881,
      "Mu": 4882,
      "Public": 4883,
      "RS": 4884,
      "Sush": 4885,
      "Vice": 4886,
      "aign": 4887,
      "bur": 4888,
      "cal": 4889,
      "categ": 4890,
      "don": 4891,
      "either": 4892,
      "ges": 4893,
      "ient": 4894,
      "kg": 4895,
      "ler": 4896,
      "pat": 4897,
      "tit": 4898,
      "uck": 4899,
      "अग्र": 4900,
      "आउ": 4901,
      "आठ": 4902,
      "खर्च": 4903,
      "ठो": 4904,
      "नदी": 4905,
      "नवी": 4906,
      "नंबर": 4907,
      "मल": 4908,
      "सारे": 4909,
      "्स": 4910,
      "atic": 4911,
      "atory": 4912,
      "eds": 4913,
      "leave": 4914,
      "administr": 4915,
      "माइ": 4916,
      "tran": 4917,
      "democr": 4918,
      "पाने": 4919,
      "Indust": 4920,
      "aper": 4921,
      "वेद": 4922,
      "बीर": 4923,
      "ंडा": 4924,
      "quar": 4925,
      "च्चा": 4926,
      "ousand": 4927,
      "eved": 4928,
      "कामना": 4929,
      "कृष्": 4930,
      "attended": 4931,
      "ension": 4932,
      "टिव": 4933,
      "पैसे": 4934,
      "engine": 4935,
      "knowledge": 4936,
      "Afric": 4937,
      "products": 4938,
      "higher": 4939,
      "ग्रहण": 4940,
      "बाइल": 4941,
      "बाइबल": 4942,
      "history": 4943,
      "बल्लेबाज": 4944,
      "tweet": 4945,
      "मंजूरी": 4946,
      "च्छेद": 4947,
      "Cup": 4948,
      "DP": 4949,
      "Dep": 4950,
      "Muk": 4951,
      "Nav": 4952,
      "Sid": 4953,
      "Tal": 4954,
      "Twitter": 4955,
      "batt": 4956,
      "bats": 4957,
      "ease": 4958,
      "paid": 4959,
      "rights": 4960,
      "sou": 4961,
      "send": 4962,
      "screen": 4963,
      "wish": 4964,
      "ze": 4965,
      "असम": 4966,
      "कमा": 4967,
      "घरे": 4968,
      "डब्": 4969,
      "फू": 4970,
      "बज": 4971,
      "वहाँ": 4972,
      "सों": 4973,
      "हल": 4974,
      "inaug": 4975,
      "ators": 4976,
      "किताब": 4977,
      "roy": 4978,
      "ley": 4979,
      "राजा": 4980,
      "began": 4981,
      "ama": 4982,
      "forward": 4983,
      "निकाल": 4984,
      "होकर": 4985,
      "whom": 4986,
      "igital": 4987,
      "जिए": 4988,
      "opt": 4989,
      "saf": 4990,
      "log": 4991,
      "worship": 4992,
      "मोबाइल": 4993,
      "198": 4994,
      "earch": 4995,
      "emer": 4996,
      "whose": 4997,
      "acter": 4998,
      "शुभ": 4999,
      "दर्श": 5000,
      "nothing": 5001,
      "यूपी": 5002,
      "टाइ": 5003,
      "कैमरा": 5004,
      "While": 5005,
      "Deep": 5006,
      "jected": 5007,
      "खुशी": 5008,
      "पूर्वो": 5009,
      "Andhra": 5010,
      "संबंधी": 5011,
      "न्‍द्र": 5012,
      "वैज्ञान": 5013,
      "Former": 5014,
      "समाधान": 5015,
      "समाप्त": 5016,
      "included": 5017,
      "developed": 5018,
      "seek": 5019,
      "directed": 5020,
      "प्रदर्श": 5021,
      "सितंबर": 5022,
      "join": 5023,
      "signific": 5024,
      "नागरिक": 5025,
      "happened": 5026,
      "brother": 5027,
      "Railways": 5028,
      "लौट": 5029,
      "Vijay": 5030,
      "लक्ष्य": 5031,
      "पेट्रोल": 5032,
      "immediately": 5033,
      "जन्म": 5034,
      "above": 5035,
      "सक्रिय": 5036,
      "frastructure": 5037,
      "वैज्ञानिक": 5038,
      "44": 5039,
      "68": 5040,
      "Bill": 5041,
      "BCCI": 5042,
      "Jag": 5043,
      "Sur": 5044,
      "ming": 5045,
      "nu": 5046,
      "चय": 5047,
      "चंडी": 5048,
      "नव": 5049,
      "नवं": 5050,
      "मारे": 5051,
      "लड़ा": 5052,
      "income": 5053,
      "instru": 5054,
      "integr": 5055,
      "reli": 5056,
      "enjoy": 5057,
      "asing": 5058,
      "कोर": 5059,
      "icated": 5060,
      "वां": 5061,
      "निष्": 5062,
      "होनी": 5063,
      "त्रों": 5064,
      "दिग्": 5065,
      "improve": 5066,
      "संसद": 5067,
      "oting": 5068,
      "agree": 5069,
      "living": 5070,
      "necess": 5071,
      "रेज": 5072,
      "रोहित": 5073,
      "म्बर": 5074,
      "udget": 5075,
      "तकनी": 5076,
      "management": 5077,
      "spread": 5078,
      "aware": 5079,
      "डिजि": 5080,
      "जानता": 5081,
      "्‍या": 5082,
      "officer": 5083,
      "Moham": 5084,
      "players": 5085,
      "अध्ययन": 5086,
      "बढ़ावा": 5087,
      "marks": 5088,
      "अंतरि": 5089,
      "closed": 5090,
      "प्रियं": 5091,
      "पड़ता": 5092,
      "smart": 5093,
      "कौशल": 5094,
      "committee": 5095,
      "vironment": 5096,
      "IPL": 5097,
      "मुद्दों": 5098,
      "concerned": 5099,
      "possible": 5100,
      "अन्त": 5101,
      "until": 5102,
      "murder": 5103,
      "ilateral": 5104,
      "घरेलू": 5105,
      "नवंबर": 5106,
      "प्रियंका": 5107,
      "GST": 5108,
      "Nadu": 5109,
      "Pers": 5110,
      "Yog": 5111,
      "bound": 5112,
      "freed": 5113,
      "kata": 5114,
      "path": 5115,
      "pite": 5116,
      "ring": 5117,
      "rap": 5118,
      "rural": 5119,
      "sions": 5120,
      "wro": 5121,
      "ंकी": 5122,
      "अंग": 5123,
      "आधिकार": 5124,
      "उंड": 5125,
      "जर्": 5126,
      "पारी": 5127,
      "पार्": 5128,
      "पन्न": 5129,
      "वत": 5130,
      "व्": 5131,
      "inst": 5132,
      "erc": 5133,
      "attem": 5134,
      "enge": 5135,
      "town": 5136,
      "outs": 5137,
      "विल": 5138,
      "साफ": 5139,
      "संग": 5140,
      "सीए": 5141,
      "सीपी": 5142,
      "लीटर": 5143,
      "uses": 5144,
      "safe": 5145,
      "शायद": 5146,
      "हिन्": 5147,
      "पीठ": 5148,
      "रेट": 5149,
      "hib": 5150,
      "Invest": 5151,
      "रुख": 5152,
      "poll": 5153,
      "avid": 5154,
      "emic": 5155,
      "identified": 5156,
      "अनुभव": 5157,
      "जिसकी": 5158,
      "चिंता": 5159,
      "मौजू": 5160,
      "खिल": 5161,
      "nov": 5162,
      "answer": 5163,
      "बातें": 5164,
      "स्तानी": 5165,
      "gov": 5166,
      "जुलाई": 5167,
      "कॉलेज": 5168,
      "दारों": 5169,
      "something": 5170,
      "ficult": 5171,
      "training": 5172,
      "अरब": 5173,
      "हिंसा": 5174,
      "problems": 5175,
      "campaign": 5176,
      "पर्यटन": 5177,
      "deliver": 5178,
      "whether": 5179,
      "किलोमीटर": 5180,
      "Monday": 5181,
      "संशोधन": 5182,
      "wrong": 5183,
      "संसाधन": 5184,
      "July": 5185,
      "द्वीप": 5186,
      "Hyder": 5187,
      "अथवा": 5188,
      "गाँव": 5189,
      "wrote": 5190,
      "--": 5191,
      "57": 5192,
      "IA": 5193,
      "Kore": 5194,
      "ODI": 5195,
      "Under": 5196,
      "male": 5197,
      "ses": 5198,
      "ufact": 5199,
      "आपूर्ति": 5200,
      "चयन": 5201,
      "चंद्र": 5202,
      "जॉ": 5203,
      "बजे": 5204,
      "षद": 5205,
      "thers": 5206,
      "ator": 5207,
      "हैदरा": 5208,
      "ande": 5209,
      "ici": 5210,
      "icial": 5211,
      "stars": 5212,
      "vey": 5213,
      "secretary": 5214,
      "amb": 5215,
      "ami": 5216,
      "तीनों": 5217,
      "तीसरे": 5218,
      "ots": 5219,
      "पाठ": 5220,
      "त्ति": 5221,
      "ल्म": 5222,
      "अपील": 5223,
      "sured": 5224,
      "रहता": 5225,
      "रहती": 5226,
      "ney": 5227,
      "उसमें": 5228,
      "load": 5229,
      "शिप": 5230,
      "moved": 5231,
      "दोस्त": 5232,
      "आईए": 5233,
      "ज़रू": 5234,
      "प्रतिबंध": 5235,
      "च्‍": 5236,
      "affected": 5237,
      "पूर्वी": 5238,
      "दर्भ": 5239,
      "योग्य": 5240,
      "trying": 5241,
      "regular": 5242,
      "rug": 5243,
      "कर्ताओं": 5244,
      "ensive": 5245,
      "Afghan": 5246,
      "legal": 5247,
      "operations": 5248,
      "पहुंची": 5249,
      "बैंकों": 5250,
      "standing": 5251,
      "difficult": 5252,
      "व्यापक": 5253,
      "believer": 5254,
      "mortem": 5255,
      "Rohit": 5256,
      "टूबर": 5257,
      "सहायक": 5258,
      "मिलेगा": 5259,
      "liter": 5260,
      "अफ्री": 5261,
      "सुनवाई": 5262,
      "terrorism": 5263,
      "अनिल": 5264,
      "Kej": 5265,
      "involved": 5266,
      "Salman": 5267,
      "जिम्मेदारी": 5268,
      "girl": 5269,
      "details": 5270,
      "खारिज": 5271,
      "नेतृत्व": 5272,
      "मूर्ति": 5273,
      "Priyanka": 5274,
      "आउट": 5275,
      "आधिकारिक": 5276,
      "मौजूदा": 5277,
      "Hyderabad": 5278,
      "हैदराबाद": 5279,
      "120": 5280,
      "Ay": 5281,
      "Amb": 5282,
      "Big": 5283,
      "Bra": 5284,
      "Cabinet": 5285,
      "Jap": 5286,
      "Lt": 5287,
      "Nath": 5288,
      "PP": 5289,
      "SA": 5290,
      "Ter": 5291,
      "Tax": 5292,
      "aud": 5293,
      "flow": 5294,
      "ging": 5295,
      "ier": 5296,
      "link": 5297,
      "rich": 5298,
      "xa": 5299,
      "अगु": 5300,
      "आते": 5301,
      "गलत": 5302,
      "चारी": 5303,
      "छि": 5304,
      "फ्रा": 5305,
      "बच": 5306,
      "भरो": 5307,
      "भवन": 5308,
      "यलों": 5309,
      "ष्य": 5310,
      "हवाई": 5311,
      "ृत": 5312,
      "really": 5313,
      "र्य": 5314,
      "लिन": 5315,
      "लिब": 5316,
      "belong": 5317,
      "behind": 5318,
      "forces": 5319,
      "नियर": 5320,
      "जाम": 5321,
      "भीतर": 5322,
      "imum": 5323,
      "ource": 5324,
      "दीन": 5325,
      "lied": 5326,
      "lies": 5327,
      "ivity": 5328,
      "मानना": 5329,
      "तकों": 5330,
      "ज़्यादा": 5331,
      "Chin": 5332,
      "उपचार": 5333,
      "युद्ध": 5334,
      "राज्यपाल": 5335,
      "ंकन": 5336,
      "उत्‍": 5337,
      "कर्मियों": 5338,
      "लगाए": 5339,
      "himself": 5340,
      "स्थापना": 5341,
      "intro": 5342,
      "निकल": 5343,
      "फ़ा": 5344,
      "Pakistani": 5345,
      "incip": 5346,
      "गठन": 5347,
      "Express": 5348,
      "descri": 5349,
      "स्टेट": 5350,
      "हराया": 5351,
      "अंतरराष्ट्रीय": 5352,
      "Research": 5353,
      "economy": 5354,
      "Chandigarh": 5355,
      "conduct": 5356,
      "approach": 5357,
      "श्रेष्ठ": 5358,
      "talks": 5359,
      "स्वतंत्रता": 5360,
      "ggest": 5361,
      "Group": 5362,
      "प्रारंभ": 5363,
      "quiry": 5364,
      "Kolkata": 5365,
      "इंडियन": 5366,
      "material": 5367,
      "August": 5368,
      "relationship": 5369,
      "लॉन्च": 5370,
      "Kejri": 5371,
      "CB": 5372,
      "FC": 5373,
      "Fore": 5374,
      "HD": 5375,
      "Per": 5376,
      "Wom": 5377,
      "cred": 5378,
      "ded": 5379,
      "hom": 5380,
      "mag": 5381,
      "phe": 5382,
      "warn": 5383,
      "आंध": 5384,
      "इन्ह": 5385,
      "ज्य": 5386,
      "दलों": 5387,
      "नू": 5388,
      "रज": 5389,
      "thank": 5390,
      "anim": 5391,
      "ern": 5392,
      "onse": 5393,
      "केजरी": 5394,
      "reve": 5395,
      "नेह": 5396,
      "aly": 5397,
      "orig": 5398,
      "कोण": 5399,
      "नाय": 5400,
      "विशा": 5401,
      "लाए": 5402,
      "adha": 5403,
      "bey": 5404,
      "ids": 5405,
      "forth": 5406,
      "termin": 5407,
      "त्रियों": 5408,
      "संभा": 5409,
      "बाकी": 5410,
      "deb": 5411,
      "ड़ियों": 5412,
      "त्त": 5413,
      "त्ती": 5414,
      "मुझ": 5415,
      "uni": 5416,
      "जिलों": 5417,
      "रिंग": 5418,
      "वेज": 5419,
      "रोधी": 5420,
      "lost": 5421,
      "्याज": 5422,
      "cast": 5423,
      "टेन": 5424,
      "टेली": 5425,
      "grant": 5426,
      "अनुच्छेद": 5427,
      "दर्शन": 5428,
      "बिल्": 5429,
      "anyone": 5430,
      "डिंग": 5431,
      "प्रावधान": 5432,
      "cooperation": 5433,
      "positive": 5434,
      "कहानी": 5435,
      "Section": 5436,
      "films": 5437,
      "घायलों": 5438,
      "served": 5439,
      "produced": 5440,
      "नियमित": 5441,
      "ट्वि": 5442,
      "families": 5443,
      "director": 5444,
      "Isra": 5445,
      "coronavirus": 5446,
      "Trans": 5447,
      "प्रयासों": 5448,
      "उल्लं": 5449,
      "मुद्दे": 5450,
      "Sanjay": 5451,
      "सफलता": 5452,
      "indeed": 5453,
      "Special": 5454,
      "friends": 5455,
      "places": 5456,
      "course": 5457,
      "similar": 5458,
      "recovered": 5459,
      "activities": 5460,
      "हादसे": 5461,
      "application": 5462,
      "ruption": 5463,
      "suffer": 5464,
      "फाइनल": 5465,
      "Feb": 5466,
      "तुरंत": 5467,
      "freedom": 5468,
      "xa0": 5469,
      "Kejriwal": 5470,
      "केजरीवाल": 5471,
      "05": 5472,
      "Bab": 5473,
      "Iran": 5474,
      "ME": 5475,
      "RE": 5476,
      "RO": 5477,
      "Up": 5478,
      "Ze": 5479,
      "ahead": 5480,
      "din": 5481,
      "ech": 5482,
      "आकाश": 5483,
      "इंत": 5484,
      "कब्": 5485,
      "ट्टी": 5486,
      "मला": 5487,
      "लगी": 5488,
      "हता": 5489,
      "िका": 5490,
      "thousand": 5491,
      "ane": 5492,
      "online": 5493,
      "aram": 5494,
      "itness": 5495,
      "कोय": 5496,
      "स्ती": 5497,
      "नाडु": 5498,
      "प्रथम": 5499,
      "room": 5500,
      "लियों": 5501,
      "वितर": 5502,
      "साह": 5503,
      "साहित": 5504,
      "जाग": 5505,
      "tery": 5506,
      "संजय": 5507,
      "ड़ने": 5508,
      "ull": 5509,
      "comb": 5510,
      "iah": 5511,
      "दास": 5512,
      "suggest": 5513,
      "जीबी": 5514,
      "शासित": 5515,
      "हिर": 5516,
      "हिरा": 5517,
      "tele": 5518,
      "शिष्ट": 5519,
      "रहेगा": 5520,
      "अनुमान": 5521,
      "जेल": 5522,
      "व्यवहार": 5523,
      "angana": 5524,
      "महान": 5525,
      "worked": 5526,
      "रखी": 5527,
      "रखे": 5528,
      "Anil": 5529,
      "tained": 5530,
      "investment": 5531,
      "प्रेम": 5532,
      "अध्यक्षता": 5533,
      "पक्षीय": 5534,
      "bodies": 5535,
      "परीक्षण": 5536,
      "पदक": 5537,
      "examination": 5538,
      "politics": 5539,
      "ternal": 5540,
      "English": 5541,
      "अफग": 5542,
      "vote": 5543,
      "movement": 5544,
      "demanded": 5545,
      "employment": 5546,
      "संस्कृति": 5547,
      "District": 5548,
      "Railway": 5549,
      "धरती": 5550,
      "popular": 5551,
      "property": 5552,
      "heavy": 5553,
      "Colle": 5554,
      "electric": 5555,
      "begin": 5556,
      "शरीर": 5557,
      "stead": 5558,
      "opportunity": 5559,
      "चिकित्सा": 5560,
      "मुकाबले": 5561,
      "Assam": 5562,
      "पृथ": 5563,
      "ष्‍ट्रीय": 5564,
      "Deputy": 5565,
      "inaugur": 5566,
      "Japan": 5567,
      "आंध्र": 5568,
      "उल्लंघन": 5569,
      "66": 5570,
      "App": 5571,
      "Bal": 5572,
      "CR": 5573,
      "Let": 5574,
      "Rel": 5575,
      "RBI": 5576,
      "Tod": 5577,
      "bill": 5578,
      "cra": 5579,
      "civil": 5580,
      "eight": 5581,
      "ecut": 5582,
      "fel": 5583,
      "fell": 5584,
      "pun": 5585,
      "rad": 5586,
      "sin": 5587,
      "song": 5588,
      "इतना": 5589,
      "उपरा": 5590,
      "खराब": 5591,
      "चार्": 5592,
      "देंगे": 5593,
      "पें": 5594,
      "हस्ता": 5595,
      "।\"\"\"": 5596,
      "istr": 5597,
      "सेल": 5598,
      "स्य": 5599,
      "प्रमाण": 5600,
      "हाउस": 5601,
      "season": 5602,
      "forman": 5603,
      "terms": 5604,
      "verse": 5605,
      "संधान": 5606,
      "सीख": 5607,
      "मिता": 5608,
      "agency": 5609,
      "congr": 5610,
      "ably": 5611,
      "probe": 5612,
      "सिस्ट": 5613,
      "ries": 5614,
      "rief": 5615,
      "appreci": 5616,
      "राजनाथ": 5617,
      "techn": 5618,
      "rail": 5619,
      "exper": 5620,
      "मैदान": 5621,
      "एसएस": 5622,
      "मिलकर": 5623,
      "grap": 5624,
      "निर्भर": 5625,
      "counter": 5626,
      "गईं": 5627,
      "सूस": 5628,
      "host": 5629,
      "hood": 5630,
      "कहने": 5631,
      "gets": 5632,
      "स्थानों": 5633,
      "घाटन": 5634,
      "setting": 5635,
      "सेवाएं": 5636,
      "अभिनेता": 5637,
      "जिनके": 5638,
      "capac": 5639,
      "Constitution": 5640,
      "personal": 5641,
      "foot": 5642,
      "looking": 5643,
      "विद्या": 5644,
      "ार्थियों": 5645,
      "ड्डी": 5646,
      "प्रभावी": 5647,
      "अर्थव्यवस्था": 5648,
      "शिवसेना": 5649,
      "experience": 5650,
      "Governor": 5651,
      "खूब": 5652,
      "lodged": 5653,
      "mentioned": 5654,
      "institutions": 5655,
      "Africa": 5656,
      "बजट": 5657,
      "चंडीगढ़": 5658,
      "डिजिटल": 5659,
      "introdu": 5660,
      "Israel": 5661,
      "congratul": 5662,
      "Bl": 5663,
      "CS": 5664,
      "Civil": 5665,
      "Fr": 5666,
      "Krish": 5667,
      "Naid": 5668,
      "PS": 5669,
      "Pa": 5670,
      "Sche": 5671,
      "Science": 5672,
      "T20": 5673,
      "iers": 5674,
      "kh": 5675,
      "mil": 5676,
      "pted": 5677,
      "rushed": 5678,
      "squ": 5679,
      "sale": 5680,
      "ti": 5681,
      "अंग्रे": 5682,
      "डिक": 5683,
      "ड्रा": 5684,
      "नयी": 5685,
      "वकी": 5686,
      "isl": 5687,
      "यात्रियों": 5688,
      "ताछ": 5689,
      "नात": 5690,
      "साझा": 5691,
      "निशा": 5692,
      "निधन": 5693,
      "term": 5694,
      "देर": 5695,
      "uries": 5696,
      "imate": 5697,
      "बाग": 5698,
      "क्षर": 5699,
      "मिलियन": 5700,
      "agric": 5701,
      "conference": 5702,
      "propos": 5703,
      "opra": 5704,
      "जीएसटी": 5705,
      "चालक": 5706,
      "राज्‍य": 5707,
      "बीएस": 5708,
      "कुर": 5709,
      "expl": 5710,
      "ष्टा": 5711,
      "polls": 5712,
      "परिषद": 5713,
      "प्रतिक्रिया": 5714,
      "मिलती": 5715,
      "whole": 5716,
      "orders": 5717,
      "अनुसंधान": 5718,
      "doctors": 5719,
      "सूचित": 5720,
      "anything": 5721,
      "गुना": 5722,
      "चीनी": 5723,
      "Indians": 5724,
      "rupe": 5725,
      "चेन्न": 5726,
      "एंट": 5727,
      "Rajya": 5728,
      "2007": 5729,
      "पाकिस्तानी": 5730,
      "occur": 5731,
      "purpose": 5732,
      "playing": 5733,
      "स्थिर": 5734,
      "subject": 5735,
      "विकल्प": 5736,
      "Super": 5737,
      "इस्ती": 5738,
      "प्रोत्सा": 5739,
      "prior": 5740,
      "सीटें": 5741,
      "मैचों": 5742,
      "प्रिय": 5743,
      "north": 5744,
      "टूर्ना": 5745,
      "999": 5746,
      "उद्घाटन": 5747,
      "गतिविधि": 5748,
      "मिलेगी": 5749,
      "तिहासिक": 5750,
      "protect": 5751,
      "points": 5752,
      "Corpor": 5753,
      "challeng": 5754,
      "फुट": 5755,
      "military": 5756,
      "houses": 5757,
      "प्रशिक्षण": 5758,
      "रिलीज": 5759,
      "डब्ल्यू": 5760,
      "necessary": 5761,
      "अफ्रीका": 5762,
      "09": 5763,
      "Che": 5764,
      "Fil": 5765,
      "Ger": 5766,
      "IM": 5767,
      "Nir": 5768,
      "PTI": 5769,
      "RD": 5770,
      "Rep": 5771,
      "Sim": 5772,
      "Sund": 5773,
      "Sports": 5774,
      "UN": 5775,
      "Ver": 5776,
      "hatt": 5777,
      "ja": 5778,
      "jun": 5779,
      "ked": 5780,
      "sched": 5781,
      "vid": 5782,
      "watch": 5783,
      "इमर": 5784,
      "ऑपरे": 5785,
      "चू": 5786,
      "जानी": 5787,
      "झार": 5788,
      "टर्": 5789,
      "दस्ता": 5790,
      "धरी": 5791,
      "धार्": 5792,
      "पणी": 5793,
      "रवि": 5794,
      "सच": 5795,
      "ेश": 5796,
      "्त": 5797,
      "केश": 5798,
      "केशन": 5799,
      "काता": 5800,
      "ita": 5801,
      "कोरिया": 5802,
      "स्पी": 5803,
      "निगर": 5804,
      "माँ": 5805,
      "देकर": 5806,
      "संदेश": 5807,
      "resign": 5808,
      "पाई": 5809,
      "aging": 5810,
      "मुद": 5811,
      "uled": 5812,
      "सिवा": 5813,
      "lip": 5814,
      "मंच": 5815,
      "पुष्टि": 5816,
      "सरों": 5817,
      "expect": 5818,
      "performan": 5819,
      "Information": 5820,
      "रुद्ध": 5821,
      "पहल": 5822,
      "ems": 5823,
      "राज्यसभा": 5824,
      "create": 5825,
      "बातों": 5826,
      "महसूस": 5827,
      "ruary": 5828,
      "Associ": 5829,
      "therefore": 5830,
      "रखना": 5831,
      "आरंभ": 5832,
      "ट्रिक": 5833,
      "इंसान": 5834,
      "भूत": 5835,
      "वनडे": 5836,
      "Rajnath": 5837,
      "speed": 5838,
      "leading": 5839,
      "pped": 5840,
      "बुरा": 5841,
      "कॉन्": 5842,
      "Security": 5843,
      "presented": 5844,
      "सर्वो": 5845,
      "रणनीति": 5846,
      "व्यक्तियों": 5847,
      "clean": 5848,
      "Both": 5849,
      "श्रम": 5850,
      "अगस्त": 5851,
      "जरूरी": 5852,
      "Road": 5853,
      "completed": 5854,
      "groups": 5855,
      "Jehovahs": 5856,
      "ानिस्तान": 5857,
      "कर्मचारी": 5858,
      "पढ़ें": 5859,
      "शब्दों": 5860,
      "Ahmed": 5861,
      "anchay": 5862,
      "population": 5863,
      "दुर्घटना": 5864,
      "Election": 5865,
      "spiritual": 5866,
      "challenge": 5867,
      "religious": 5868,
      "draw": 5869,
      "destroy": 5870,
      "वास्तव": 5871,
      "पूछताछ": 5872,
      "सहमति": 5873,
      "constituency": 5874,
      "अंतरिक्ष": 5875,
      "February": 5876,
      "capacity": 5877,
      "Naidu": 5878,
      "टूर्नामेंट": 5879,
      "निगरानी": 5880,
      "34": 5881,
      "74": 5882,
      "Az": 5883,
      "Amar": 5884,
      "Dha": 5885,
      "Jhar": 5886,
      "Po": 5887,
      "Russ": 5888,
      "Sik": 5889,
      "border": 5890,
      "duty": 5891,
      "fice": 5892,
      "ga": 5893,
      "gen": 5894,
      "swe": 5895,
      "sources": 5896,
      "ule": 5897,
      "अत्य": 5898,
      "ऐतिहासिक": 5899,
      "ओवर": 5900,
      "कवि": 5901,
      "कमे": 5902,
      "खत्म": 5903,
      "ग्रे": 5904,
      "जहाँ": 5905,
      "हना": 5906,
      "िंग": 5907,
      "atural": 5908,
      "ened": 5909,
      "estern": 5910,
      "asons": 5911,
      "ications": 5912,
      "stake": 5913,
      "हालत": 5914,
      "sex": 5915,
      "साद": 5916,
      "मात्र": 5917,
      "देह": 5918,
      "Their": 5919,
      "दिख": 5920,
      "सीई": 5921,
      "defin": 5922,
      "गाह": 5923,
      "agram": 5924,
      "akash": 5925,
      "unto": 5926,
      "accept": 5927,
      "दाता": 5928,
      "दायर": 5929,
      "estic": 5930,
      "sust": 5931,
      "riage": 5932,
      "रूस": 5933,
      "बीमा": 5934,
      "model": 5935,
      "ंदगी": 5936,
      "ender": 5937,
      "quot": 5938,
      "खाते": 5939,
      "खाद्य": 5940,
      "partners": 5941,
      "manner": 5942,
      "Chenn": 5943,
      "बेशक": 5944,
      "निर्यात": 5945,
      "उपकरण": 5946,
      "डीजल": 5947,
      "डिग्री": 5948,
      "क्षेत्रीय": 5949,
      "पार्ट": 5950,
      "इंजी": 5951,
      "जुट": 5952,
      "enger": 5953,
      "scri": 5954,
      "न्‍न": 5955,
      "न्‍य": 5956,
      "travel": 5957,
      "personnel": 5958,
      "minor": 5959,
      "response": 5960,
      "सकें": 5961,
      "laws": 5962,
      "organised": 5963,
      "उठाया": 5964,
      "ख्त": 5965,
      "ieve": 5966,
      "request": 5967,
      "Chair": 5968,
      "banks": 5969,
      "joint": 5970,
      "League": 5971,
      "संगठनों": 5972,
      "पश्चिमी": 5973,
      "discussed": 5974,
      "उम्मीदवारों": 5975,
      "majority": 5976,
      "schemes": 5977,
      "schools": 5978,
      "सम्मानित": 5979,
      "वार्ता": 5980,
      "Himachal": 5981,
      "changes": 5982,
      "allowed": 5983,
      "स्क्री": 5984,
      "huge": 5985,
      "American": 5986,
      "काउंट": 5987,
      "construction": 5988,
      "कारोबार": 5989,
      "favour": 5990,
      "vehicles": 5991,
      "strike": 5992,
      "CEO": 5993,
      "स्मार्टफोन": 5994,
      "Hospital": 5995,
      "बिक्री": 5996,
      "घंटे": 5997,
      "तमिलनाडु": 5998,
      "कोलकाता": 5999,
      "हिमाचल": 6000,
      "safety": 6001,
      "पूर्वोत्तर": 6002,
      "significant": 6003,
      "ट्विटर": 6004,
      "हिरासत": 6005,
      "चेन्नई": 6006,
      "Chennai": 6007,
      "61": 6008,
      "79": 6009,
      "Agr": 6010,
      "Bar": 6011,
      "Li": 6012,
      "Law": 6013,
      "cere": 6014,
      "cum": 6015,
      "gather": 6016,
      "jan": 6017,
      "rin": 6018,
      "rise": 6019,
      "sw": 6020,
      "sister": 6021,
      "sports": 6022,
      "आवास": 6023,
      "कठि": 6024,
      "जस्टि": 6025,
      "ड्र": 6026,
      "ड्यू": 6027,
      "दंड": 6028,
      "नारा": 6029,
      "बहन": 6030,
      "मती": 6031,
      "रब": 6032,
      "शही": 6033,
      "सॉ": 6034,
      "स्पर्": 6035,
      "ताल": 6036,
      "ilt": 6037,
      "विपक्ष": 6038,
      "admitted": 6039,
      "लेते": 6040,
      "तिन": 6041,
      "निम्": 6042,
      "नियुक्त": 6043,
      "संवाद": 6044,
      "संदर्भ": 6045,
      "ित्व": 6046,
      "तीश": 6047,
      "dem": 6048,
      "पाक": 6049,
      "confir": 6050,
      "units": 6051,
      "रिकॉ": 6052,
      "सिद्धा": 6053,
      "river": 6054,
      "plant": 6055,
      "उसको": 6056,
      "Inst": 6057,
      "आईआर": 6058,
      "manufact": 6059,
      "आपकी": 6060,
      "्राम": 6061,
      "चित्र": 6062,
      "धारण": 6063,
      "बिग": 6064,
      "anger": 6065,
      "महानि": 6066,
      "black": 6067,
      "contact": 6068,
      "enced": 6069,
      "ट्रै": 6070,
      "provides": 6071,
      "खिलाड़ी": 6072,
      "खुला": 6073,
      "खुदा": 6074,
      "150": 6075,
      "निकट": 6076,
      "2008": 6077,
      "मनु": 6078,
      "पंजी": 6079,
      "तैय": 6080,
      "नोट": 6081,
      "didnt": 6082,
      "guid": 6083,
      "morning": 6084,
      "पश्चा": 6085,
      "कानूनी": 6086,
      "value": 6087,
      "aught": 6088,
      "regarding": 6089,
      "नागरिकों": 6090,
      "risk": 6091,
      "मार्टम": 6092,
      "Neh": 6093,
      "बरामद": 6094,
      "break": 6095,
      "steps": 6096,
      "problem": 6097,
      "पर्यावरण": 6098,
      "दोषी": 6099,
      "गरीब": 6100,
      "character": 6101,
      "criminal": 6102,
      "न्वयन": 6103,
      "भरोसा": 6104,
      "नायडू": 6105,
      "Scheme": 6106,
      "Agric": 6107,
      "41": 6108,
      "71": 6109,
      "82": 6110,
      "Apart": 6111,
      "Ben": 6112,
      "DM": 6113,
      "David": 6114,
      "Lal": 6115,
      "ON": 6116,
      "RB": 6117,
      "Water": 6118,
      "cup": 6119,
      "cultural": 6120,
      "gone": 6121,
      "ires": 6122,
      "late": 6123,
      "mus": 6124,
      "ministry": 6125,
      "ns": 6126,
      "pal": 6127,
      "ँच": 6128,
      "आजा": 6129,
      "इत": 6130,
      "इलेक्": 6131,
      "कना": 6132,
      "ख्या": 6133,
      "जहा": 6134,
      "ट्यू": 6135,
      "तें": 6136,
      "मशी": 6137,
      "शॉ": 6138,
      "हानि": 6139,
      "ुत": 6140,
      "ुप": 6141,
      "ृंख": 6142,
      "threat": 6143,
      "infrastructure": 6144,
      "ert": 6145,
      "ora": 6146,
      "किर": 6147,
      "करू": 6148,
      "ताव": 6149,
      "icro": 6150,
      "क्की": 6151,
      "hearing": 6152,
      "प्रवक्ता": 6153,
      "वाहन": 6154,
      "निगम": 6155,
      "chair": 6156,
      "जाओ": 6157,
      "\"\",": 6158,
      "super": 6159,
      "appointed": 6160,
      "पीएस": 6161,
      "text": 6162,
      "रेड्डी": 6163,
      "exchange": 6164,
      "iful": 6165,
      "प्रतिबद्ध": 6166,
      "acting": 6167,
      "docu": 6168,
      "डीए": 6169,
      "मौसम": 6170,
      "प्राधि": 6171,
      "serve": 6172,
      "सोम": 6173,
      "ट्रॉ": 6174,
      "providing": 6175,
      "aired": 6176,
      "एनएस": 6177,
      "Arun": 6178,
      "बुनिया": 6179,
      "होंगी": 6180,
      "Most": 6181,
      "purch": 6182,
      "Force": 6183,
      "सामग्री": 6184,
      "ika": 6185,
      "अभिने": 6186,
      "ग्राह": 6187,
      "justice": 6188,
      "ological": 6189,
      "iversary": 6190,
      "चौधरी": 6191,
      "फरवरी": 6192,
      "located": 6193,
      "passengers": 6194,
      "investigating": 6195,
      "check": 6196,
      "committed": 6197,
      "Commissioner": 6198,
      "शानदार": 6199,
      "प्रकाशित": 6200,
      "independ": 6201,
      "effective": 6202,
      "सीसीआई": 6203,
      "appropri": 6204,
      "हिंदी": 6205,
      "Muslims": 6206,
      "Service": 6207,
      "समझौते": 6208,
      "language": 6209,
      "प्रेरित": 6210,
      "फायदा": 6211,
      "published": 6212,
      "टिप्पणी": 6213,
      "कृष्ण": 6214,
      "tweeted": 6215,
      "अफगानिस्तान": 6216,
      "झारखंड": 6217,
      "धार्मिक": 6218,
      "जस्टिस": 6219,
      "ृंखला": 6220,
      "43": 6221,
      "62": 6222,
      "AB": 6223,
      "BSP": 6224,
      "Besides": 6225,
      "Di": 6226,
      "Don": 6227,
      "Div": 6228,
      "Euro": 6229,
      "Jay": 6230,
      "Kal": 6231,
      "Later": 6232,
      "Mi": 6233,
      "Nagar": 6234,
      "Sar": 6235,
      "Ven": 6236,
      "dro": 6237,
      "gas": 6238,
      "ium": 6239,
      "khand": 6240,
      "sco": 6241,
      "session": 6242,
      "ug": 6243,
      "vac": 6244,
      "ww": 6245,
      "wise": 6246,
      "ंती": 6247,
      "असर": 6248,
      "आं": 6249,
      "आशा": 6250,
      "आत्म": 6251,
      "इरा": 6252,
      "खत": 6253,
      "खड़े": 6254,
      "झू": 6255,
      "तनाव": 6256,
      "दस": 6257,
      "पवि": 6258,
      "मस्": 6259,
      "शख्": 6260,
      "षित": 6261,
      "सवार": 6262,
      "ोतरी": 6263,
      "recomm": 6264,
      "tourn": 6265,
      "करवा": 6266,
      "stable": 6267,
      "staff": 6268,
      "परं": 6269,
      "विवाह": 6270,
      "below": 6271,
      "uri": 6272,
      "ira": 6273,
      "संपत्ति": 6274,
      "trust": 6275,
      "मुकद": 6276,
      "abs": 6277,
      "सिस": 6278,
      "जीलैंड": 6279,
      "मेगा": 6280,
      "मेडिक": 6281,
      "हिक": 6282,
      "plat": 6283,
      "सुख": 6284,
      "rape": 6285,
      "raised": 6286,
      "रोड": 6287,
      "execut": 6288,
      "upcoming": 6289,
      "आईएस": 6290,
      "परिजनों": 6291,
      "टेक्": 6292,
      "Those": 6293,
      "Chopra": 6294,
      "शुक्र": 6295,
      "चीफ": 6296,
      "plea": 6297,
      "coal": 6298,
      "commission": 6299,
      "governments": 6300,
      "मूसा": 6301,
      "ग्रुप": 6302,
      "पंचा": 6303,
      "distrib": 6304,
      "चाहती": 6305,
      "महामारी": 6306,
      "लंका": 6307,
      "Meh": 6308,
      "increasing": 6309,
      "ukh": 6310,
      "passed": 6311,
      "wanted": 6312,
      "names": 6313,
      "नेटवर्क": 6314,
      "रोकने": 6315,
      "protection": 6316,
      "पोस्टमार्टम": 6317,
      "placed": 6318,
      "profession": 6319,
      "custody": 6320,
      "failed": 6321,
      "अक्टूबर": 6322,
      "आनंद": 6323,
      "spokes": 6324,
      "picture": 6325,
      "Phone": 6326,
      "believers": 6327,
      "Today": 6328,
      "वकील": 6329,
      "Jharkhand": 6330,
      "कमेटी": 6331,
      "निम्न": 6332,
      "सिद्धांत": 6333,
      "Instagram": 6334,
      "58": 6335,
      "63": 6336,
      "By": 6337,
      "Ban": 6338,
      "DG": 6339,
      "Dal": 6340,
      "Dhon": 6341,
      "Frid": 6342,
      "Here": 6343,
      "More": 6344,
      "Nag": 6345,
      "Pal": 6346,
      "Pet": 6347,
      "Power": 6348,
      "RC": 6349,
      "RAM": 6350,
      "Us": 6351,
      "ape": 6352,
      "cul": 6353,
      "ding": 6354,
      "oj": 6355,
      "pil": 6356,
      "उम्र": 6357,
      "ऑटो": 6358,
      "जमीन": 6359,
      "टने": 6360,
      "णे": 6361,
      "नय": 6362,
      "फार": 6363,
      "फान": 6364,
      "फंड": 6365,
      "बलों": 6366,
      "मल्": 6367,
      "सृ": 6368,
      "सन्": 6369,
      "सारी": 6370,
      "सच्चा": 6371,
      "thought": 6372,
      "enship": 6373,
      "ark": 6374,
      "प्रशं": 6375,
      "परमाण": 6376,
      "लियम": 6377,
      "विध": 6378,
      "विंद": 6379,
      "विरोधी": 6380,
      "विशिष्ट": 6381,
      "advis": 6382,
      "separ": 6383,
      "जापान": 6384,
      "देवी": 6385,
      "urban": 6386,
      "सीन": 6387,
      "igation": 6388,
      "मुसलमान": 6389,
      "akhand": 6390,
      "proposed": 6391,
      "rial": 6392,
      "shot": 6393,
      "neigh": 6394,
      "सुनी": 6395,
      "सुझा": 6396,
      "सुबह": 6397,
      "exerc": 6398,
      "ंडे": 6399,
      "स्ट्री": 6400,
      "porters": 6401,
      "ंद्रा": 6402,
      "istic": 6403,
      "ressing": 6404,
      "ज़र": 6405,
      "प्रतियोग": 6406,
      "रहेगी": 6407,
      "ordin": 6408,
      "अनुरोध": 6409,
      "achieve": 6410,
      "prim": 6411,
      "दर्शा": 6412,
      "डिस्": 6413,
      "कार्यों": 6414,
      "rule": 6415,
      "century": 6416,
      "Asia": 6417,
      "crime": 6418,
      "टिल": 6419,
      "married": 6420,
      "marriage": 6421,
      "बुरी": 6422,
      "योजनाओं": 6423,
      "गोली": 6424,
      "स्वरूप": 6425,
      "स्वच्छ": 6426,
      "कॉम": 6427,
      "क्सल": 6428,
      "कारणों": 6429,
      "सर्वि": 6430,
      "hands": 6431,
      "gives": 6432,
      "हालात": 6433,
      "नियमों": 6434,
      "स्वागत": 6435,
      "समझा": 6436,
      "Conference": 6437,
      "teams": 6438,
      "गिरफ्तारी": 6439,
      "require": 6440,
      "transport": 6441,
      "दायित्व": 6442,
      "ड्स": 6443,
      "ज्ञात": 6444,
      "Uttarakhand": 6445,
      "respectively": 6446,
      "ष्‍ट्र": 6447,
      "नागरिकता": 6448,
      "Plus": 6449,
      "Mark": 6450,
      "दबाव": 6451,
      "caused": 6452,
      "driver": 6453,
      "धोनी": 6454,
      "conditions": 6455,
      "ब्रिटेन": 6456,
      "जताई": 6457,
      "हिंदू": 6458,
      "System": 6459,
      "Earlier": 6460,
      "Students": 6461,
      "message": 6462,
      "निपटने": 6463,
      "भागीदारी": 6464,
      "ऑनलाइन": 6465,
      "Article": 6466,
      "प्राथमि": 6467,
      "शुभकामना": 6468,
      "Chinese": 6469,
      "इन्हें": 6470,
      "विशाल": 6471,
      "Zealand": 6472,
      "रिकॉर्ड": 6473,
      "अभिनेत्री": 6474,
      "शख्स": 6475,
      "मेडिकल": 6476,
      "Friday": 6477,
      "परमाणु": 6478,
      "72": 6479,
      "86": 6480,
      "Are": 6481,
      "Fir": 6482,
      "Gup": 6483,
      "JN": 6484,
      "Kan": 6485,
      "Kul": 6486,
      "MT": 6487,
      "Min": 6488,
      "Mand": 6489,
      "Mess": 6490,
      "Mission": 6491,
      "NS": 6492,
      "Tata": 6493,
      "cou": 6494,
      "cities": 6495,
      "dict": 6496,
      "fru": 6497,
      "hund": 6498,
      "ience": 6499,
      "iPhone": 6500,
      "mid": 6501,
      "mass": 6502,
      "pes": 6503,
      "pack": 6504,
      "site": 6505,
      "south": 6506,
      "tro": 6507,
      "west": 6508,
      "औद्योग": 6509,
      "झु": 6510,
      "ठे": 6511,
      "दया": 6512,
      "धू": 6513,
      "ध्‍य": 6514,
      "बरी": 6515,
      "ब्रे": 6516,
      "भंड": 6517,
      "षिक": 6518,
      "सकी": 6519,
      "हवा": 6520,
      "्वी": 6521,
      "‍ली": 6522,
      "inn": 6523,
      "ergy": 6524,
      "eder": 6525,
      "almost": 6526,
      "करि": 6527,
      "स्त्री": 6528,
      "stage": 6529,
      "प्रवेश": 6530,
      "विवा": 6531,
      "विरुद्ध": 6532,
      "ades": 6533,
      "लेन": 6534,
      "सामान": 6535,
      "निवार": 6536,
      "कारियों": 6537,
      "न्ना": 6538,
      "मात्रा": 6539,
      "संतु": 6540,
      "dece": 6541,
      "ager": 6542,
      "2021": 6543,
      "मुश्": 6544,
      "Indep": 6545,
      "दाम": 6546,
      "दाबाद": 6547,
      "दाताओं": 6548,
      "lif": 6549,
      "जीता": 6550,
      "शाम": 6551,
      "सुल": 6552,
      "raj": 6553,
      "essment": 6554,
      "mohan": 6555,
      "वर्ती": 6556,
      "रुण": 6557,
      "worth": 6558,
      "disease": 6559,
      "सरकारों": 6560,
      "मिलता": 6561,
      "बेहत": 6562,
      "पियन": 6563,
      "श्रीलंका": 6564,
      "स्‍व": 6565,
      "box": 6566,
      "बढ़कर": 6567,
      "डाला": 6568,
      "बारा": 6569,
      "128": 6570,
      "encour": 6571,
      "टिस": 6572,
      "दिल्‍ली": 6573,
      "cross": 6574,
      "गोयल": 6575,
      "anning": 6576,
      "oyal": 6577,
      "phys": 6578,
      "समाचार": 6579,
      "जयंती": 6580,
      "करीना": 6581,
      "आतंकी": 6582,
      "everything": 6583,
      "ministers": 6584,
      "सैन्य": 6585,
      "परिवारों": 6586,
      "fourth": 6587,
      "followed": 6588,
      "फरार": 6589,
      "surely": 6590,
      "इलाकों": 6591,
      "extended": 6592,
      "normal": 6593,
      "पड़ो": 6594,
      "सराहना": 6595,
      "pending": 6596,
      "vention": 6597,
      "domestic": 6598,
      "advoc": 6599,
      "वार्षिक": 6600,
      "changed": 6601,
      "initiatives": 6602,
      "histor": 6603,
      "Additional": 6604,
      "funds": 6605,
      "meaning": 6606,
      "द्विपक्षीय": 6607,
      "patients": 6608,
      "festival": 6609,
      "diesel": 6610,
      "त्तीस": 6611,
      "मुद्रा": 6612,
      "performance": 6613,
      "Europe": 6614,
      "Independ": 6615,
      "बेहतरी": 6616,
      "400": 6617,
      "Brit": 6618,
      "EL": 6619,
      "Follow": 6620,
      "MC": 6621,
      "Rukh": 6622,
      "Sol": 6623,
      "UT": 6624,
      "culture": 6625,
      "fine": 6626,
      "god": 6627,
      "hope": 6628,
      "iy": 6629,
      "jail": 6630,
      "ken": 6631,
      "tw": 6632,
      "tor": 6633,
      "अक्ष": 6634,
      "आश्": 6635,
      "इजा": 6636,
      "ऋण": 6637,
      "कड़ी": 6638,
      "गज": 6639,
      "घे": 6640,
      "चढ़": 6641,
      "छत्तीस": 6642,
      "तल": 6643,
      "बत": 6644,
      "बें": 6645,
      "महो": 6646,
      "मरे": 6647,
      "मज़": 6648,
      "यकों": 6649,
      "वसाय": 6650,
      "िल": 6651,
      "inquiry": 6652,
      "केटर": 6653,
      "हैया": 6654,
      "anda": 6655,
      "itself": 6656,
      "icke": 6657,
      "icip": 6658,
      "stations": 6659,
      "प्रभु": 6660,
      "roles": 6661,
      "परन्तु": 6662,
      "राह": 6663,
      "uru": 6664,
      "urged": 6665,
      "दित": 6666,
      "पादन": 6667,
      "agh": 6668,
      "ago": 6669,
      "2000": 6670,
      "ables": 6671,
      "uted": 6672,
      "utes": 6673,
      "acqu": 6674,
      "atever": 6675,
      "समर्": 6676,
      "समक्ष": 6677,
      "सम्‍": 6678,
      "भारती": 6679,
      "मंड": 6680,
      "shi": 6681,
      "apur": 6682,
      "meth": 6683,
      "मंत्रियों": 6684,
      "बीमारी": 6685,
      "बीसीसीआई": 6686,
      "thern": 6687,
      "ift": 6688,
      "ighte": 6689,
      "शियल": 6690,
      "ंदन": 6691,
      "्यास": 6692,
      "वर्धन": 6693,
      "Child": 6694,
      "achi": 6695,
      "prime": 6696,
      "harm": 6697,
      "सूच": 6698,
      "पिक्सल": 6699,
      "evidence": 6700,
      "डीपी": 6701,
      "presence": 6702,
      "टाटा": 6703,
      "ध्यक्ष": 6704,
      "प्राइ": 6705,
      "command": 6706,
      "रखता": 6707,
      "attention": 6708,
      "cricke": 6709,
      "बोल": 6710,
      "additional": 6711,
      "Arab": 6712,
      "देखें": 6713,
      "scen": 6714,
      "visited": 6715,
      "ठाकुर": 6716,
      "Read": 6717,
      "handed": 6718,
      "product": 6719,
      "तैनात": 6720,
      "highest": 6721,
      "argu": 6722,
      "seeking": 6723,
      "क्‍ति": 6724,
      "विशेषज्ञ": 6725,
      "umbers": 6726,
      "evening": 6727,
      "guest": 6728,
      "guard": 6729,
      "carried": 6730,
      "corruption": 6731,
      "holders": 6732,
      "ट्रेस": 6733,
      "litre": 6734,
      "खोज": 6735,
      "discussion": 6736,
      "चोपड़ा": 6737,
      "रैम": 6738,
      "matches": 6739,
      "Author": 6740,
      "Senior": 6741,
      "considered": 6742,
      "tonnes": 6743,
      "दौरा": 6744,
      "विद्युत": 6745,
      "opportunities": 6746,
      "पुराने": 6747,
      "जवानों": 6748,
      "Class": 6749,
      "पहुँचा": 6750,
      "status": 6751,
      "citizens": 6752,
      "susp": 6753,
      "wickets": 6754,
      "सर्वश्रेष्ठ": 6755,
      "रिश्ते": 6756,
      "Cricket": 6757,
      "भ्रष्टा": 6758,
      "छूट": 6759,
      "निर्वाचन": 6760,
      "अन्तर्गत": 6761,
      "Afghanistan": 6762,
      "Bigg": 6763,
      "सिस्टम": 6764,
      "इमरान": 6765,
      "Association": 6766,
      "पवित्र": 6767,
      "First": 6768,
      "भ्रष्टाचार": 6769,
      "77": 6770,
      "85": 6771,
      "EC": 6772,
      "From": 6773,
      "JD": 6774,
      "Pad": 6775,
      "Sin": 6776,
      "Will": 6777,
      "block": 6778,
      "bilateral": 6779,
      "eed": 6780,
      "fra": 6781,
      "file": 6782,
      "gency": 6783,
      "hil": 6784,
      "lic": 6785,
      "moun": 6786,
      "mach": 6787,
      "nom": 6788,
      "oid": 6789,
      "ping": 6790,
      "pain": 6791,
      "righte": 6792,
      "sought": 6793,
      "uel": 6794,
      "wants": 6795,
      "अना": 6796,
      "आर्": 6797,
      "ओल": 6798,
      "कही": 6799,
      "गौ": 6800,
      "गवर्": 6801,
      "णु": 6802,
      "दवा": 6803,
      "नये": 6804,
      "बहा": 6805,
      "बानी": 6806,
      "ब्यू": 6807,
      "बजाय": 6808,
      "भट्ट": 6809,
      "लघु": 6810,
      "शर": 6811,
      "सारा": 6812,
      "स्रो": 6813,
      "िए": 6814,
      "rev": 6815,
      "यात्री": 6816,
      "ald": 6817,
      "सेक्टर": 6818,
      "स्वर्ण": 6819,
      "क्यू": 6820,
      "सागर": 6821,
      "जाकर": 6822,
      "verage": 6823,
      "सीय": 6824,
      "trial": 6825,
      "abh": 6826,
      "opal": 6827,
      "acce": 6828,
      "सिविल": 6829,
      "द्द": 6830,
      "कहां": 6831,
      "saw": 6832,
      "धियों": 6833,
      "पूंजी": 6834,
      "वेरि": 6835,
      "mechan": 6836,
      "ंडर": 6837,
      "तोड़": 6838,
      "स्ट्र": 6839,
      "quite": 6840,
      "fection": 6841,
      "emphas": 6842,
      "Thurs": 6843,
      "Pras": 6844,
      "Champ": 6845,
      "actress": 6846,
      "युक्ति": 6847,
      "सूत्रों": 6848,
      "बनाई": 6849,
      "लोड": 6850,
      "awar": 6851,
      "auto": 6852,
      "एमएस": 6853,
      "aily": 6854,
      "underway": 6855,
      "दुख": 6856,
      "cially": 6857,
      "compared": 6858,
      "lower": 6859,
      "फिल्मों": 6860,
      "speech": 6861,
      "चलने": 6862,
      "बुद्धि": 6863,
      "makes": 6864,
      "खेले": 6865,
      "anned": 6866,
      "everyone": 6867,
      "आएंगे": 6868,
      "target": 6869,
      "जीतने": 6870,
      "direction": 6871,
      "लंबी": 6872,
      "श्रृंखला": 6873,
      "built": 6874,
      "प्रिंट": 6875,
      "facilities": 6876,
      "joined": 6877,
      "कीमतों": 6878,
      "connect": 6879,
      "दृश्य": 6880,
      "employees": 6881,
      "एक्सप्रेस": 6882,
      "Aksh": 6883,
      "भोजन": 6884,
      "वायरल": 6885,
      "network": 6886,
      "expand": 6887,
      "टिकट": 6888,
      "स्टोरेज": 6889,
      "silver": 6890,
      "समझौता": 6891,
      "अक्सर": 6892,
      "awarded": 6893,
      "languages": 6894,
      "FIR": 6895,
      "तत्काल": 6896,
      "influ": 6897,
      "कालीन": 6898,
      "assistance": 6899,
      "mobile": 6900,
      "outside": 6901,
      "पृथ्वी": 6902,
      "हस्ताक्षर": 6903,
      "तैयारी": 6904,
      "Nehru": 6905,
      "बुनियादी": 6906,
      "neighb": 6907,
      "hundred": 6908,
      "औद्योगिक": 6909,
      "righteous": 6910,
      "Thursday": 6911,
      "04": 6912,
      "78": 6913,
      "Kam": 6914,
      "NCP": 6915,
      "RI": 6916,
      "Rav": 6917,
      "Raw": 6918,
      "Wed": 6919,
      "bag": 6920,
      "bail": 6921,
      "budget": 6922,
      "fal": 6923,
      "fix": 6924,
      "flood": 6925,
      "iya": 6926,
      "ration": 6927,
      "rict": 6928,
      "sons": 6929,
      "yan": 6930,
      "za": 6931,
      "अंदर": 6932,
      "जमान": 6933,
      "जर्स": 6934,
      "नवा": 6935,
      "नतम": 6936,
      "पंच": 6937,
      "मंगल": 6938,
      "लेंगे": 6939,
      "वचन": 6940,
      "शपथ": 6941,
      "सका": 6942,
      "हान": 6943,
      "thou": 6944,
      "thus": 6945,
      "anth": 6946,
      "rejected": 6947,
      "ork": 6948,
      "espe": 6949,
      "itude": 6950,
      "स्पि": 6951,
      "iced": 6952,
      "नाक": 6953,
      "stream": 6954,
      "राष्‍ट्रीय": 6955,
      "beat": 6956,
      "urday": 6957,
      "दिक": 6958,
      "arent": 6959,
      "areena": 6960,
      "लीग": 6961,
      "त्कार": 6962,
      "थाना": 6963,
      "मुक्त": 6964,
      "भाल": 6965,
      "elines": 6966,
      "रियल": 6967,
      "सिए": 6968,
      "पुस्": 6969,
      "रहना": 6970,
      "पूजा": 6971,
      "notice": 6972,
      "memor": 6973,
      "पीपी": 6974,
      "वार्य": 6975,
      "clause": 6976,
      "disci": 6977,
      "aves": 6978,
      "इनकार": 6979,
      "Prakash": 6980,
      "मुखर्जी": 6981,
      "grand": 6982,
      "princip": 6983,
      "उपबंध": 6984,
      "जेट": 6985,
      "दूरी": 6986,
      "सबुक": 6987,
      "क्षेप": 6988,
      "उत्पन्न": 6989,
      "पारित": 6990,
      "लगने": 6991,
      "Shr": 6992,
      "रखें": 6993,
      "prep": 6994,
      "brid": 6995,
      "भाग्य": 6996,
      "aik": 6997,
      "वर्षीय": 6998,
      "Rajput": 6999,
      "lands": 7000,
      "restrict": 7001,
      "बदले": 7002,
      "क्रिकेटर": 7003,
      "Cont": 7004,
      "तुम्हारा": 7005,
      "holding": 7006,
      "बंदर": 7007,
      "bench": 7008,
      "stop": 7009,
      "सांस्": 7010,
      "Goa": 7011,
      "एचडी": 7012,
      "उच्चतम": 7013,
      "Leg": 7014,
      "basic": 7015,
      "प्रत्यक्ष": 7016,
      "appear": 7017,
      "न्यायमूर्ति": 7018,
      "votes": 7019,
      "petrol": 7020,
      "returned": 7021,
      "Imran": 7022,
      "बचाव": 7023,
      "Christian": 7024,
      "heavens": 7025,
      "successful": 7026,
      "authorities": 7027,
      "वापसी": 7028,
      "अनिवार्य": 7029,
      "युवाओं": 7030,
      "Ashok": 7031,
      "Reddy": 7032,
      "Saturday": 7033,
      "religion": 7034,
      "contribution": 7035,
      "काउं": 7036,
      "वास्तविक": 7037,
      "shooting": 7038,
      "approved": 7039,
      "उल्लेखनीय": 7040,
      "प्रसारण": 7041,
      "potential": 7042,
      "impact": 7043,
      "लॉकडाउन": 7044,
      "democracy": 7045,
      "Ltd": 7046,
      "revealed": 7047,
      "वितरण": 7048,
      "जागरू": 7049,
      "इस्तीफा": 7050,
      "Agriculture": 7051,
      "सोमवार": 7052,
      "appropriate": 7053,
      "Dhoni": 7054,
      "सुझाव": 7055,
      "Following": 7056,
      "especially": 7057,
      ".,": 7058,
      "84": 7059,
      "Bach": 7060,
      "Fo": 7061,
      "Fund": 7062,
      "Face": 7063,
      "Further": 7064,
      "Gold": 7065,
      "HI": 7066,
      "Kareena": 7067,
      "Lim": 7068,
      "Mir": 7069,
      "Met": 7070,
      "Ob": 7071,
      "PF": 7072,
      "Sum": 7073,
      "Sach": 7074,
      "Srin": 7075,
      "Tour": 7076,
      "Wel": 7077,
      "Witness": 7078,
      "bes": 7079,
      "bing": 7080,
      "bers": 7081,
      "cot": 7082,
      "dream": 7083,
      "daily": 7084,
      "lay": 7085,
      "mom": 7086,
      "mAh": 7087,
      "nan": 7088,
      "rates": 7089,
      "sis": 7090,
      "sac": 7091,
      "ugh": 7092,
      "अन्‍य": 7093,
      "आसान": 7094,
      "इक": 7095,
      "उल": 7096,
      "उर्": 7097,
      "जम": 7098,
      "डन": 7099,
      "तह": 7100,
      "धम": 7101,
      "नम": 7102,
      "पदा": 7103,
      "फार्": 7104,
      "ब्याज": 7105,
      "लम": 7106,
      "सव": 7107,
      "सजा": 7108,
      "सत्ता": 7109,
      "हद": 7110,
      "repe": 7111,
      "reasons": 7112,
      "aters": 7113,
      "ense": 7114,
      "isgarh": 7115,
      "alone": 7116,
      "कियों": 7117,
      "सेल्": 7118,
      "itial": 7119,
      "नान": 7120,
      "क्का": 7121,
      "heard": 7122,
      "प्रसाद": 7123,
      "्यवाद": 7124,
      "विजे": 7125,
      "विवरण": 7126,
      "वाय": 7127,
      "वाणी": 7128,
      "वासियों": 7129,
      "राइ": 7130,
      "seized": 7131,
      "साझे": 7132,
      "निस": 7133,
      "दिये": 7134,
      "improv": 7135,
      "सीआर": 7136,
      "बादी": 7137,
      "deleg": 7138,
      "ल्या": 7139,
      "2022": 7140,
      "condem": 7141,
      "्टर": 7142,
      "धिकारी": 7143,
      "पुल": 7144,
      "रहें": 7145,
      "sharing": 7146,
      "apati": 7147,
      "शाही": 7148,
      "शाली": 7149,
      "overty": 7150,
      "मंत्रि": 7151,
      "essential": 7152,
      "म्भ": 7153,
      "ends": 7154,
      "endment": 7155,
      "वर्सिटी": 7156,
      "खाली": 7157,
      "परिस्थिति": 7158,
      "च्ची": 7159,
      "print": 7160,
      "चारों": 7161,
      "बिनेट": 7162,
      "खिए": 7163,
      "itions": 7164,
      "प्राचीन": 7165,
      "कैबिनेट": 7166,
      "branch": 7167,
      "provision": 7168,
      "provisions": 7169,
      "खिलाड़ियों": 7170,
      "इंजन": 7171,
      "अवै": 7172,
      "डेटा": 7173,
      "Arvind": 7174,
      "गोवा": 7175,
      "score": 7176,
      "anniversary": 7177,
      "इंडी": 7178,
      "सर्वे": 7179,
      "Governments": 7180,
      "produce": 7181,
      "बनने": 7182,
      "लोकतंत्र": 7183,
      "यतों": 7184,
      "Management": 7185,
      "लॉजी": 7186,
      "परामर्श": 7187,
      "महासचिव": 7188,
      "तुम्हारी": 7189,
      "लंबे": 7190,
      "Boss": 7191,
      "despite": 7192,
      "organis": 7193,
      "goods": 7194,
      "पदार्थ": 7195,
      "अमरी": 7196,
      "valid": 7197,
      "पटना": 7198,
      "truck": 7199,
      "Covid": 7200,
      "remember": 7201,
      "संघर्ष": 7202,
      "trains": 7203,
      "remaining": 7204,
      "little": 7205,
      "न्यूजीलैंड": 7206,
      "keeping": 7207,
      "judicial": 7208,
      "सेंसर": 7209,
      "Among": 7210,
      "victory": 7211,
      "अहमद": 7212,
      "responsible": 7213,
      "श्रेणी": 7214,
      "bigg": 7215,
      "strength": 7216,
      "विद्यार्थियों": 7217,
      "phase": 7218,
      "पर्याप्त": 7219,
      "arrived": 7220,
      "गुणव": 7221,
      "labor": 7222,
      "Region": 7223,
      "संक्रमण": 7224,
      "alliance": 7225,
      "Urban": 7226,
      "आखिर": 7227,
      "इकाई": 7228,
      "features": 7229,
      "इस्लाम": 7230,
      "supply": 7231,
      "agreement": 7232,
      "नेहरू": 7233,
      "बिल्कुल": 7234,
      "विद्यालयों": 7235,
      "निशाना": 7236,
      "स्क्रीन": 7237,
      "मनुष्य": 7238,
      "कनाडा": 7239,
      "मशीन": 7240,
      "tournament": 7241,
      "platform": 7242,
      "शुक्रवार": 7243,
      "Gupta": 7244,
      "भंडार": 7245,
      "बेहतरीन": 7246,
      "सांस्कृतिक": 7247,
      "',": 7248,
      ")।": 7249,
      "Car": 7250,
      "City": 7251,
      "Em": 7252,
      "Have": 7253,
      "La": 7254,
      "Lad": 7255,
      "MD": 7256,
      "Post": 7257,
      "UK": 7258,
      "War": 7259,
      "dates": 7260,
      "digital": 7261,
      "eth": 7262,
      "fans": 7263,
      "mig": 7264,
      "mart": 7265,
      "pit": 7266,
      "scient": 7267,
      "u200": 7268,
      "अध्या": 7269,
      "अतः": 7270,
      "आग्रह": 7271,
      "ईरान": 7272,
      "कमि": 7273,
      "चक्र": 7274,
      "ड्ड": 7275,
      "तट": 7276,
      "नु": 7277,
      "नही": 7278,
      "पहा": 7279,
      "पड़ी": 7280,
      "भौ": 7281,
      "भरा": 7282,
      "यंस": 7283,
      "वली": 7284,
      "वक्‍त": 7285,
      "हफ्": 7286,
      "हथि": 7287,
      "ौती": 7288,
      "innov": 7289,
      "reward": 7290,
      "referred": 7291,
      "arrange": 7292,
      "touch": 7293,
      "किन्तु": 7294,
      "iture": 7295,
      "स्म": 7296,
      "प्रण": 7297,
      "प्रश्": 7298,
      "परिक": 7299,
      "लिस्ट": 7300,
      "वादियों": 7301,
      "लेना": 7302,
      "vell": 7303,
      "साधारण": 7304,
      "निशान": 7305,
      "chann": 7306,
      "सीबी": 7307,
      "reserv": 7308,
      "depart": 7309,
      "demon": 7310,
      "utions": 7311,
      "जिंग": 7312,
      "comment": 7313,
      "waste": 7314,
      "द्दा": 7315,
      "estim": 7316,
      "हमंत्र": 7317,
      "शाला": 7318,
      "note": 7319,
      "राजपू": 7320,
      "रेखा": 7321,
      "exc": 7322,
      "शिखर": 7323,
      "indra": 7324,
      "सकों": 7325,
      "ंचे": 7326,
      "Three": 7327,
      "इनके": 7328,
      "चिद": 7329,
      "count": 7330,
      "बनाम": 7331,
      "ashed": 7332,
      "टाई": 7333,
      "महत्": 7334,
      "दुल": 7335,
      "पेट": 7336,
      "बताते": 7337,
      "bless": 7338,
      "बढ़े": 7339,
      "बढ़ने": 7340,
      "prevent": 7341,
      "जैन": 7342,
      "internal": 7343,
      "जुड़ी": 7344,
      "पैरा": 7345,
      "स्थायी": 7346,
      "addition": 7347,
      "संबंधों": 7348,
      "Real": 7349,
      "ंगाना": 7350,
      "developing": 7351,
      "maintain": 7352,
      "Energy": 7353,
      "ordered": 7354,
      "ficient": 7355,
      "व्यक्तिगत": 7356,
      "फेसबुक": 7357,
      "छोटी": 7358,
      "स्टेशन": 7359,
      "continues": 7360,
      "apply": 7361,
      "stock": 7362,
      "sectors": 7363,
      "attacks": 7364,
      "भाषाओं": 7365,
      "villages": 7366,
      "गृहमंत्र": 7367,
      "accounts": 7368,
      "appeared": 7369,
      "educ": 7370,
      "चोट": 7371,
      "शहरों": 7372,
      "hearts": 7373,
      "refused": 7374,
      "मण्ड": 7375,
      "household": 7376,
      "शंका": 7377,
      "उपाय": 7378,
      "certainly": 7379,
      "तेलंगाना": 7380,
      "Addressing": 7381,
      "संस्थानों": 7382,
      "Redmi": 7383,
      "rules": 7384,
      "AAP": 7385,
      "आईपीएल": 7386,
      "फ़िल्म": 7387,
      "विश्‍व": 7388,
      "विश्‍वास": 7389,
      "शूटिंग": 7390,
      "गेंदबाज": 7391,
      "संक्रमित": 7392,
      "ट्रांस": 7393,
      "Telangana": 7394,
      "लड़ाई": 7395,
      "smartphone": 7396,
      "Foreign": 7397,
      "Women": 7398,
      "कब्जे": 7399,
      "College": 7400,
      "craft": 7401,
      "Sunday": 7402,
      "Chairman": 7403,
      "शहीद": 7404,
      "मुकदमा": 7405,
      "शुभकामनाएं": 7406,
      "Prasad": 7407,
      "Akshay": 7408,
      "false": 7409,
      "prepared": 7410,
      "Facebook": 7411,
      "59": 7412,
      "83": 7413,
      "97": 7414,
      "AL": 7415,
      "AP": 7416,
      "Ajay": 7417,
      "Gir": 7418,
      "ICC": 7419,
      "NT": 7420,
      "Nations": 7421,
      "Op": 7422,
      "Pan": 7423,
      "Rak": 7424,
      "Sever": 7425,
      "Ve": 7426,
      "Val": 7427,
      "Your": 7428,
      "York": 7429,
      "blood": 7430,
      "cue": 7431,
      "dial": 7432,
      "dance": 7433,
      "equal": 7434,
      "fan": 7435,
      "mill": 7436,
      "nature": 7437,
      "numbers": 7438,
      "pand": 7439,
      "ply": 7440,
      "pow": 7441,
      "rang": 7442,
      "sof": 7443,
      "sound": 7444,
      "va": 7445,
      "अब्": 7446,
      "अजय": 7447,
      "अशोक": 7448,
      "आयुक्त": 7449,
      "इमार": 7450,
      "धनों": 7451,
      "पत": 7452,
      "मश": 7453,
      "मता": 7454,
      "मनी": 7455,
      "शय": 7456,
      "सख्त": 7457,
      "ौल": 7458,
      "ero": 7459,
      "thee": 7460,
      "theast": 7461,
      "कें": 7462,
      "environment": 7463,
      "asp": 7464,
      "ases": 7465,
      "assured": 7466,
      "कांक": 7467,
      "काबू": 7468,
      "कितना": 7469,
      "कोट": 7470,
      "स्कू": 7471,
      "स्कोर": 7472,
      "icide": 7473,
      "प्रत्या": 7474,
      "rog": 7475,
      "्यु": 7476,
      "विन": 7477,
      "विवे": 7478,
      "sets": 7479,
      "sell": 7480,
      "निकों": 7481,
      "ches": 7482,
      "देन": 7483,
      "होम": 7484,
      "iment": 7485,
      "संके": 7486,
      "सीएस": 7487,
      "सीजन": 7488,
      "सीमित": 7489,
      "पावर": 7490,
      "गामी": 7491,
      "ल्ला": 7492,
      "constitution": 7493,
      "रिजल्": 7494,
      "समृ": 7495,
      "सिया": 7496,
      "सिखा": 7497,
      "aining": 7498,
      "पुत्र": 7499,
      "shan": 7500,
      "सरल": 7501,
      "सुशांत": 7502,
      "जोखि": 7503,
      "रेश": 7504,
      "rather": 7505,
      "तोष": 7506,
      "weak": 7507,
      "moving": 7508,
      "iving": 7509,
      "प्ति": 7510,
      "Pran": 7511,
      "ously": 7512,
      "Chhatt": 7513,
      "निर्माता": 7514,
      "prising": 7515,
      "उपभो": 7516,
      "रूपये": 7517,
      "योगी": 7518,
      "सब्": 7519,
      "गुप्ता": 7520,
      "कार्यकर्ताओं": 7521,
      "सोने": 7522,
      "सोनिया": 7523,
      "कैप्ट": 7524,
      "boost": 7525,
      "तुमसे": 7526,
      "elected": 7527,
      "monitor": 7528,
      "डेवि": 7529,
      "चलता": 7530,
      "Soci": 7531,
      "News": 7532,
      "जिनका": 7533,
      "भेद": 7534,
      "भेजे": 7535,
      "स्वामी": 7536,
      "Adity": 7537,
      "क़ा": 7538,
      "throughout": 7539,
      "Project": 7540,
      "strate": 7541,
      "जलवायु": 7542,
      "believed": 7543,
      "posted": 7544,
      "corpor": 7545,
      "केंद्रित": 7546,
      "ज्यादातर": 7547,
      "दिखाया": 7548,
      "injuries": 7549,
      "कार्यक्रमों": 7550,
      "उठाने": 7551,
      "ट्रेनिंग": 7552,
      "सौं": 7553,
      "facing": 7554,
      "Bhatt": 7555,
      "communication": 7556,
      "शाहरुख": 7557,
      "मृत": 7558,
      "वाहनों": 7559,
      "ज्ञापन": 7560,
      "समुद्र": 7561,
      "opened": 7562,
      "अरविंद": 7563,
      "फ्रंट": 7564,
      "फ्रेंस": 7565,
      "लाइट": 7566,
      "बच्चन": 7567,
      "एक्ट्रेस": 7568,
      "मणि": 7569,
      "Speaking": 7570,
      "संस्करण": 7571,
      "बराबर": 7572,
      "rains": 7573,
      "संरचना": 7574,
      "honour": 7575,
      "offered": 7576,
      "initiative": 7577,
      "lockdown": 7578,
      "यूनिवर्सिटी": 7579,
      "जिम्मेदार": 7580,
      "हाईकोर्ट": 7581,
      "मुकाबला": 7582,
      "specific": 7583,
      "हिंदु": 7584,
      "कारोबारी": 7585,
      "vehicle": 7586,
      "journal": 7587,
      "latest": 7588,
      "sensor": 7589,
      "दृष्टिकोण": 7590,
      "selected": 7591,
      "डॉक्टरों": 7592,
      "उत्तराखंड": 7593,
      "window": 7594,
      "soldiers": 7595,
      "संचालन": 7596,
      "Sushant": 7597,
      "category": 7598,
      "batsman": 7599,
      "credit": 7600,
      "origin": 7601,
      "साहित्य": 7602,
      "felt": 7603,
      "graph": 7604,
      "Paul": 7605,
      "agriculture": 7606,
      "सीईओ": 7607,
      "quoted": 7608,
      "प्राधिकरण": 7609,
      "प्रतियोगिता": 7610,
      "अक्षय": 7611,
      "Sinha": 7612,
      "वेरिएंट": 7613,
      "Wednes": 7614,
      "जमानत": 7615,
      "Bachchan": 7616,
      "राजपूत": 7617,
      "गृहमंत्री": 7618,
      "मण्डल": 7619,
      "Several": 7620,
      "Chhattisgarh": 7621,
      "06": 7622,
      "53": 7623,
      "73": 7624,
      "Nep": 7625,
      "Over": 7626,
      "Oly": 7627,
      "Pand": 7628,
      "Pra": 7629,
      "SR": 7630,
      "Vid": 7631,
      "base": 7632,
      "ee": 7633,
      "eyes": 7634,
      "greg": 7635,
      "hor": 7636,
      "hir": 7637,
      "nic": 7638,
      "natural": 7639,
      "pa": 7640,
      "sid": 7641,
      "smo": 7642,
      "size": 7643,
      "ua": 7644,
      "uf": 7645,
      "uter": 7646,
      "आकार": 7647,
      "आंद": 7648,
      "आधु": 7649,
      "आत्मा": 7650,
      "आशंका": 7651,
      "ईडी": 7652,
      "कन": 7653,
      "कक्ष": 7654,
      "खण्ड": 7655,
      "जर्म": 7656,
      "थ्य": 7657,
      "दस्त": 7658,
      "धवन": 7659,
      "बंदी": 7660,
      "मय": 7661,
      "यॉ": 7662,
      "यौ": 7663,
      "रहो": 7664,
      "रद्द": 7665,
      "लख": 7666,
      "वानी": 7667,
      "व्‍या": 7668,
      "शौ": 7669,
      "सक्षम": 7670,
      "हस्त": 7671,
      "ूत": 7672,
      "ेक्षा": 7673,
      "ोर": 7674,
      "‍म": 7675,
      "insur": 7676,
      "ेंज": 7677,
      "assa": 7678,
      "कीम": 7679,
      "किट": 7680,
      "किरा": 7681,
      "स्फो": 7682,
      "stone": 7683,
      "प्रार्थ": 7684,
      "rock": 7685,
      "rovers": 7686,
      "विटी": 7687,
      "विविध": 7688,
      "लाना": 7689,
      "ida": 7690,
      "idam": 7691,
      "लेश": 7692,
      "sections": 7693,
      "साब": 7694,
      "सालों": 7695,
      "ford": 7696,
      "नितिन": 7697,
      "territ": 7698,
      "मालिक": 7699,
      "hab": 7700,
      "hav": 7701,
      "image": 7702,
      "संदेह": 7703,
      "depos": 7704,
      "एकजुट": 7705,
      "मिश": 7706,
      "agencies": 7707,
      "concl": 7708,
      "akes": 7709,
      "union": 7710,
      "univers": 7711,
      "compl": 7712,
      "shown": 7713,
      "शाखा": 7714,
      "पूछा": 7715,
      "मेहन": 7716,
      "mode": 7717,
      "क्रू": 7718,
      "मानते": 7719,
      "आईएम": 7720,
      "cash": 7721,
      "kept": 7722,
      "चुन": 7723,
      "जनक": 7724,
      "आपका": 7725,
      "proud": 7726,
      "पिंग": 7727,
      "events": 7728,
      "दूसरों": 7729,
      "एमसी": 7730,
      "assessment": 7731,
      "ष्का": 7732,
      "प्राकृतिक": 7733,
      "स्‍त": 7734,
      "कर्ज": 7735,
      "Whats": 7736,
      "controvers": 7737,
      "भूषण": 7738,
      "तुमको": 7739,
      "फाई": 7740,
      "fulfill": 7741,
      "स्वस्थ": 7742,
      "धन्यवाद": 7743,
      "mercy": 7744,
      "चुनावों": 7745,
      "लाखों": 7746,
      "needed": 7747,
      "पहुंचने": 7748,
      "Manmohan": 7749,
      "capt": 7750,
      "calls": 7751,
      ",\"\"\"\"": 7752,
      "लंबित": 7753,
      "विधायकों": 7754,
      "Book": 7755,
      "venue": 7756,
      "बॉल": 7757,
      "organized": 7758,
      "सचिन": 7759,
      "covered": 7760,
      "अल्प": 7761,
      "views": 7762,
      "उत्पादों": 7763,
      "उठाए": 7764,
      "extreme": 7765,
      "facilit": 7766,
      "भगवान": 7767,
      "foundation": 7768,
      "signs": 7769,
      "remains": 7770,
      "Kovind": 7771,
      "letter": 7772,
      "healthy": 7773,
      "viral": 7774,
      "फ्रें": 7775,
      "industrial": 7776,
      "levels": 7777,
      "charged": 7778,
      "MLAs": 7779,
      "दौरे": 7780,
      "collection": 7781,
      "allegedly": 7782,
      "celebrated": 7783,
      "चिकित्": 7784,
      "equip": 7785,
      "modern": 7786,
      "pictures": 7787,
      "Organ": 7788,
      "critical": 7789,
      "प्‍त": 7790,
      "particularly": 7791,
      "satis": 7792,
      "continued": 7793,
      "sequently": 7794,
      "डायरे": 7795,
      "उद्यम": 7796,
      "Industry": 7797,
      "relief": 7798,
      "तकनीकी": 7799,
      "व्हा": 7800,
      "scheduled": 7801,
      "ceremony": 7802,
      "deceased": 7803,
      "छत्तीसगढ़": 7804,
      "वसायिक": 7805,
      "cricketer": 7806,
      "Authority": 7807,
      "इंडीज": 7808,
      "गुणवत्ता": 7809,
      "हथियार": 7810,
      "Wednesday": 7811,
      "Olymp": 7812,
      "आंदो": 7813,
      "प्रार्थना": 7814,
      "01": 7815,
      "600": 7816,
      "93": 7817,
      "Aam": 7818,
      "Bad": 7819,
      "Gal": 7820,
      "Gang": 7821,
      "Mis": 7822,
      "Now": 7823,
      "Ref": 7824,
      "Sto": 7825,
      "Since": 7826,
      "da": 7827,
      "die": 7828,
      "drug": 7829,
      "hat": 7830,
      "ju": 7831,
      "kur": 7832,
      "lines": 7833,
      "pick": 7834,
      "rat": 7835,
      "ras": 7836,
      "rant": 7837,
      "skill": 7838,
      "अकाउंट": 7839,
      "आपरा": 7840,
      "आसमान": 7841,
      "एटी": 7842,
      "कक्षा": 7843,
      "चलाने": 7844,
      "झट": 7845,
      "डें": 7846,
      "तत्व": 7847,
      "तलब": 7848,
      "धर्": 7849,
      "पशु": 7850,
      "फसल": 7851,
      "बई": 7852,
      "बान": 7853,
      "बला": 7854,
      "रं": 7855,
      "रचना": 7856,
      "शरण": 7857,
      "हर्ष": 7858,
      "anath": 7859,
      "rect": 7860,
      "aste": 7861,
      "कीजिए": 7862,
      "काद": 7863,
      "सेज": 7864,
      "नाश": 7865,
      "क्कर": 7866,
      "प्रदू": 7867,
      "प्रकृति": 7868,
      "ानों": 7869,
      "परो": 7870,
      "विफल": 7871,
      "राजीव": 7872,
      "राष्‍ट्र": 7873,
      "omet": 7874,
      "तिथि": 7875,
      "इसने": 7876,
      "देती": 7877,
      "संग्रह": 7878,
      "सील": 7879,
      "सीधे": 7880,
      "deploy": 7881,
      "determin": 7882,
      "usive": 7883,
      "unit": 7884,
      "opin": 7885,
      "opposition": 7886,
      "accord": 7887,
      "रियर": 7888,
      "सिर": 7889,
      "suit": 7890,
      "shif": 7891,
      "appoint": 7892,
      "neg": 7893,
      "राजस्व": 7894,
      "रेड": 7895,
      "रोल": 7896,
      "रोह": 7897,
      "स्टॉ": 7898,
      "performed": 7899,
      "Head": 7900,
      "खाता": 7901,
      "अधिकां": 7902,
      "fee": 7903,
      "disput": 7904,
      "ियाँ": 7905,
      "टेक": 7906,
      "आपसी": 7907,
      "शुद्ध": 7908,
      "युक्‍त": 7909,
      "बनाकर": 7910,
      "मौका": 7911,
      "डिट": 7912,
      "डियम": 7913,
      "जाएं": 7914,
      "उत्तरी": 7915,
      "athers": 7916,
      "ankar": 7917,
      "commer": 7918,
      "Asian": 7919,
      "eshwar": 7920,
      "ellite": 7921,
      "izing": 7922,
      "herjee": 7923,
      "Where": 7924,
      "attend": 7925,
      "firm": 7926,
      "इंस": 7927,
      "इंस्टा": 7928,
      "जुर्": 7929,
      "Commun": 7930,
      "देखकर": 7931,
      "cert": 7932,
      "ंकिंग": 7933,
      "गठित": 7934,
      "मार्क": 7935,
      "meetings": 7936,
      "एफसी": 7937,
      "नोटिस": 7938,
      "flag": 7939,
      "क्‍स": 7940,
      "सैनिकों": 7941,
      "संख्य": 7942,
      "consult": 7943,
      "Park": 7944,
      "organisation": 7945,
      "मांगी": 7946,
      "Pune": 7947,
      "sitting": 7948,
      "limit": 7949,
      "ब्रह्": 7950,
      "importance": 7951,
      "Code": 7952,
      "shows": 7953,
      "inside": 7954,
      "cycl": 7955,
      "Malik": 7956,
      "receive": 7957,
      "signed": 7958,
      "लड़की": 7959,
      "discuss": 7960,
      "Janata": 7961,
      "न्यायिक": 7962,
      "terrorists": 7963,
      "IPC": 7964,
      "questions": 7965,
      "benefici": 7966,
      "judge": 7967,
      "बहस": 7968,
      "refle": 7969,
      "हाथों": 7970,
      "दिवसीय": 7971,
      "आतंकवादी": 7972,
      "policies": 7973,
      "regional": 7974,
      "participated": 7975,
      "authority": 7976,
      "turned": 7977,
      "जरिये": 7978,
      "defence": 7979,
      "उन्हीं": 7980,
      "reduced": 7981,
      "welfare": 7982,
      "tourism": 7983,
      "promote": 7984,
      "Canada": 7985,
      "labour": 7986,
      "कारात्मक": 7987,
      "युवक": 7988,
      "गुरुवार": 7989,
      "जायेगा": 7990,
      "individuals": 7991,
      "administration": 7992,
      "प्रदर्शित": 7993,
      "awareness": 7994,
      "अगुवाई": 7995,
      "कोयला": 7996,
      "पेंशन": 7997,
      "introduced": 7998,
      "islative": 7999,
      "Similar": 8000,
      "music": 8001,
      "खतरे": 8002,
      "मेगापिक्सल": 8003,
      "सच्चाई": 8004,
      "JNU": 8005,
      "सूचकांक": 8006,
      "Limited": 8007,
      "organisations": 8008,
      "आपराधिक": 8009,
      "अधिकांश": 8010,
      "6GB": 8011,
      "95": 8012,
      "98": 8013,
      "BA": 8014,
      "Bus": 8015,
      "Cons": 8016,
      "HO": 8017,
      "Hon": 8018,
      "Hum": 8019,
      "Jaw": 8020,
      "Kat": 8021,
      "OS": 8022,
      "Out": 8023,
      "Other": 8024,
      "Sil": 8025,
      "Ti": 8026,
      "Tom": 8027,
      "Tur": 8028,
      "Tues": 8029,
      "Vis": 8030,
      "Vik": 8031,
      "Yes": 8032,
      "average": 8033,
      "billion": 8034,
      "cop": 8035,
      "cant": 8036,
      "core": 8037,
      "east": 8038,
      "fit": 8039,
      "fig": 8040,
      "fish": 8041,
      "fresh": 8042,
      "gap": 8043,
      "gra": 8044,
      "ni": 8045,
      "nar": 8046,
      "none": 8047,
      "sides": 8048,
      "sung": 8049,
      "science": 8050,
      "var": 8051,
      "vice": 8052,
      "vant": 8053,
      "yal": 8054,
      "अस": 8055,
      "आलो": 8056,
      "आकर्": 8057,
      "उड़": 8058,
      "ऊँ": 8059,
      "ऊंचा": 8060,
      "जला": 8061,
      "थियों": 8062,
      "पों": 8063,
      "मले": 8064,
      "यंत्र": 8065,
      "रहम": 8066,
      "लंदन": 8067,
      "शराब": 8068,
      "सफर": 8069,
      "ूबर": 8070,
      "thr": 8071,
      "institution": 8072,
      "ancient": 8073,
      "onom": 8074,
      "atma": 8075,
      "ises": 8076,
      "orge": 8077,
      "army": 8078,
      "aspect": 8079,
      "किमी": 8080,
      "ताकत": 8081,
      "नाइ": 8082,
      "विदा": 8083,
      "वाण": 8084,
      "bear": 8085,
      "जाया": 8086,
      "इस्रा": 8087,
      "vert": 8088,
      "भीड़": 8089,
      "संकट": 8090,
      "resources": 8091,
      "पालिका": 8092,
      "मिसाल": 8093,
      "consu": 8094,
      "constant": 8095,
      "Indies": 8096,
      "सिक्": 8097,
      "suicide": 8098,
      "save": 8099,
      "पुरी": 8100,
      "वारा": 8101,
      "जोड़ी": 8102,
      "raf": 8103,
      "wealth": 8104,
      "indic": 8105,
      "वर्गी": 8106,
      "वर्ल्ड": 8107,
      "दोबारा": 8108,
      "female": 8109,
      "ज़ार": 8110,
      "परिचा": 8111,
      "avoid": 8112,
      "एससी": 8113,
      "मिलते": 8114,
      "आपने": 8115,
      "Chidam": 8116,
      "अनुष्का": 8117,
      "creation": 8118,
      "ishra": 8119,
      "बैंड": 8120,
      "ibilities": 8121,
      "Star": 8122,
      "takes": 8123,
      "कार्यवाही": 8124,
      "pressure": 8125,
      "goes": 8126,
      "कैं": 8127,
      "बढ़ोतरी": 8128,
      "कर्मी": 8129,
      "poses": 8130,
      "preh": 8131,
      "prene": 8132,
      "prepar": 8133,
      "content": 8134,
      "ensions": 8135,
      "ट्रि": 8136,
      "फिल्‍म": 8137,
      "एंटी": 8138,
      "miss": 8139,
      "जुन": 8140,
      "पैसा": 8141,
      "ogue": 8142,
      "Comp": 8143,
      "Command": 8144,
      "प्रदेशों": 8145,
      "पर्व": 8146,
      "कॉर्": 8147,
      "मनमोहन": 8148,
      "Moses": 8149,
      "occup": 8150,
      "relations": 8151,
      "न्‍द": 8152,
      "Social": 8153,
      "matters": 8154,
      "वैसे": 8155,
      "Therefore": 8156,
      "नीतियों": 8157,
      "condol": 8158,
      "ships": 8159,
      "submitted": 8160,
      "समझने": 8161,
      "ushka": 8162,
      "External": 8163,
      "सैनिक": 8164,
      "stands": 8165,
      "प्रोफे": 8166,
      "posts": 8167,
      "running": 8168,
      "variant": 8169,
      "limited": 8170,
      "निश्चय": 8171,
      "सौंप": 8172,
      "faced": 8173,
      "प्रदर्शनकारियों": 8174,
      "आयात": 8175,
      "सहयोगी": 8176,
      "लेखक": 8177,
      "ंबरम": 8178,
      "winning": 8179,
      "मान्यता": 8180,
      "आदित्य": 8181,
      "leadership": 8182,
      "महीनों": 8183,
      "चैं": 8184,
      "इंटरनेट": 8185,
      "इंटरनेशनल": 8186,
      "celled": 8187,
      "greater": 8188,
      "girls": 8189,
      "Sonia": 8190,
      "Earth": 8191,
      "associated": 8192,
      "approval": 8193,
      "battery": 8194,
      "Space": 8195,
      "मसीह": 8196,
      "Officer": 8197,
      "circum": 8198,
      "निरंतर": 8199,
      "वस्तुओं": 8200,
      "completely": 8201,
      "carrying": 8202,
      "Nitin": 8203,
      "transa": 8204,
      "Mukherjee": 8205,
      "options": 8206,
      "Mohammad": 8207,
      "Korea": 8208,
      "Brah": 8209,
      "Transport": 8210,
      "इंतजार": 8211,
      "punish": 8212,
      "चार्ज": 8213,
      "proposal": 8214,
      "rupees": 8215,
      "गतिविधियों": 8216,
      "Corporation": 8217,
      "Dhawan": 8218,
      "Russia": 8219,
      "इंजीनिय": 8220,
      "महानिदेशक": 8221,
      "किरदार": 8222,
      "chairman": 8223,
      "scored": 8224,
      "spokesperson": 8225,
      "निम्नलिखित": 8226,
      "मुश्किल": 8227,
      "method": 8228,
      "suspended": 8229,
      "mountain": 8230,
      "Welfare": 8231,
      "अवैध": 8232,
      "चिदंबरम": 8233,
      "कैप्टन": 8234,
      "Society": 8235,
      "आंदोलन": 8236,
      "Tuesday": 8237,
      "07": 8238,
      "81": 8239,
      "?\"\"\"": 8240,
      "Baj": 8241,
      "Cur": 8242,
      "Cour": 8243,
      "ES": 8244,
      "Famil": 8245,
      "Ga": 8246,
      "Jon": 8247,
      "Mot": 8248,
      "Mishra": 8249,
      "Photo": 8250,
      "bom": 8251,
      "bra": 8252,
      "burn": 8253,
      "broad": 8254,
      "danger": 8255,
      "fle": 8256,
      "ny": 8257,
      "pm": 8258,
      "rank": 8259,
      "ume": 8260,
      "ंसी": 8261,
      "अके": 8262,
      "अमिता": 8263,
      "आलिया": 8264,
      "आपात": 8265,
      "आबादी": 8266,
      "उठ": 8267,
      "एह": 8268,
      "कश": 8269,
      "गड": 8270,
      "चने": 8271,
      "जंग": 8272,
      "ण्": 8273,
      "तभी": 8274,
      "तव्य": 8275,
      "तथ्य": 8276,
      "थर": 8277,
      "दली": 8278,
      "ध्‍": 8279,
      "बम": 8280,
      "मज": 8281,
      "व्र": 8282,
      "शनिवार": 8283,
      "्म": 8284,
      "ini": 8285,
      "erve": 8286,
      "enough": 8287,
      "नेस": 8288,
      "कानों": 8289,
      "कायम": 8290,
      "सेव": 8291,
      "iter": 8292,
      "stra": 8293,
      "heat": 8294,
      "hear": 8295,
      "प्रती": 8296,
      "विंड": 8297,
      "विभि": 8298,
      "विमर्श": 8299,
      "लास": 8300,
      "bel": 8301,
      "beaut": 8302,
      "sea": 8303,
      "ams": 8304,
      "निदेश": 8305,
      "chaired": 8306,
      "न्हा": 8307,
      "urch": 8308,
      "संगीत": 8309,
      "tray": 8310,
      "मिथ": 8311,
      "मिया": 8312,
      "agreed": 8313,
      "igence": 8314,
      "usually": 8315,
      "confl": 8316,
      "abled": 8317,
      "proceed": 8318,
      "जिद": 8319,
      "hash": 8320,
      "हिसाब": 8321,
      "वेट": 8322,
      "मीट्रिक": 8323,
      "रेशन": 8324,
      "बीमार": 8325,
      "रोज": 8326,
      "explain": 8327,
      "inish": 8328,
      "weight": 8329,
      "mankind": 8330,
      "मोर्": 8331,
      "actually": 8332,
      "निर्मित": 8333,
      "दर्शी": 8334,
      "सूर्य": 8335,
      "बनाना": 8336,
      "जेएन": 8337,
      "खिताब": 8338,
      "बैटरी": 8339,
      "ब्लै": 8340,
      "ब्लू": 8341,
      "coach": 8342,
      "बढ़त": 8343,
      "सदन": 8344,
      "तुमने": 8345,
      "compens": 8346,
      "forest": 8347,
      "ogle": 8348,
      "Anand": 8349,
      "Anushka": 8350,
      "देखभाल": 8351,
      "2006": 8352,
      "खेलों": 8353,
      "knows": 8354,
      "हेक्": 8355,
      "क्रमश": 8356,
      "धीरे": 8357,
      "Mohan": 8358,
      "नामक": 8359,
      "type": 8360,
      "temper": 8361,
      "बदलने": 8362,
      "shares": 8363,
      "strateg": 8364,
      "आएगा": 8365,
      "महात्मा": 8366,
      "रामनाथ": 8367,
      "helped": 8368,
      "जगहों": 8369,
      "अमर": 8370,
      "कानूनों": 8371,
      "politic": 8372,
      "खेलने": 8373,
      "Google": 8374,
      "sense": 8375,
      "growing": 8376,
      "Office": 8377,
      "penditure": 8378,
      "त्‍व": 8379,
      "समूहों": 8380,
      "ष्ट्रपति": 8381,
      "appeal": 8382,
      "कटौती": 8383,
      "कोविंद": 8384,
      "छोड़कर": 8385,
      "addressed": 8386,
      "denied": 8387,
      "उपाध्यक्ष": 8388,
      "companied": 8389,
      "bringing": 8390,
      "पॉलि": 8391,
      "ढांचे": 8392,
      "यूनियन": 8393,
      "समस्याओं": 8394,
      "धोखा": 8395,
      "रॉय": 8396,
      "recorded": 8397,
      "constructed": 8398,
      "Ranbir": 8399,
      "practice": 8400,
      "मसीही": 8401,
      "64GB": 8402,
      "drink": 8403,
      "prison": 8404,
      "Kingdom": 8405,
      "मिनट": 8406,
      "आइए": 8407,
      "नरेन्द्र": 8408,
      "पीड़ित": 8409,
      "Captain": 8410,
      "Judge": 8411,
      "तापमान": 8412,
      "Muham": 8413,
      "title": 8414,
      "ठोस": 8415,
      "वेदना": 8416,
      "Yogi": 8417,
      "install": 8418,
      "प्रारंभिक": 8419,
      "homes": 8420,
      "beyond": 8421,
      "उपराष्ट्रपति": 8422,
      "congratulated": 8423,
      "France": 8424,
      "Film": 8425,
      "Germany": 8426,
      "दस्तावेज": 8427,
      "कठिन": 8428,
      "स्पर्धा": 8429,
      "purchase": 8430,
      "टेक्नो": 8431,
      "exercise": 8432,
      "couple": 8433,
      "mechanism": 8434,
      "मंगलवार": 8435,
      "sacri": 8436,
      "u200d": 8437,
      "estimated": 8438,
      "जर्मनी": 8439,
      "Business": 8440,
      "Chidambar": 8441,
      "अमिताभ": 8442,
      "beautiful": 8443,
      "Bu": 8444,
      "Bel": 8445,
      "Econom": 8446,
      "Gen": 8447,
      "Gas": 8448,
      "Lanka": 8449,
      "Ms": 8450,
      "Odis": 8451,
      "Pul": 8452,
      "Sad": 8453,
      "Say": 8454,
      "SBI": 8455,
      "TC": 8456,
      "TH": 8457,
      "besides": 8458,
      "fol": 8459,
      "figh": 8460,
      "fathers": 8461,
      "gun": 8462,
      "gri": 8463,
      "gree": 8464,
      "kit": 8465,
      "lal": 8466,
      "lack": 8467,
      "mical": 8468,
      "nap": 8469,
      "nav": 8470,
      "nations": 8471,
      "pul": 8472,
      "pts": 8473,
      "source": 8474,
      "via": 8475,
      "wing": 8476,
      "ying": 8477,
      "अश्": 8478,
      "आवा": 8479,
      "आदान": 8480,
      "कब": 8481,
      "गंगा": 8482,
      "जत": 8483,
      "डै": 8484,
      "नऊ": 8485,
      "पदों": 8486,
      "बड़ा": 8487,
      "यण": 8488,
      "यस": 8489,
      "यर्स": 8490,
      "सश": 8491,
      "हृ": 8492,
      "हरि": 8493,
      "ाई": 8494,
      "िन": 8495,
      "ज़ि": 8496,
      "thy": 8497,
      "throw": 8498,
      "initial": 8499,
      "नेमा": 8500,
      "ality": 8501,
      "asi": 8502,
      "astern": 8503,
      "कीन": 8504,
      "किलोग": 8505,
      "ites": 8506,
      "ented": 8507,
      "hect": 8508,
      "प्रद": 8509,
      "प्रभार": 8510,
      "वासन": 8511,
      "ador": 8512,
      "रास्ते": 8513,
      "becomes": 8514,
      "निश": 8515,
      "निधि": 8516,
      "haps": 8517,
      "impress": 8518,
      "संवेदना": 8519,
      "बाप": 8520,
      "बाला": 8521,
      "क्षति": 8522,
      "otal": 8523,
      "traf": 8524,
      "tried": 8525,
      "white": 8526,
      "defe": 8527,
      "deput": 8528,
      "गाय": 8529,
      "agers": 8530,
      "त्न": 8531,
      "मुफ्": 8532,
      "proc": 8533,
      "ules": 8534,
      "Indeed": 8535,
      "acad": 8536,
      "दाखिल": 8537,
      "पुणे": 8538,
      "overs": 8539,
      "हिता": 8540,
      "हियों": 8541,
      "पीय": 8542,
      "plans": 8543,
      "राजमार्ग": 8544,
      "जोड़": 8545,
      "जोड़ा": 8546,
      "बीन": 8547,
      "रोमा": 8548,
      "iff": 8549,
      "ardhan": 8550,
      "खाना": 8551,
      "ahar": 8552,
      "clar": 8553,
      "प्स": 8554,
      "एसो": 8555,
      "earn": 8556,
      "टेयर": 8557,
      "acted": 8558,
      "actors": 8559,
      "बेस": 8560,
      "चारिक": 8561,
      "iple": 8562,
      "सूरत": 8563,
      "डीएम": 8564,
      "जाएँ": 8565,
      "कार्यकाल": 8566,
      "श्रीमती": 8567,
      "स्‍ट": 8568,
      "मूल्या": 8569,
      "डाटा": 8570,
      "कर्तव्य": 8571,
      "लगाई": 8572,
      "125": 8573,
      "कमल": 8574,
      "कमजोर": 8575,
      "्‍यों": 8576,
      "बुल": 8577,
      "makers": 8578,
      "Sector": 8579,
      "Polic": 8580,
      "annual": 8581,
      "कराई": 8582,
      "rally": 8583,
      "शुरूआत": 8584,
      "सर्वा": 8585,
      "types": 8586,
      "लोकप्रिय": 8587,
      "Mahatma": 8588,
      "जयपुर": 8589,
      "Adv": 8590,
      "investors": 8591,
      "student": 8592,
      "axy": 8593,
      "सकेगा": 8594,
      "सकेंगे": 8595,
      "retail": 8596,
      "postmortem": 8597,
      "ondon": 8598,
      "follows": 8599,
      "कलर": 8600,
      "relevant": 8601,
      "walk": 8602,
      "deaths": 8603,
      "hospitals": 8604,
      "Work": 8605,
      "processes": 8606,
      "प्रशास": 8607,
      "रावत": 8608,
      "दक्षिणी": 8609,
      "अर्था": 8610,
      "प्रीमि": 8611,
      "books": 8612,
      "कल्पना": 8613,
      "चोरी": 8614,
      "परेशान": 8615,
      "Amendment": 8616,
      "listed": 8617,
      "brothers": 8618,
      "thinking": 8619,
      "गांवों": 8620,
      "प्रस्तावित": 8621,
      "strongly": 8622,
      "सुविधाओं": 8623,
      "Bharati": 8624,
      "नियंत्रित": 8625,
      "Amitabh": 8626,
      "Rao": 8627,
      "trend": 8628,
      "Medical": 8629,
      "generation": 8630,
      "द्वितीय": 8631,
      "reduce": 8632,
      "प्रेरणा": 8633,
      "citizenship": 8634,
      "critic": 8635,
      "Note": 8636,
      "गेंदबाजी": 8637,
      "established": 8638,
      "Officers": 8639,
      "prises": 8640,
      "तस्वीरें": 8641,
      "birthday": 8642,
      "existing": 8643,
      "born": 8644,
      "ंजलि": 8645,
      "माइक्रो": 8646,
      "emergency": 8647,
      "Person": 8648,
      "फ्रांस": 8649,
      "described": 8650,
      "dedicated": 8651,
      "araman": 8652,
      "istration": 8653,
      "टर्न": 8654,
      "रविवार": 8655,
      "सर्वोच्च": 8656,
      "Ahmedabad": 8657,
      "primary": 8658,
      "प्राथमिकता": 8659,
      "करियर": 8660,
      "accepted": 8661,
      "Rawat": 8662,
      "moment": 8663,
      "विजेता": 8664,
      "मंत्रिमंडल": 8665,
      "arrangements": 8666,
      "pandemic": 8667,
      "जोखिम": 8668,
      "Nepal": 8669,
      "लखनऊ": 8670,
      "इंस्टाग्राम": 8671,
      "Similarly": 8672,
      "Family": 8673,
      "Muhammad": 8674,
      "Odisha": 8675,
      "किलोग्राम": 8676,
      "traffic": 8677,
      "4GB": 8678,
      "800": 8679,
      "AC": 8680,
      "Bah": 8681,
      "CAA": 8682,
      "Dut": 8683,
      "El": 8684,
      "Even": 8685,
      "Gre": 8686,
      "Games": 8687,
      "Goyal": 8688,
      "Ha": 8689,
      "IIT": 8690,
      "Jain": 8691,
      "Luck": 8692,
      "NC": 8693,
      "Naw": 8694,
      "NIA": 8695,
      "PR": 8696,
      "Panchay": 8697,
      "Pawar": 8698,
      "Qu": 8699,
      "Rat": 8700,
      "Roy": 8701,
      "Rana": 8702,
      "Ser": 8703,
      "Sith": 8704,
      "Tend": 8705,
      "UG": 8706,
      "cow": 8707,
      "fat": 8708,
      "fif": 8709,
      "fled": 8710,
      "hop": 8711,
      "ius": 8712,
      "lin": 8713,
      "mut": 8714,
      "mist": 8715,
      "micro": 8716,
      "paper": 8717,
      "ticket": 8718,
      "wed": 8719,
      "wall": 8720,
      "yle": 8721,
      "ँकि": 8722,
      "अह": 8723,
      "अक्त": 8724,
      "आँ": 8725,
      "आज्ञा": 8726,
      "आदर्श": 8727,
      "एकी": 8728,
      "कन्": 8729,
      "कली": 8730,
      "कौर": 8731,
      "खड़ा": 8732,
      "गढ़": 8733,
      "चंद": 8734,
      "जौ": 8735,
      "नस": 8736,
      "नृ": 8737,
      "पवार": 8738,
      "पद्ध": 8739,
      "बौ": 8740,
      "बिया": 8741,
      "भय": 8742,
      "भजन": 8743,
      "रवी": 8744,
      "हड़": 8745,
      "ौम": 8746,
      "१९": 8747,
      "thi": 8748,
      "inch": 8749,
      "inated": 8750,
      "inary": 8751,
      "insp": 8752,
      "anced": 8753,
      "ony": 8754,
      "केन्‍द्र": 8755,
      "नेपाल": 8756,
      "कीय": 8757,
      "किम": 8758,
      "oured": 8759,
      "स्कर": 8760,
      "र्ज": 8761,
      "icit": 8762,
      "नामा": 8763,
      "नाल्ड": 8764,
      "क्के": 8765,
      "क्वा": 8766,
      "stances": 8767,
      "लिटी": 8768,
      "विज": 8769,
      "विभा": 8770,
      "वाइ": 8771,
      "secut": 8772,
      "तित": 8773,
      "निवास": 8774,
      "chol": 8775,
      "terday": 8776,
      "न्त": 8777,
      "oll": 8778,
      "होटल": 8779,
      "त्रु": 8780,
      "दिरा": 8781,
      "सीतार": 8782,
      "rescue": 8783,
      "बाई": 8784,
      "बाजी": 8785,
      "बाहरी": 8786,
      "whatever": 8787,
      "गाने": 8788,
      "मिश्र": 8789,
      "agon": 8790,
      "usion": 8791,
      "मुना": 8792,
      "मुहैया": 8793,
      "contr": 8794,
      "constitut": 8795,
      "conspir": 8796,
      "contract": 8797,
      "abroad": 8798,
      "una": 8799,
      "रीय": 8800,
      "option": 8801,
      "accompanied": 8802,
      "सिफार": 8803,
      "अपेक्षा": 8804,
      "alloc": 8805,
      "पुट": 8806,
      "मेश": 8807,
      "श्त": 8808,
      "वेयर": 8809,
      "वेतन": 8810,
      "pled": 8811,
      "सुफ": 8812,
      "सुभाष": 8813,
      "सुंदर": 8814,
      "raise": 8815,
      "साथियों": 8816,
      "loor": 8817,
      "स्टू": 8818,
      "शिला": 8819,
      "तुर्": 8820,
      "मानी": 8821,
      "वर्मा": 8822,
      "uded": 8823,
      "dismis": 8824,
      "display": 8825,
      "ढ़ी": 8826,
      "aving": 8827,
      "casting": 8828,
      "Thus": 8829,
      "जनसंख्या": 8830,
      "इनकी": 8831,
      "Prad": 8832,
      "मुख्‍य": 8833,
      "whoever": 8834,
      "जिसको": 8835,
      "दर्द": 8836,
      "धारकों": 8837,
      "eves": 8838,
      "evil": 8839,
      "डीसी": 8840,
      "दूत": 8841,
      "दूध": 8842,
      "cancelled": 8843,
      "सबको": 8844,
      "वरों": 8845,
      "कार्यकारी": 8846,
      "regul": 8847,
      "पोषण": 8848,
      "पेशे": 8849,
      "commod": 8850,
      "medic": 8851,
      "डाले": 8852,
      "older": 8853,
      "स्तरीय": 8854,
      "files": 8855,
      "herit": 8856,
      "newsp": 8857,
      "कहता": 8858,
      "कहती": 8859,
      "चेक": 8860,
      "ट्रक": 8861,
      "बोले": 8862,
      "हूर": 8863,
      "Commer": 8864,
      "speaking": 8865,
      "विश्ले": 8866,
      "version": 8867,
      "relatives": 8868,
      "शोर": 8869,
      "phones": 8870,
      "travell": 8871,
      "महिंद्रा": 8872,
      "laid": 8873,
      "आरोपों": 8874,
      "दरवा": 8875,
      "Administr": 8876,
      "Noida": 8877,
      "Program": 8878,
      "घटनाओं": 8879,
      "colour": 8880,
      "अधिकारों": 8881,
      "हितों": 8882,
      "व्यावसायिक": 8883,
      "consist": 8884,
      "प्रोसे": 8885,
      "frame": 8886,
      "wara": 8887,
      "lawy": 8888,
      "अगली": 8889,
      "longer": 8890,
      "हिस्सों": 8891,
      "structure": 8892,
      "कश्मी": 8893,
      "roads": 8894,
      "stood": 8895,
      "वृत्ति": 8896,
      "Gov": 8897,
      "Malays": 8898,
      "attacked": 8899,
      "severe": 8900,
      "remained": 8901,
      "दायिक": 8902,
      "मध्यम": 8903,
      "claims": 8904,
      "न्यूनतम": 8905,
      "Patna": 8906,
      "निर्देशन": 8907,
      "कल्प": 8908,
      "programmes": 8909,
      "सेंट": 8910,
      "अहमदाबाद": 8911,
      "happening": 8912,
      "ISRO": 8913,
      "markets": 8914,
      "solution": 8915,
      "शंकर": 8916,
      "बचाने": 8917,
      "career": 8918,
      "Elect": 8919,
      "measure": 8920,
      "बल्लेबाजी": 8921,
      "adium": 8922,
      "wait": 8923,
      "protests": 8924,
      "िज्य": 8925,
      "तारीख": 8926,
      "टैक्स": 8927,
      "device": 8928,
      "Bhavan": 8929,
      "journey": 8930,
      "Farmers": 8931,
      "contesting": 8932,
      "satellite": 8933,
      "न्वय": 8934,
      "confidence": 8935,
      "reply": 8936,
      "आखिरी": 8937,
      "promise": 8938,
      "competition": 8939,
      "यूरोप": 8940,
      "quarter": 8941,
      "दर्शकों": 8942,
      "joining": 8943,
      "nuclear": 8944,
      "rapid": 8945,
      "attempt": 8946,
      "hibition": 8947,
      "andeep": 8948,
      "Territ": 8949,
      "railway": 8950,
      "challenges": 8951,
      "ऑपरेशन": 8952,
      "partnership": 8953,
      "confirmed": 8954,
      "खुलासा": 8955,
      "Donald": 8956,
      "मुसलमानों": 8957,
      "सुनील": 8958,
      "advocate": 8959,
      "British": 8960,
      "भारतीयों": 8961,
      "स्रोत": 8962,
      "सिएशन": 8963,
      "Sachin": 8964,
      "Srinagar": 8965,
      "Tourism": 8966,
      "Ladakh": 8967,
      "हफ्ते": 8968,
      "महत्त्व": 8969,
      "Realme": 8970,
      "aspir": 8971,
      "monitoring": 8972,
      "Adityanath": 8973,
      "वाणिज्य": 8974,
      "प्रोफेसर": 8975,
      "विभिन्‍न": 8976,
      "जेएनयू": 8977,
      "ब्लैक": 8978,
      "Chidambaram": 8979,
      "मूल्यांकन": 8980,
      "सर्वाधिक": 8981,
      "Bharatiya": 8982,
      "Sitharaman": 8983,
      "Tendul": 8984,
      "अक्तूबर": 8985,
      "विभाजन": 8986,
      "सिफारिश": 8987,
      "'.": 8988,
      "):": 8989,
      ".)": 8990,
      "08": 8991,
      "250": 8992,
      ":-": 8993,
      "?\"": 8994,
      "Actor": 8995,
      "Bir": 8996,
      "Din": 8997,
      "Dil": 8998,
      "Fire": 8999,
      "Gad": 9000,
      "Hard": 9001,
      "Jit": 9002,
      "Kot": 9003,
      "London": 9004,
      "Mor": 9005,
      "Mam": 9006,
      "NA": 9007,
      "Open": 9008,
      "PG": 9009,
      "Ri": 9010,
      "Rad": 9011,
      "Sind": 9012,
      "Sud": 9013,
      "TE": 9014,
      "Western": 9015,
      "bid": 9016,
      "brief": 9017,
      "dign": 9018,
      "finish": 9019,
      "gain": 9020,
      "gard": 9021,
      "hn": 9022,
      "hr": 9023,
      "khar": 9024,
      "mas": 9025,
      "nab": 9026,
      "page": 9027,
      "sper": 9028,
      "tel": 9029,
      "ugu": 9030,
      "ंश": 9031,
      "असल": 9032,
      "अध्‍य": 9033,
      "आमंत्र": 9034,
      "आमत": 9035,
      "एआई": 9036,
      "एक्टर": 9037,
      "ऐलान": 9038,
      "औसत": 9039,
      "कस": 9040,
      "खतरा": 9041,
      "गर्म": 9042,
      "घ्र": 9043,
      "चक": 9044,
      "झी": 9045,
      "टक्कर": 9046,
      "ठहराया": 9047,
      "दै": 9048,
      "दशक": 9049,
      "नें": 9050,
      "प्टी": 9051,
      "बली": 9052,
      "बड़े": 9053,
      "भला": 9054,
      "भरी": 9055,
      "मचा": 9056,
      "रफ्": 9057,
      "लक्षण": 9058,
      "वों": 9059,
      "शतक": 9060,
      "शनों": 9061,
      "सच्चे": 9062,
      "हल्": 9063,
      "क़ी": 9064,
      "instead": 9065,
      "erved": 9066,
      "oned": 9067,
      "केन्‍द": 9068,
      "render": 9069,
      "revol": 9070,
      "remarks": 9071,
      "कीपर": 9072,
      "tom": 9073,
      "toms": 9074,
      "tough": 9075,
      "कोष": 9076,
      "नाई": 9077,
      "क्ल": 9078,
      "क्लब": 9079,
      "क्लिक": 9080,
      "entre": 9081,
      "प्रकट": 9082,
      "विजन": 9083,
      "विस्फो": 9084,
      "लाइस": 9085,
      "admit": 9086,
      "लेट": 9087,
      "ctive": 9088,
      "secret": 9089,
      "amed": 9090,
      "champ": 9091,
      "जातीय": 9092,
      "देगी": 9093,
      "देखिए": 9094,
      "imately": 9095,
      "संतोष": 9096,
      "संहिता": 9097,
      "बाढ़": 9098,
      "क्षकों": 9099,
      "track": 9100,
      "trapati": 9101,
      "depend": 9102,
      "deeds": 9103,
      "एकमात्र": 9104,
      "मित्र": 9105,
      "मुर्": 9106,
      "मुआव": 9107,
      "convey": 9108,
      "congreg": 9109,
      "ula": 9110,
      "ela": 9111,
      "university": 9112,
      "जिया": 9113,
      "comments": 9114,
      "रिमा": 9115,
      "समन्वय": 9116,
      "सिम": 9117,
      "सिनेमा": 9118,
      "liber": 9119,
      "liance": 9120,
      "भार्": 9121,
      "rivers": 9122,
      "article": 9123,
      "apost": 9124,
      "चांदी": 9125,
      "negot": 9126,
      "हिद": 9127,
      "राज्‍यों": 9128,
      "रेडियो": 9129,
      "टीआई": 9130,
      "स्टै": 9131,
      "स्टिक": 9132,
      "वीय": 9133,
      "permission": 9134,
      "फिट": 9135,
      "uddin": 9136,
      "प्ल": 9137,
      "ंची": 9138,
      "spin": 9139,
      "Thats": 9140,
      "ार्थी": 9141,
      "सूर": 9142,
      "पिका": 9143,
      "ureau": 9144,
      "डीआर": 9145,
      "awards": 9146,
      "ishing": 9147,
      "Staff": 9148,
      "यूष": 9149,
      "लियां": 9150,
      "पेज": 9151,
      "बताई": 9152,
      "सोना": 9153,
      "boy": 9154,
      "आरबीआई": 9155,
      "जानें": 9156,
      "शीघ्र": 9157,
      "चेताव": 9158,
      "इंट": 9159,
      "खुले": 9160,
      "ंपिक": 9161,
      "फाइल": 9162,
      "पूर्वक": 9163,
      "छात्रा": 9164,
      "डेट": 9165,
      "अंबानी": 9166,
      "countrys": 9167,
      "गोल": 9168,
      "गोपाल": 9169,
      "खेला": 9170,
      "Second": 9171,
      "ग्रस्त": 9172,
      "ख़ि": 9173,
      "servants": 9174,
      "सर्च": 9175,
      "जिनकी": 9176,
      "भेड़": 9177,
      "operative": 9178,
      "Enter": 9179,
      "Produ": 9180,
      "asks": 9181,
      "flight": 9182,
      "Alia": 9183,
      "fici": 9184,
      "प्रोजे": 9185,
      "tested": 9186,
      "पक्षों": 9187,
      "नौकरी": 9188,
      "surv": 9189,
      "बॉस": 9190,
      "बॉक्स": 9191,
      "onder": 9192,
      "चौथे": 9193,
      "छोड़": 9194,
      "पत्रिका": 9195,
      "MPs": 9196,
      "wali": 9197,
      "लुओं": 9198,
      "Hindus": 9199,
      "लेंस": 9200,
      "apped": 9201,
      "amental": 9202,
      "जल्दी": 9203,
      "tribal": 9204,
      "Team": 9205,
      "roleum": 9206,
      "प्रशांत": 9207,
      "respective": 9208,
      "प्रीत": 9209,
      "निर्देशक": 9210,
      "opening": 9211,
      "अतिथि": 9212,
      "OnePlus": 9213,
      "falls": 9214,
      "कार्यान्वयन": 9215,
      "interests": 9216,
      "listen": 9217,
      "announce": 9218,
      "mier": 9219,
      "करोड़": 9220,
      "implemented": 9221,
      "fields": 9222,
      "मराह": 9223,
      "वर्गों": 9224,
      "participation": 9225,
      "Christians": 9226,
      "Joint": 9227,
      "green": 9228,
      "प्रतिनिधित": 9229,
      "ब्रांड": 9230,
      "निर्धारण": 9231,
      "Media": 9232,
      "BSE": 9233,
      "Tripur": 9234,
      "spoke": 9235,
      "गरीबी": 9236,
      "पेट्रोलियम": 9237,
      "promoting": 9238,
      "मनाया": 9239,
      "sanction": 9240,
      "नतीजे": 9241,
      "अंकों": 9242,
      "percentage": 9243,
      "rolled": 9244,
      "victims": 9245,
      "साक्षी": 9246,
      "Thakur": 9247,
      "doub": 9248,
      "jobs": 9249,
      "वेस्टइंडीज": 9250,
      "objective": 9251,
      "directly": 9252,
      "governance": 9253,
      "quarters": 9254,
      "Talking": 9255,
      "soul": 9256,
      "wishes": 9257,
      "delivered": 9258,
      "ज़रूरत": 9259,
      "phet": 9260,
      "granted": 9261,
      "suffered": 9262,
      "fellow": 9263,
      "Krishna": 9264,
      "priority": 9265,
      "Nirm": 9266,
      "sustain": 9267,
      "ट्यूट": 9268,
      "Messenger": 9269,
      "innings": 9270,
      "Independent": 9271,
      "महोदय": 9272,
      "मज़बू": 9273,
      "समर्पित": 9274,
      "Witnesses": 9275,
      "साझेदारी": 9276,
      "delegation": 9277,
      "परिस्थितियों": 9278,
      "सर्वेक्षण": 9279,
      "departments": 9280,
      "millions": 9281,
      "powers": 9282,
      "रिजल्ट": 9283,
      "यॉर्क": 9284,
      "मेहनत": 9285,
      "अल्पसंख्य": 9286,
      "shifted": 9287,
      "certific": 9288,
      "आलोचना": 9289,
      "परिचालन": 9290,
      "चैंपियन": 9291,
      "गडकरी": 9292,
      "हेक्टेयर": 9293,
      "Policy": 9294,
      "सीतारमण": 9295,
      "Tendulkar": 9296,
      "आमतौर": 9297,
      "केन्‍द्रीय": 9298,
      "negoti": 9299,
      "54": 9300,
      "750": 9301,
      "92": 9302,
      "Award": 9303,
      "Ajit": 9304,
      "DC": 9305,
      "DR": 9306,
      "Digital": 9307,
      "DEL": 9308,
      "Eastern": 9309,
      "Gul": 9310,
      "HP": 9311,
      "HS": 9312,
      "Has": 9313,
      "Hous": 9314,
      "Hence": 9315,
      "IL": 9316,
      "Ir": 9317,
      "Kart": 9318,
      "Know": 9319,
      "Karan": 9320,
      "Mag": 9321,
      "Net": 9322,
      "NDA": 9323,
      "Prom": 9324,
      "Qual": 9325,
      "Rai": 9326,
      "RRB": 9327,
      "Rules": 9328,
      "Sir": 9329,
      "Sah": 9330,
      "Tem": 9331,
      "Tele": 9332,
      "Take": 9333,
      "Var": 9334,
      "Yoj": 9335,
      "ares": 9336,
      "actions": 9337,
      "bon": 9338,
      "caught": 9339,
      "ds": 9340,
      "gment": 9341,
      "games": 9342,
      "hour": 9343,
      "hary": 9344,
      "hance": 9345,
      "kil": 9346,
      "ohar": 9347,
      "poverty": 9348,
      "rou": 9349,
      "sle": 9350,
      "sun": 9351,
      "slow": 9352,
      "shel": 9353,
      "simple": 9354,
      "uge": 9355,
      "wins": 9356,
      "wadi": 9357,
      "ximum": 9358,
      "अक": 9359,
      "अज्ञात": 9360,
      "अकाद": 9361,
      "आत्": 9362,
      "आगामी": 9363,
      "इच्छा": 9364,
      "उधर": 9365,
      "एल्": 9366,
      "ऐप": 9367,
      "ऑल": 9368,
      "खतर": 9369,
      "गहरा": 9370,
      "छी": 9371,
      "जगत": 9372,
      "ढंग": 9373,
      "बलि": 9374,
      "बंग": 9375,
      "बर्ट": 9376,
      "बड़ी": 9377,
      "भले": 9378,
      "मरी": 9379,
      "मलिक": 9380,
      "रस": 9381,
      "शारी": 9382,
      "शंस": 9383,
      "सपा": 9384,
      "सद्": 9385,
      "सलों": 9386,
      "हट": 9387,
      "ैर": 9388,
      "००": 9389,
      "input": 9390,
      "erjee": 9391,
      "remove": 9392,
      "enhance": 9393,
      "alore": 9394,
      "tool": 9395,
      "काज": 9396,
      "काने": 9397,
      "ouble": 9398,
      "कोच": 9399,
      "iled": 9400,
      "iles": 9401,
      "क्य": 9402,
      "क्ताओं": 9403,
      "ster": 9404,
      "प्रस्‍": 9405,
      "rob": 9406,
      "लाते": 9407,
      "वाना": 9408,
      "वास्ते": 9409,
      "becoming": 9410,
      "सावधान": 9411,
      "तिमा": 9412,
      "तिरु": 9413,
      "निभाई": 9414,
      "नियुक्ति": 9415,
      "इसको": 9416,
      "इसलिये": 9417,
      "माया": 9418,
      "hai": 9419,
      "संसदी": 9420,
      "residence": 9421,
      "बांध": 9422,
      "क्षमा": 9423,
      "हुक्": 9424,
      "एकता": 9425,
      "मिट": 9426,
      "मिस": 9427,
      "conv": 9428,
      "convict": 9429,
      "abilities": 9430,
      "proced": 9431,
      "Indira": 9432,
      "जिश": 9433,
      "comed": 9434,
      "सिंध": 9435,
      "सिन्हा": 9436,
      "दीपिका": 9437,
      "lived": 9438,
      "shop": 9439,
      "जीसी": 9440,
      "apers": 9441,
      "apart": 9442,
      "शाहिद": 9443,
      "neither": 9444,
      "कुशल": 9445,
      "exem": 9446,
      "extra": 9447,
      "साथी": 9448,
      "शिक": 9449,
      "perform": 9450,
      "मानक": 9451,
      "आईआईटी": 9452,
      "feet": 9453,
      "feature": 9454,
      "polling": 9455,
      "मोटर": 9456,
      "प्ला": 9457,
      "1947": 9458,
      "casual": 9459,
      "emy": 9460,
      "empower": 9461,
      "ार्ड": 9462,
      "मुख्या": 9463,
      "बेटा": 9464,
      "शुभार": 9465,
      "निर्मला": 9466,
      "prise": 9467,
      "awa": 9468,
      "डिजा": 9469,
      "व्यू": 9470,
      "गुस्": 9471,
      "चीजें": 9472,
      "यूसुफ": 9473,
      "श्रीनगर": 9474,
      "पारि": 9475,
      "पोरेट": 9476,
      "प्राण": 9477,
      "प्रांत": 9478,
      "प्राप्‍त": 9479,
      "रखो": 9480,
      "ciences": 9481,
      "आरसी": 9482,
      "filing": 9483,
      "preach": 9484,
      "जैव": 9485,
      "contain": 9486,
      "फीसद": 9487,
      "cris": 9488,
      "curren": 9489,
      "टिश": 9490,
      "interview": 9491,
      "इंस्टी": 9492,
      "सदस्‍": 9493,
      "पैमाने": 9494,
      "itely": 9495,
      "एनए": 9496,
      "elements": 9497,
      "Ann": 9498,
      "airport": 9499,
      "crow": 9500,
      "बुध": 9501,
      "2005": 9502,
      "कॉल": 9503,
      "scale": 9504,
      "someone": 9505,
      "plays": 9506,
      "कराए": 9507,
      "maximum": 9508,
      "residents": 9509,
      "ंटों": 9510,
      "submit": 9511,
      "subsid": 9512,
      "Mantri": 9513,
      "Environment": 9514,
      "flu": 9515,
      "collabor": 9516,
      "Exam": 9517,
      "standard": 9518,
      "भरने": 9519,
      "happiness": 9520,
      "helps": 9521,
      "अग्": 9522,
      "correspond": 9523,
      "छोटा": 9524,
      "headed": 9525,
      "ग्लो": 9526,
      "पकड़": 9527,
      "showed": 9528,
      "sentence": 9529,
      "Shahid": 9530,
      "Good": 9531,
      "supported": 9532,
      "motor": 9533,
      "परमेश्वर": 9534,
      "बसपा": 9535,
      "दूरसंचार": 9536,
      "commitment": 9537,
      "निवेशकों": 9538,
      "गेंद": 9539,
      "reportedly": 9540,
      "allegations": 9541,
      "payment": 9542,
      "मुद्दा": 9543,
      "benefits": 9544,
      "परेश": 9545,
      "Amr": 9546,
      "हजारों": 9547,
      "ज़िम्मे": 9548,
      "ज़िंदगी": 9549,
      "ICI": 9550,
      "weeks": 9551,
      "properties": 9552,
      "daughters": 9553,
      "गणना": 9554,
      "संबोधन": 9555,
      "पॉजि": 9556,
      "profit": 9557,
      "दिलच": 9558,
      "questioned": 9559,
      "customers": 9560,
      "MSME": 9561,
      "निकाला": 9562,
      "learning": 9563,
      "larger": 9564,
      "Jait": 9565,
      "Kaur": 9566,
      "Maha": 9567,
      "fighting": 9568,
      "association": 9569,
      "practices": 9570,
      "Smart": 9571,
      "Guru": 9572,
      "बढ़ा": 9573,
      "Apple": 9574,
      "आसपास": 9575,
      "आंकड़ों": 9576,
      "एशियाई": 9577,
      "Memor": 9578,
      "yesterday": 9579,
      "double": 9580,
      "Rashtrapati": 9581,
      "panel": 9582,
      "Nitish": 9583,
      "Sunil": 9584,
      "RSS": 9585,
      "transp": 9586,
      "Sidd": 9587,
      "batsmen": 9588,
      "Deepika": 9589,
      "दिग्गज": 9590,
      "audience": 9591,
      "मुझसे": 9592,
      "beginning": 9593,
      "inaugurated": 9594,
      "अंग्रेजी": 9595,
      "प्रोत्साहित": 9596,
      "Republic": 9597,
      "Verma": 9598,
      "सॉफ्ट": 9599,
      "पश्चात": 9600,
      "आजादी": 9601,
      "इलेक्ट्रॉ": 9602,
      "independence": 9603,
      "recommend": 9604,
      "apex": 9605,
      "fruit": 9606,
      "troops": 9607,
      "physical": 9608,
      "पड़ोसी": 9609,
      "discipl": 9610,
      "जेटली": 9611,
      "तहसील": 9612,
      "मशहूर": 9613,
      "डेविड": 9614,
      "आधुनिक": 9615,
      "हस्तक्षेप": 9616,
      "insurance": 9617,
      "मिश्रा": 9618,
      "प्रदूषण": 9619,
      "beneficiaries": 9620,
      "मलेशिया": 9621,
      "conflict": 9622,
      "टेक्नोलॉजी": 9623,
      "प्रशासनिक": 9624,
      "नृत्य": 9625,
      "Commerce": 9626,
      "चेतावनी": 9627,
      "प्रतिनिधित्व": 9628,
      "संसदीय": 9629,
      "02": 9630,
      "110": 9631,
      "1000": 9632,
      "130": 9633,
      "88": 9634,
      "Cro": 9635,
      "Candid": 9636,
      "Das": 9637,
      "Dhan": 9638,
      "ET": 9639,
      "Feder": 9640,
      "GS": 9641,
      "Glo": 9642,
      "Ji": 9643,
      "Jav": 9644,
      "Kh": 9645,
      "Ki": 9646,
      "Mun": 9647,
      "NI": 9648,
      "OR": 9649,
      "Oil": 9650,
      "Pay": 9651,
      "Path": 9652,
      "Port": 9653,
      "Raf": 9654,
      "Str": 9655,
      "Sho": 9656,
      "Skill": 9657,
      "Tim": 9658,
      "Tru": 9659,
      "UR": 9660,
      "Ud": 9661,
      "Vish": 9662,
      "dle": 9663,
      "dark": 9664,
      "eper": 9665,
      "fam": 9666,
      "jur": 9667,
      "kha": 9668,
      "kart": 9669,
      "knew": 9670,
      "lers": 9671,
      "mix": 9672,
      "oin": 9673,
      "ood": 9674,
      "pred": 9675,
      "pure": 9676,
      "tt": 9677,
      "tack": 9678,
      "table": 9679,
      "tty": 9680,
      "अय": 9681,
      "अज़ा": 9682,
      "आस्ट्रेलिया": 9683,
      "इश": 9684,
      "इंच": 9685,
      "उतर": 9686,
      "एडा": 9687,
      "ओडि": 9688,
      "जरा": 9689,
      "ठहरा": 9690,
      "दश": 9691,
      "ध्व": 9692,
      "नज़र": 9693,
      "पढ़": 9694,
      "पचारिक": 9695,
      "लद्दा": 9696,
      "वती": 9697,
      "सौर": 9698,
      "सत्य": 9699,
      "सपोर्ट": 9700,
      "हक": 9701,
      "हवाले": 9702,
      "हक़": 9703,
      "ास": 9704,
      "ूप": 9705,
      "ज़मीन": 9706,
      "ining": 9707,
      "inations": 9708,
      "erted": 9709,
      "revenue": 9710,
      "enhan": 9711,
      "याता": 9712,
      "org": 9713,
      "arm": 9714,
      "tomor": 9715,
      "काय": 9716,
      "स्कीम": 9717,
      "नाबा": 9718,
      "stre": 9719,
      "ानु": 9720,
      "roid": 9721,
      "लिखे": 9722,
      "विनि": 9723,
      "विंग": 9724,
      "लाम": 9725,
      "लाभार्": 9726,
      "वाधिकार": 9727,
      "beha": 9728,
      "साई": 9729,
      "साउ": 9730,
      "सास": 9731,
      "aman": 9732,
      "amid": 9733,
      "omi": 9734,
      "तिया": 9735,
      "निंदा": 9736,
      "निवासी": 9737,
      "माला": 9738,
      "संबद्ध": 9739,
      "संयुक्‍त": 9740,
      "संयंत्र": 9741,
      "cean": 9742,
      "resent": 9743,
      "degree": 9744,
      "मिर": 9745,
      "iger": 9746,
      "ल्ट": 9747,
      "users": 9748,
      "थाने": 9749,
      "मुँ": 9750,
      "मुठ": 9751,
      "prosper": 9752,
      "uls": 9753,
      "ंगु": 9754,
      "oples": 9755,
      "रिहा": 9756,
      "सिड": 9757,
      "द्दीन": 9758,
      "lift": 9759,
      "पुस्त": 9760,
      "shops": 9761,
      "शास्त्र": 9762,
      "notes": 9763,
      "पीने": 9764,
      "पीजी": 9765,
      "पीयूष": 9766,
      "रेन": 9767,
[...]
