{
  "version": "1.0",
  "truncation": null,
  "padding": null,
  "added_tokens": [
    {
      "id": 0,
      "content": "<pad>",
      "single_word": false,
      "lstrip": false,
      "rstrip": false,
      "normalized": false,
      "special": true
    },
    {
      "id": 1,
      "content": "<bos>",
      "single_word": false,
      "lstrip": false,
      "rstrip": false,
      "normalized": false,
      "special": true
    },
    {
      "id": 2,
      "content": "<eos>",
      "single_word": false,
      "lstrip": false,
      "rstrip": false,
      "normalized": false,
      "special": true
    },
    {
      "id": 3,
      "content": "<unk>",
      "single_word": false,
      "lstrip": false,
      "rstrip": false,
      "normalized": false,
      "special": true
    },
    {
      "id": 4,
      "content": "<2hi>",
      "single_word": false,
      "lstrip": false,
      "rstrip": false,
      "normalized": false,
      "special": true
    },
    {
      "id": 5,
      "content": "<2te>",
      "single_word": false,
      "lstrip": false,
      "rstrip": false,
      "normalized": false,
      "special": true
    }
  ],
  "normalizer": null,
  "pre_tokenizer": {
    "type": "Whitespace"
  },
  "post_processor": null,
  "decoder": null,
  "model": {
    "type": "BPE",
    "dropout": null,
    "unk_token": "<unk>",
    "continuing_subword_prefix": null,
    "end_of_word_suffix": null,
    "fuse_unk": false,
    "byte_fallback": false,
    "ignore_merges": false,
    "vocab": {
      "<pad>": 0,
      "<bos>": 1,
      "<eos>": 2,
      "<unk>": 3,
      "<2hi>": 4,
      "<2te>": 5,
      "!": 6,
      "\"": 7,
      "#": 8,
      "$": 9,
      "%": 10,
      "&": 11,
      "'": 12,
      "(": 13,
      ")": 14,
      "*": 15,
      "+": 16,
      ",": 17,
      "-": 18,
      ".": 19,
      "/": 20,
      "0": 21,
      "1": 22,
      "2": 23,
      "3": 24,
      "4": 25,
      "5": 26,
      "6": 27,
      "7": 28,
      "8": 29,
      "9": 30,
      ":": 31,
      "<": 32,
      "=": 33,
      ">": 34,
      "?": 35,
      "@": 36,
      "A": 37,
      "B": 38,
      "C": 39,
      "D": 40,
      "E": 41,
      "F": 42,
      "G": 43,
      "H": 44,
      "I": 45,
      "J": 46,
      "K": 47,
      "L": 48,
      "M": 49,
      "N": 50,
      "O": 51,
      "P": 52,
      "Q": 53,
      "R": 54,
      "S": 55,
      "T": 56,
      "U": 57,
      "V": 58,
      "W": 59,
      "X": 60,
      "Y": 61,
      "Z": 62,
      "[": 63,
      "\\": 64,
      "]": 65,
      "^": 66,
      "_": 67,
      "`": 68,
      "a": 69,
      "b": 70,
      "c": 71,
      "d": 72,
      "e": 73,
      "f": 74,
      "g": 75,
      "h": 76,
      "i": 77,
      "j": 78,
      "k": 79,
      "l": 80,
      "m": 81,
      "n": 82,
      "o": 83,
      "p": 84,
      "q": 85,
      "r": 86,
      "s": 87,
      "t": 88,
      "u": 89,
      "v": 90,
      "w": 91,
      "x": 92,
      "y": 93,
      "z": 94,
      "{": 95,
      "|": 96,
      "}": 97,
      "~": 98,
      "¡": 99,
      "¨": 100,
      "©": 101,
      "ª": 102,
      "«": 103,
      "°": 104,
      "±": 105,
      "²": 106,
      "¶": 107,
      "·": 108,
      "¸": 109,
      "»": 110,
      "½": 111,
      "Â": 112,
      "Ó": 113,
      "×": 114,
      "á": 115,
      "æ": 116,
      "ç": 117,
      "è": 118,
      "é": 119,
      "í": 120,
      "ï": 121,
      "ñ": 122,
      "ó": 123,
      "ø": 124,
      "ə": 125,
      "ˌ": 126,
      "ː": 127,
      "β": 128,
      "χ": 129,
      "ְ": 130,
      "ִ": 131,
      "ֵ": 132,
      "ֶ": 133,
      "ַ": 134,
      "ָ": 135,
      "ֹ": 136,
      "ּ": 137,
      "א": 138,
      "ה": 139,
      "ו": 140,
      "ז": 141,
      "ט": 142,
      "י": 143,
      "כ": 144,
      "ל": 145,
      "מ": 146,
      "ס": 147,
      "פ": 148,
      "ר": 149,
      "آ": 150,
      "ا": 151,
      "ب": 152,
      "ة": 153,
      "ت": 154,
      "ح": 155,
      "د": 156,
      "ر": 157,
      "س": 158,
      "ش": 159,
      "ض": 160,
      "ط": 161,
      "ع": 162,
      "ق": 163,
      "ك": 164,
      "ل": 165,
      "م": 166,
      "ن": 167,
      "و": 168,
      "ي": 169,
      "ٰ": 170,
      "پ": 171,
      "ی": 172,
      "ँ": 173,
      "ं": 174,
      "ः": 175,
      "अ": 176,
      "आ": 177,
      "इ": 178,
      "ई": 179,
      "उ": 180,
      "ऊ": 181,
      "ऋ": 182,
      "ऌ": 183,
      "ऍ": 184,
      "ऎ": 185,
      "ए": 186,
      "ऐ": 187,
      "ऑ": 188,
      "ओ": 189,
      "औ": 190,
      "क": 191,
      "ख": 192,
      "ग": 193,
      "घ": 194,
      "ङ": 195,
      "च": 196,
      "छ": 197,
      "ज": 198,
      "झ": 199,
      "ञ": 200,
      "ट": 201,
      "ठ": 202,
      "ड": 203,
      "ढ": 204,
      "ण": 205,
      "त": 206,
      "थ": 207,
      "द": 208,
      "ध": 209,
      "न": 210,
      "ऩ": 211,
      "प": 212,
      "फ": 213,
      "ब": 214,
      "भ": 215,
      "म": 216,
      "य": 217,
      "र": 218,
      "ऱ": 219,
      "ल": 220,
      "ळ": 221,
      "व": 222,
      "श": 223,
      "ष": 224,
      "स": 225,
      "ह": 226,
      "़": 227,
      "ऽ": 228,
      "ा": 229,
      "ि": 230,
      "ी": 231,
      "ु": 232,
      "ू": 233,
      "ृ": 234,
      "ॅ": 235,
      "ॆ": 236,
      "े": 237,
      "ै": 238,
      "ॉ": 239,
      "ॊ": 240,
      "ो": 241,
      "ौ": 242,
      "्": 243,
      "क़": 244,
      "ख़": 245,
      "ग़": 246,
      "ज़": 247,
      "ड़": 248,
      "ढ़": 249,
      "फ़": 250,
      "य़": 251,
      "ॠ": 252,
      "।": 253,
      "॥": 254,
      "०": 255,
      "१": 256,
      "२": 257,
      "३": 258,
      "४": 259,
      "५": 260,
      "६": 261,
      "७": 262,
      "८": 263,
      "९": 264,
      "॰": 265,
      "ং": 266,
      "ক": 267,
      "ঙ": 268,
      "জ": 269,
      "ট": 270,
      "ত": 271,
      "দ": 272,
      "ব": 273,
      "য": 274,
      "র": 275,
      "ল": 276,
      "শ": 277,
      "স": 278,
      "়": 279,
      "া": 280,
      "ি": 281,
      "ী": 282,
      "ে": 283,
      "্": 284,
      "ఁ": 285,
      "ం": 286,
      "ః": 287,
      "అ": 288,
      "ఆ": 289,
      "ఇ": 290,
      "ఈ": 291,
      "ఉ": 292,
      "ఊ": 293,
      "ఎ": 294,
      "ఏ": 295,
      "ఐ": 296,
      "ఒ": 297,
      "ఓ": 298,
      "ఔ": 299,
      "క": 300,
      "ఖ": 301,
      "గ": 302,
      "ఘ": 303,
      "చ": 304,
      "ఛ": 305,
      "జ": 306,
      "ఝ": 307,
      "ఞ": 308,
      "ట": 309,
      "ఠ": 310,
      "డ": 311,
      "ఢ": 312,
      "ణ": 313,
      "త": 314,
      "థ": 315,
      "ద": 316,
      "ధ": 317,
      "న": 318,
      "ప": 319,
      "ఫ": 320,
      "బ": 321,
      "భ": 322,
      "మ": 323,
      "య": 324,
      "ర": 325,
      "ఱ": 326,
      "ల": 327,
      "ళ": 328,
      "వ": 329,
      "శ": 330,
      "ష": 331,
      "స": 332,
      "హ": 333,
      "ా": 334,
      "ి": 335,
      "ీ": 336,
      "ు": 337,
      "ూ": 338,
      "ృ": 339,
      "ౄ": 340,
      "ె": 341,
      "ే": 342,
      "ై": 343,
      "ొ": 344,
      "ో": 345,
      "ౌ": 346,
      "్": 347,
      "ౖ": 348,
      "౦": 349,
      "ᐅ": 350,
      "​": 351,
      "‌": 352,
      "‍": 353,
      "‎": 354,
      "–": 355,
      "—": 356,
      "‘": 357,
      "’": 358,
      "“": 359,
      "”": 360,
      "•": 361,
      "…": 362,
      "⁠": 363,
      "€": 364,
      "₹": 365,
      "™": 366,
      "←": 367,
      "⇒": 368,
      "∙": 369,
      "⊆": 370,
      "⍟": 371,
      "□": 372,
      "▪": 373,
      "▫": 374,
      "►": 375,
      "◆": 376,
      "★": 377,
      "♦": 378,
      "♪": 379,
      "♫": 380,
      "✦": 381,
      "份": 382,
      "恋": 383,
      "戀": 384,
      "早": 385,
      "緣": 386,
      "": 387,
      "﻿": 388,
      "th": 389,
      "in": 390,
      "an": 391,
      "er": 392,
      "the": 393,
      "on": 394,
      "re": 395,
      "at": 396,
      "is": 397,
      "en": 398,
      "ed": 399,
      "al": 400,
      "के": 401,
      "or": 402,
      "ar": 403,
      "es": 404,
      "as": 405,
      "्र": 406,
      "and": 407,
      "of": 408,
      "ार": 409,
      "ें": 410,
      "to": 411,
      "ing": 412,
      "ou": 413,
      "ने": 414,
      "it": 415,
      "है": 416,
      "या": 417,
      "ార": 418,
      "్ర": 419,
      "ని": 420,
      "में": 421,
      "ion": 422,
      "న్": 423,
      "ic": 424,
      "he": 425,
      "il": 426,
      "ों": 427,
      "की": 428,
      "st": 429,
      "ent": 430,
      "స్": 431,
      "का": 432,
      "ంద": 433,
      "कि": 434,
      "ro": 435,
      "ర్": 436,
      "से": 437,
      "कर": 438,
      "le": 439,
      "లు": 440,
      "को": 441,
      "ad": 442,
      "स्": 443,
      "र्": 444,
      "be": 445,
      "id": 446,
      "और": 447,
      "ता": 448,
      "లో": 449,
      "ना": 450,
      "ve": 451,
      "am": 452,
      "ct": 453,
      "కు": 454,
      "se": 455,
      "The": 456,
      "क्": 457,
      "प्र": 458,
      "om": 459,
      "్య": 460,
      "ch": 461,
      "nd": 462,
      "for": 463,
      "ను": 464,
      "ान": 465,
      "ter": 466,
      "पर": 467,
      "ver": 468,
      "्य": 469,
      "ol": 470,
      "ిం": 471,
      "लि": 472,
      "ారు": 473,
      "वि": 474,
      "ల్": 475,
      "క్": 476,
      "న్న": 477,
      "ay": 478,
      "గా": 479,
      "ला": 480,
      "वा": 481,
      "ha": 482,
      "im": 483,
      "ంది": 484,
      "ation": 485,
      "ही": 486,
      "रा": 487,
      "ur": 488,
      "ప్ర": 489,
      "ir": 490,
      "हा": 491,
      "ట్": 492,
      "ly": 493,
      "ot": 494,
      "ce": 495,
      "ले": 496,
      "are": 497,
      "res": 498,
      "\"\"": 499,
      "ow": 500,
      "వి": 501,
      "सा": 502,
      "ించ": 503,
      "tr": 504,
      "ill": 505,
      "de": 506,
      "ति": 507,
      "नि": 508,
      "ig": 509,
      "wh": 510,
      "जा": 511,
      "తు": 512,
      "రి": 513,
      "ment": 514,
      "इस": 515,
      "ాల": 516,
      "ab": 517,
      "ag": 518,
      "ere": 519,
      "कार": 520,
      "చే": 521,
      "ak": 522,
      "us": 523,
      "न्": 524,
      "et": 525,
      "मा": 526,
      "हैं": 527,
      "that": 528,
      "दे": 529,
      "हो": 530,
      "ut": 531,
      "has": 532,
      "con": 533,
      "ith": 534,
      "el": 535,
      "त्र": 536,
      "ers": 537,
      "త్": 538,
      "డు": 539,
      "ul": 540,
      "दि": 541,
      "भी": 542,
      "కి": 543,
      "pro": 544,
      "డి": 545,
      "was": 546,
      "od": 547,
      "un": 548,
      "20": 549,
      "మా": 550,
      "so": 551,
      "com": 552,
      "ते": 553,
      "ac": 554,
      "सं": 555,
      "op": 556,
      "టి": 557,
      "సి": 558,
      "सी": 559,
      "बा": 560,
      "Ind": 561,
      "ित": 562,
      "our": 563,
      "ia": 564,
      "రు": 565,
      "ate": 566,
      "क्ष": 567,
      "est": 568,
      "ain": 569,
      "with": 570,
      "ती": 571,
      "రా": 572,
      "యి": 573,
      "लिए": 574,
      "ంత": 575,
      "pe": 576,
      "li": 577,
      "ప్": 578,
      "కా": 579,
      "his": 580,
      "by": 581,
      "ड़": 582,
      "sh": 583,
      "సు": 584,
      "su": 585,
      "all": 586,
      "వా": 587,
      "हु": 588,
      "पा": 589,
      "एक": 590,
      "गा": 591,
      "ap": 592,
      "have": 593,
      "मि": 594,
      "will": 595,
      "sa": 596,
      "ri": 597,
      "ली": 598,
      "ne": 599,
      "त्": 600,
      "art": 601,
      "లి": 602,
      "हीं": 603,
      "తి": 604,
      "చి": 605,
      "ल्": 606,
      "not": 607,
      "over": 608,
      "దు": 609,
      "టు": 610,
      "pl": 611,
      "ము": 612,
      "ld": 613,
      "था": 614,
      "मु": 615,
      "नी": 616,
      "ది": 617,
      "ice": 618,
      "this": 619,
      "me": 620,
      "పు": 621,
      "ies": 622,
      "rom": 623,
      "यों": 624,
      "నే": 625,
      "नहीं": 626,
      "किया": 627,
      "ोग": 628,
      "నా": 629,
      "ra": 630,
      "ts": 631,
      "ద్": 632,
      "भा": 633,
      "जि": 634,
      "from": 635,
      "ंग": 636,
      "री": 637,
      "said": 638,
      "యా": 639,
      "um": 640,
      "lo": 641,
      "te": 642,
      "mo": 643,
      "ార్": 644,
      "ther": 645,
      "కో": 646,
      "one": 647,
      "if": 648,
      "He": 649,
      "లా": 650,
      "ంగా": 651,
      "hi": 652,
      "ex": 653,
      "दा": 654,
      "inis": 655,
      "रि": 656,
      "सम": 657,
      "सि": 658,
      "గు": 659,
      "igh": 660,
      "द्": 661,
      "ity": 662,
      "दी": 663,
      "्ट": 664,
      "00": 665,
      "ess": 666,
      "సం": 667,
      "अप": 668,
      "ong": 669,
      "we": 670,
      "po": 671,
      "India": 672,
      "లే": 673,
      "ంలో": 674,
      "कहा": 675,
      "भार": 676,
      "పా": 677,
      "हम": 678,
      "డా": 679,
      "పో": 680,
      "ction": 681,
      "ial": 682,
      "out": 683,
      "देश": 684,
      "मं": 685,
      "been": 686,
      "oun": 687,
      "per": 688,
      "धि": 689,
      "Th": 690,
      "also": 691,
      "पु": 692,
      "रह": 693,
      "డ్": 694,
      "తో": 695,
      "iv": 696,
      "por": 697,
      "जी": 698,
      "స్తు": 699,
      "త్ర": 700,
      "शा": 701,
      "up": 702,
      "यह": 703,
      "पू": 704,
      "న్నారు": 705,
      "ive": 706,
      "du": 707,
      "you": 708,
      "మి": 709,
      "सर": 710,
      "ant": 711,
      "్యా": 712,
      "న్ని": 713,
      "qu": 714,
      "end": 715,
      "करने": 716,
      "ంట": 717,
      "चा": 718,
      "wor": 719,
      "उन": 720,
      "కొ": 721,
      "ష్": 722,
      "मे": 723,
      "रू": 724,
      "न्ह": 725,
      "हि": 726,
      "ud": 727,
      "ef": 728,
      "fe": 729,
      "ard": 730,
      "ist": 731,
      "In": 732,
      "श्": 733,
      "దే": 734,
      "19": 735,
      "inister": 736,
      "वे": 737,
      "చ్": 738,
      "క్ష": 739,
      "्री": 740,
      "ah": 741,
      "पी": 742,
      "ould": 743,
      "गया": 744,
      "pol": 745,
      "मी": 746,
      "man": 747,
      "वार": 748,
      "सु": 749,
      "av": 750,
      "కే": 751,
      "were": 752,
      "ये": 753,
      "గ్": 754,
      "న్నా": 755,
      "ించి": 756,
      "राज": 757,
      "ress": 758,
      "దా": 759,
      "जो": 760,
      "dis": 761,
      "inc": 762,
      "వు": 763,
      "उन्ह": 764,
      "उस": 765,
      "ang": 766,
      "fil": 767,
      "part": 768,
      "रे": 769,
      "ire": 770,
      "వే": 771,
      "मंत्र": 772,
      "sp": 773,
      "cas": 774,
      "बी": 775,
      "रो": 776,
      "ure": 777,
      "टी": 778,
      "कु": 779,
      "తా": 780,
      "ated": 781,
      "ind": 782,
      "ian": 783,
      "साथ": 784,
      "యు": 785,
      "ందు": 786,
      "overn": 787,
      "రో": 788,
      "do": 789,
      "ime": 790,
      "Ch": 791,
      "తె": 792,
      "ident": 793,
      "కూ": 794,
      "Pr": 795,
      "gh": 796,
      "ke": 797,
      "ंड": 798,
      "నికి": 799,
      "సా": 800,
      "und": 801,
      "तो": 802,
      "Wh": 803,
      "act": 804,
      "अन": 805,
      "स्ट": 806,
      "em": 807,
      "\"\"\"": 808,
      "port": 809,
      "ండ": 810,
      "had": 811,
      "day": 812,
      "లీ": 813,
      "నీ": 814,
      "ous": 815,
      "वी": 816,
      "ear": 817,
      "शि": 818,
      "పి": 819,
      "Minister": 820,
      "It": 821,
      "तु": 822,
      "మె": 823,
      "af": 824,
      "తీ": 825,
      "మీ": 826,
      "overnment": 827,
      "ever": 828,
      "ok": 829,
      "పె": 830,
      "क्र": 831,
      "ach": 832,
      "టీ": 833,
      "तर": 834,
      "मान": 835,
      "म्": 836,
      "చె": 837,
      "aj": 838,
      "film": 839,
      "ष्ट": 840,
      "ore": 841,
      "med": 842,
      "ary": 843,
      "age": 844,
      "pr": 845,
      "फि": 846,
      "201": 847,
      "ंद": 848,
      "their": 849,
      "గి": 850,
      "ారి": 851,
      "ust": 852,
      "దీ": 853,
      "स्थ": 854,
      "off": 855,
      "लोग": 856,
      "పై": 857,
      "्या": 858,
      "ich": 859,
      "no": 860,
      "ारी": 861,
      "స్థ": 862,
      "Rs": 863,
      "मै": 864,
      "gr": 865,
      "wo": 866,
      "ord": 867,
      "శా": 868,
      "ip": 869,
      "वर्": 870,
      "ोंने": 871,
      "भारत": 872,
      "vi": 873,
      "वह": 874,
      "its": 875,
      "ence": 876,
      "ast": 877,
      "मंत्री": 878,
      "har": 879,
      "coun": 880,
      "ge": 881,
      "िक": 882,
      "ish": 883,
      "who": 884,
      "aw": 885,
      "any": 886,
      ".\"": 887,
      "them": 888,
      "ओं": 889,
      "दो": 890,
      "ll": 891,
      "ight": 892,
      "गे": 893,
      "క్క": 894,
      "ధి": 895,
      "This": 896,
      "can": 897,
      "మ్": 898,
      "ho": 899,
      "బా": 900,
      "ome": 901,
      "go": 902,
      "खा": 903,
      "au": 904,
      "सक": 905,
      "अधि": 906,
      "ide": 907,
      "रु": 908,
      "they": 909,
      "ైన": 910,
      "तक": 911,
      "बाद": 912,
      "ప్ప": 913,
      "ev": 914,
      "नों": 915,
      "ail": 916,
      "गी": 917,
      "వె": 918,
      "tak": 919,
      "पह": 920,
      "उन्होंने": 921,
      "ep": 922,
      "आई": 923,
      "दिया": 924,
      "్రి": 925,
      "ame": 926,
      "ople": 927,
      "ंध": 928,
      "other": 929,
      "ans": 930,
      "यो": 931,
      "try": 932,
      "న్‌": 933,
      "which": 934,
      "ज़": 935,
      "ath": 936,
      "ండి": 937,
      "अपने": 938,
      "చు": 939,
      "ib": 940,
      "mb": 941,
      "्रे": 942,
      "परि": 943,
      "ple": 944,
      "మో": 945,
      "ance": 946,
      "िया": 947,
      "reg": 948,
      "police": 949,
      "వీ": 950,
      "ank": 951,
      "St": 952,
      "ations": 953,
      "प्रति": 954,
      "లను": 955,
      "రె": 956,
      "ढ़": 957,
      "ష్ట": 958,
      "मो": 959,
      "ough": 960,
      "తే": 961,
      "ash": 962,
      "ack": 963,
      "రూ": 964,
      "ict": 965,
      "under": 966,
      "प्": 967,
      "च्": 968,
      "మే": 969,
      "थी": 970,
      "cl": 971,
      "ass": 972,
      "cent": 973,
      "10": 974,
      "యం": 975,
      "form": 976,
      "esh": 977,
      "ारे": 978,
      "ళ్": 979,
      "ंच": 980,
      "धान": 981,
      "now": 982,
      "ace": 983,
      "work": 984,
      "ల్లో": 985,
      "ition": 986,
      "ించారు": 987,
      "शन": 988,
      "ound": 989,
      "एस": 990,
      "ine": 991,
      "cted": 992,
      "people": 993,
      "ree": 994,
      "सरकार": 995,
      "But": 996,
      "ical": 997,
      "हुए": 998,
      "bo": 999,
      "चु": 1000,
      "there": 1001,
      "टे": 1002,
      "ater": 1003,
      "ంతో": 1004,
      "ult": 1005,
      "కూడా": 1006,
      "जब": 1007,
      "Indian": 1008,
      "ार्": 1009,
      "मिल": 1010,
      "JP": 1011,
      "able": 1012,
      "లకు": 1013,
      "पूर्": 1014,
      "government": 1015,
      "जन": 1016,
      "ట్ట": 1017,
      "We": 1018,
      "her": 1019,
      "sc": 1020,
      "इन": 1021,
      "కార": 1022,
      "pres": 1023,
      "ell": 1024,
      "again": 1025,
      "pos": 1026,
      "త్వ": 1027,
      "ru": 1028,
      "cial": 1029,
      "रहे": 1030,
      "As": 1031,
      "मुख": 1032,
      "ates": 1033,
      "BJP": 1034,
      "భార": 1035,
      "new": 1036,
      "ted": 1037,
      "ियों": 1038,
      "పీ": 1039,
      "త్త": 1040,
      "आप": 1041,
      "సీ": 1042,
      "ew": 1043,
      "ధా": 1044,
      "ర్‌": 1045,
      "him": 1046,
      "्रा": 1047,
      "comm": 1048,
      "बे": 1049,
      "state": 1050,
      "fir": 1051,
      "స్‌": 1052,
      "क्षा": 1053,
      "अनु": 1054,
      "शु": 1055,
      "निर्": 1056,
      "way": 1057,
      "ser": 1058,
      "two": 1059,
      "थे": 1060,
      "उप": 1061,
      "జా": 1062,
      "ctor": 1063,
      "old": 1064,
      "దేశ": 1065,
      "),": 1066,
      "జీ": 1067,
      "लिस": 1068,
      "जिस": 1069,
      "గ్ర": 1070,
      "bl": 1071,
      "మరి": 1072,
      "నిర్": 1073,
      "ade": 1074,
      "चि": 1075,
      "दर्": 1076,
      "ile": 1077,
      "पुलिस": 1078,
      "ఒక": 1079,
      "lead": 1080,
      "रूप": 1081,
      "acc": 1082,
      "vel": 1083,
      "Sing": 1084,
      "गई": 1085,
      "ign": 1086,
      "यु": 1087,
      "co": 1088,
      "ौर": 1089,
      "टर": 1090,
      "हर": 1091,
      "धार": 1092,
      "cro": 1093,
      "లేదు": 1094,
      "han": 1095,
      "चार": 1096,
      "योग": 1097,
      "ational": 1098,
      "case": 1099,
      "రం": 1100,
      "about": 1101,
      "cont": 1102,
      "pre": 1103,
      "ions": 1104,
      "fer": 1105,
      "सू": 1106,
      "ens": 1107,
      "ren": 1108,
      "..": 1109,
      "సిని": 1110,
      "राज्य": 1111,
      "att": 1112,
      "get": 1113,
      "बना": 1114,
      "after": 1115,
      "पि": 1116,
      "माम": 1117,
      "Singh": 1118,
      "భా": 1119,
      "iz": 1120,
      "కె": 1121,
      "50": 1122,
      "लो": 1123,
      "చేయ": 1124,
      "ప్పు": 1125,
      "12": 1126,
      "mar": 1127,
      "యన": 1128,
      "br": 1129,
      "ck": 1130,
      "रहा": 1131,
      "डी": 1132,
      "time": 1133,
      "बि": 1134,
      "ద్ద": 1135,
      "cr": 1136,
      "There": 1137,
      "low": 1138,
      "pp": 1139,
      "मौ": 1140,
      "red": 1141,
      "Cong": 1142,
      "डि": 1143,
      "जे": 1144,
      "పరి": 1145,
      "హా": 1146,
      "खि": 1147,
      "Sh": 1148,
      "दू": 1149,
      "సినిమా": 1150,
      "but": 1151,
      "against": 1152,
      "బ్": 1153,
      "Del": 1154,
      "लों": 1155,
      "Mod": 1156,
      "बै": 1157,
      "How": 1158,
      "लोगों": 1159,
      "mis": 1160,
      "तीय": 1161,
      "ele": 1162,
      "umb": 1163,
      "Congress": 1164,
      "year": 1165,
      "Raj": 1166,
      "ల్ల": 1167,
      "నం": 1168,
      "కీ": 1169,
      "कोई": 1170,
      "सब": 1171,
      "ital": 1172,
      "क्षे": 1173,
      "रही": 1174,
      "करते": 1175,
      "Delhi": 1176,
      "inv": 1177,
      "व्य": 1178,
      "वर": 1179,
      "వచ్": 1180,
      "స్త": 1181,
      "prov": 1182,
      "ंक": 1183,
      "मैं": 1184,
      "यर": 1185,
      "जाए": 1186,
      "డం": 1187,
      "कुछ": 1188,
      "first": 1189,
      "ons": 1190,
      "enc": 1191,
      "De": 1192,
      "ంటి": 1193,
      "je": 1194,
      "ick": 1195,
      "बंध": 1196,
      "చేసి": 1197,
      "inter": 1198,
      "మరియు": 1199,
      "उत्": 1200,
      "అయి": 1201,
      "యో": 1202,
      "ారా": 1203,
      "बात": 1204,
      "गु": 1205,
      "వ్య": 1206,
      "ally": 1207,
      "very": 1208,
      "తెలి": 1209,
      "They": 1210,
      "And": 1211,
      "ue": 1212,
      "लय": 1213,
      "एम": 1214,
      "thing": 1215,
      "ింగ్": 1216,
      "ాలి": 1217,
      "come": 1218,
      "spe": 1219,
      "ట్లు": 1220,
      "Modi": 1221,
      "ంచి": 1222,
      "Ar": 1223,
      "own": 1224,
      "्रीय": 1225,
      "my": 1226,
      "your": 1227,
      "बर": 1228,
      "ann": 1229,
      "ची": 1230,
      "ild": 1231,
      "వర్": 1232,
      "ంద్ర": 1233,
      "द्वार": 1234,
      "सिं": 1235,
      "Un": 1236,
      "used": 1237,
      "మైన": 1238,
      "ानी": 1239,
      "ied": 1240,
      "eng": 1241,
      "స్ట": 1242,
      "स्ता": 1243,
      "What": 1244,
      "would": 1245,
      "ంటు": 1246,
      "यू": 1247,
      "राष्ट": 1248,
      "oc": 1249,
      "జి": 1250,
      "ల్‌": 1251,
      "amil": 1252,
      "क्षेत्र": 1253,
      "cre": 1254,
      "किन": 1255,
      "इसके": 1256,
      "cur": 1257,
      "ful": 1258,
      "वं": 1259,
      "ब्": 1260,
      "న్నాయి": 1261,
      "An": 1262,
      "ఆయన": 1263,
      "ite": 1264,
      "गर": 1265,
      "రే": 1266,
      "गए": 1267,
      "उनके": 1268,
      "శ్": 1269,
      "कार्य": 1270,
      "like": 1271,
      "int": 1272,
      "द्वारा": 1273,
      "క్ర": 1274,
      "should": 1275,
      "వర": 1276,
      "ించిన": 1277,
      "మొ": 1278,
      "ai": 1279,
      "ase": 1280,
      "ధ్య": 1281,
      "comp": 1282,
      "क्त": 1283,
      "Pol": 1284,
      "टा": 1285,
      "శారు": 1286,
      "bet": 1287,
      "రాజ": 1288,
      "मह": 1289,
      "బి": 1290,
      "ced": 1291,
      "वाले": 1292,
      "సుకు": 1293,
      "All": 1294,
      "add": 1295,
      "uring": 1296,
      "ందుకు": 1297,
      "know": 1298,
      "ారం": 1299,
      "लिया": 1300,
      "ourt": 1301,
      "ध्य": 1302,
      "ities": 1303,
      "being": 1304,
      "తం": 1305,
      "రీ": 1306,
      "ष्": 1307,
      "ఇది": 1308,
      "किसी": 1309,
      "सिंह": 1310,
      "mon": 1311,
      "మార్": 1312,
      "play": 1313,
      "श्री": 1314,
      "వ్": 1315,
      "ake": 1316,
      "दु": 1317,
      "कों": 1318,
      "పోలీ": 1319,
      "ंत": 1320,
      "అత": 1321,
      "पार": 1322,
      "og": 1323,
      "पो": 1324,
      "ory": 1325,
      "ari": 1326,
      "సె": 1327,
      "पे": 1328,
      "लेकिन": 1329,
      "द्र": 1330,
      "offic": 1331,
      "बता": 1332,
      "प्रा": 1333,
      "14": 1334,
      "fore": 1335,
      "Com": 1336,
      "ci": 1337,
      "incl": 1338,
      "pers": 1339,
      "భు": 1340,
      "ased": 1341,
      "पहले": 1342,
      "tain": 1343,
      "लग": 1344,
      "सो": 1345,
      "ాలా": 1346,
      "15": 1347,
      "బు": 1348,
      "say": 1349,
      "more": 1350,
      "some": 1351,
      "produ": 1352,
      "ప్రా": 1353,
      "काम": 1354,
      "अपनी": 1355,
      "ड़ा": 1356,
      "भारतीय": 1357,
      "स्‍": 1358,
      "कै": 1359,
      "For": 1360,
      "ana": 1361,
      "मार": 1362,
      "what": 1363,
      "God": 1364,
      "mat": 1365,
      "into": 1366,
      "హి": 1367,
      "बढ़": 1368,
      "పూ": 1369,
      "పోలీసు": 1370,
      "మంత": 1371,
      "ya": 1372,
      "000": 1373,
      "ob": 1374,
      "कृ": 1375,
      "ఖ్య": 1376,
      "విష": 1377,
      "ज्": 1378,
      "मू": 1379,
      "रख": 1380,
      "మూ": 1381,
      "country": 1382,
      "pt": 1383,
      "तथा": 1384,
      "र्ट": 1385,
      "योज": 1386,
      "air": 1387,
      "str": 1388,
      "णा": 1389,
      "ంధ": 1390,
      "తన": 1391,
      "डा": 1392,
      "धा": 1393,
      "akh": 1394,
      "reat": 1395,
      "कर्": 1396,
      "made": 1397,
      "్రా": 1398,
      "शे": 1399,
      "Se": 1400,
      "than": 1401,
      "చిత్ర": 1402,
      "వారి": 1403,
      "आर": 1404,
      "ose": 1405,
      "అవ": 1406,
      "ఉంది": 1407,
      "వై": 1408,
      "स्त": 1409,
      "vis": 1410,
      "भि": 1411,
      "did": 1412,
      "oy": 1413,
      "పే": 1414,
      "हां": 1415,
      "when": 1416,
      "స్థా": 1417,
      "बार": 1418,
      "బీ": 1419,
      "ents": 1420,
      "cess": 1421,
      "200": 1422,
      "ఆర్": 1423,
      "జు": 1424,
      "డీ": 1425,
      "పొ": 1426,
      "लगा": 1427,
      "जान": 1428,
      "దర్": 1429,
      "ma": 1430,
      "क्या": 1431,
      "शी": 1432,
      "करना": 1433,
      "vers": 1434,
      "velop": 1435,
      "30": 1436,
      "तरह": 1437,
      "నె": 1438,
      "ట్టు": 1439,
      "istan": 1440,
      "रुप": 1441,
      "Chi": 1442,
      "tal": 1443,
      "ట్‌": 1444,
      "ड़ी": 1445,
      "then": 1446,
      "द्य": 1447,
      "cond": 1448,
      "एवं": 1449,
      "crore": 1450,
      "So": 1451,
      "dire": 1452,
      "mit": 1453,
      "ంచ": 1454,
      "అని": 1455,
      "read": 1456,
      "18": 1457,
      "adesh": 1458,
      "कारी": 1459,
      "होने": 1460,
      "mer": 1461,
      "जै": 1462,
      "చేశారు": 1463,
      "Police": 1464,
      "ved": 1465,
      "ss": 1466,
      "Chief": 1467,
      "ments": 1468,
      "मुख्य": 1469,
      "Mo": 1470,
      "while": 1471,
      "ctions": 1472,
      "मत": 1473,
      "itu": 1474,
      "far": 1475,
      "ating": 1476,
      "Re": 1477,
      "दान": 1478,
      "చూ": 1479,
      "రణ": 1480,
      "कह": 1481,
      "फी": 1482,
      "ise": 1483,
      "गि": 1484,
      "ices": 1485,
      "sel": 1486,
      "ఎం": 1487,
      "11": 1488,
      "करें": 1489,
      "gu": 1490,
      "చాలా": 1491,
      "rel": 1492,
      "Af": 1493,
      "Prime": 1494,
      "ph": 1495,
      "సే": 1496,
      "these": 1497,
      "ప్రభు": 1498,
      "चे": 1499,
      "ट्र": 1500,
      "distr": 1501,
      "led": 1502,
      "बहु": 1503,
      "తర": 1504,
      "She": 1505,
      "जू": 1506,
      "urn": 1507,
      "फिल्": 1508,
      "ting": 1509,
      "एं": 1510,
      "ద్య": 1511,
      "यन": 1512,
      "need": 1513,
      "many": 1514,
      "Pak": 1515,
      "ंग्रे": 1516,
      "खिला": 1517,
      "ty": 1518,
      "present": 1519,
      "बो": 1520,
      "invest": 1521,
      "మంత్రి": 1522,
      "चाहि": 1523,
      "उन्हें": 1524,
      "ats": 1525,
      "टि": 1526,
      "सभी": 1527,
      "అధి": 1528,
      "ఫ్": 1529,
      "दिल्": 1530,
      "Mah": 1531,
      "pur": 1532,
      "sion": 1533,
      "इं": 1534,
      "such": 1535,
      "यम": 1536,
      "भू": 1537,
      "ణా": 1538,
      "हुआ": 1539,
      "मामले": 1540,
      "happ": 1541,
      "high": 1542,
      "issu": 1543,
      "ener": 1544,
      "రిగి": 1545,
      "ont": 1546,
      "र्थ": 1547,
      "होगा": 1548,
      "la": 1549,
      "सद": 1550,
      "ంటే": 1551,
      "fin": 1552,
      "సమ": 1553,
      "ister": 1554,
      "हुई": 1555,
      "ించింది": 1556,
      "ors": 1557,
      "जु": 1558,
      "leg": 1559,
      "ral": 1560,
      "మంది": 1561,
      "rest": 1562,
      "arn": 1563,
      "les": 1564,
      "జే": 1565,
      "ట్టి": 1566,
      "three": 1567,
      "hel": 1568,
      "spital": 1569,
      "चाहिए": 1570,
      "खु": 1571,
      "पै": 1572,
      "भाग": 1573,
      "ween": 1574,
      "तुम": 1575,
      "land": 1576,
      "ंप": 1577,
      "ings": 1578,
      "కానీ": 1579,
      "incident": 1580,
      "ఉన్న": 1581,
      "als": 1582,
      "समय": 1583,
      "తోంది": 1584,
      "స్తున్నారు": 1585,
      "between": 1586,
      "No": 1587,
      "tra": 1588,
      "జ్": 1589,
      "అయితే": 1590,
      "Pakistan": 1591,
      "how": 1592,
      "take": 1593,
      "ject": 1594,
      "only": 1595,
      "set": 1596,
      "प्रधान": 1597,
      "कम": 1598,
      "पास": 1599,
      "New": 1600,
      "main": 1601,
      "ik": 1602,
      "meet": 1603,
      "शामिल": 1604,
      "cer": 1605,
      "well": 1606,
      "कांग्रे": 1607,
      "taken": 1608,
      "cap": 1609,
      "ubl": 1610,
      "एन": 1611,
      "फा": 1612,
      "स्था": 1613,
      "दिल्ली": 1614,
      "Pradesh": 1615,
      "gan": 1616,
      "ures": 1617,
      "టన": 1618,
      "dec": 1619,
      "రాష్ట": 1620,
      "resident": 1621,
      "However": 1622,
      "ोड़": 1623,
      "ारा": 1624,
      "कांग्रेस": 1625,
      "giv": 1626,
      "पति": 1627,
      "అను": 1628,
      "क्ति": 1629,
      "ness": 1630,
      "पूर्व": 1631,
      "thr": 1632,
      "सकता": 1633,
      "national": 1634,
      "यी": 1635,
      "ఉండ": 1636,
      "वर्ष": 1637,
      "फिल्म": 1638,
      "अव": 1639,
      "कई": 1640,
      "ink": 1641,
      "Man": 1642,
      "हू": 1643,
      "ज्ञ": 1644,
      "during": 1645,
      "row": 1646,
      "క్కు": 1647,
      "ower": 1648,
      "కేసు": 1649,
      "17": 1650,
      "वन": 1651,
      "मोदी": 1652,
      "Ad": 1653,
      "Government": 1654,
      "famil": 1655,
      "छा": 1656,
      "सह": 1657,
      "శ్ర": 1658,
      "includ": 1659,
      "प्रदेश": 1660,
      "डे": 1661,
      "mu": 1662,
      "पहु": 1663,
      "టె": 1664,
      "alth": 1665,
      "्यू": 1666,
      "she": 1667,
      "पुर": 1668,
      "official": 1669,
      "ry": 1670,
      "फो": 1671,
      "्‍": 1672,
      "సమా": 1673,
      "ured": 1674,
      "फिर": 1675,
      "lakh": 1676,
      "స్తా": 1677,
      "13": 1678,
      "Is": 1679,
      "विश्": 1680,
      "der": 1681,
      "En": 1682,
      "hand": 1683,
      "oth": 1684,
      "టా": 1685,
      "ship": 1686,
      "every": 1687,
      "పోలీసులు": 1688,
      "चल": 1689,
      "ited": 1690,
      "देख": 1691,
      "बीच": 1692,
      "where": 1693,
      "बहुत": 1694,
      "ड़े": 1695,
      "You": 1696,
      "दौर": 1697,
      "ters": 1698,
      "16": 1699,
      "ward": 1700,
      "ప్రధా": 1701,
      "ause": 1702,
      "ces": 1703,
      "డానికి": 1704,
      "ask": 1705,
      "न्या": 1706,
      "अन्य": 1707,
      "ప్రభుత్వ": 1708,
      "बु": 1709,
      "world": 1710,
      "अधिक": 1711,
      "25": 1712,
      "Ram": 1713,
      "Su": 1714,
      "निक": 1715,
      "जाने": 1716,
      "जाता": 1717,
      "ాలను": 1718,
      "రుగు": 1719,
      "tem": 1720,
      "अं": 1721,
      "केंद": 1722,
      "ution": 1723,
      "प्रधानमंत्री": 1724,
      "योजना": 1725,
      "24": 1726,
      "చర్": 1727,
      "those": 1728,
      "inj": 1729,
      "ush": 1730,
      "सकते": 1731,
      "col": 1732,
      "త్య": 1733,
      "rec": 1734,
      "పార్": 1735,
      "ులు": 1736,
      "ollow": 1737,
      "गो": 1738,
      "ata": 1739,
      "minister": 1740,
      "खे": 1741,
      "रक्षा": 1742,
      "య్య": 1743,
      "स्व": 1744,
      "द्ध": 1745,
      "किए": 1746,
      "cho": 1747,
      "memb": 1748,
      "बताया": 1749,
      "rit": 1750,
      "భి": 1751,
      "विका": 1752,
      "्टी": 1753,
      "State": 1754,
      "आरो": 1755,
      "पर्": 1756,
      "क्यों": 1757,
      "Pro": 1758,
      "नाव": 1759,
      "స్తున్న": 1760,
      "दोनों": 1761,
      "dif": 1762,
      "फ्": 1763,
      "వ్యా": 1764,
      "chang": 1765,
      "ించు": 1766,
      "उसे": 1767,
      "कॉ": 1768,
      "हत": 1769,
      "हों": 1770,
      "కలి": 1771,
      "మన": 1772,
      "rele": 1773,
      "వాత": 1774,
      "Al": 1775,
      "కర": 1776,
      "నుంచి": 1777,
      "ట్ల": 1778,
      "फ़": 1779,
      "बारे": 1780,
      "char": 1781,
      "child": 1782,
      "mark": 1783,
      "fl": 1784,
      "test": 1785,
      "मन": 1786,
      "हे": 1787,
      "ండ్": 1788,
      "chi": 1789,
      "wom": 1790,
      "good": 1791,
      "ప్పటి": 1792,
      "కోవ": 1793,
      "स्तान": 1794,
      "राष्ट्र": 1795,
      "उसके": 1796,
      "Nare": 1797,
      "stand": 1798,
      "serv": 1799,
      "through": 1800,
      "विकास": 1801,
      "दार": 1802,
      "కం": 1803,
      "హో": 1804,
      "क्स": 1805,
      "most": 1806,
      "President": 1807,
      "put": 1808,
      "रुपये": 1809,
      "fa": 1810,
      "here": 1811,
      "गत": 1812,
      "ग्र": 1813,
      "అంత": 1814,
      "करता": 1815,
      "develop": 1816,
      "न्न": 1817,
      "sub": 1818,
      "దర్శ": 1819,
      "sy": 1820,
      "కాల": 1821,
      "life": 1822,
      "umar": 1823,
      "sha": 1824,
      "तार": 1825,
      "ific": 1826,
      "పాటు": 1827,
      "even": 1828,
      "hospital": 1829,
      "numb": 1830,
      "stud": 1831,
      "see": 1832,
      "నేను": 1833,
      "क्रम": 1834,
      "bod": 1835,
      "car": 1836,
      "fic": 1837,
      "start": 1838,
      "త్రి": 1839,
      "icket": 1840,
      "दौरान": 1841,
      "ms": 1842,
      "press": 1843,
      "ंत्र": 1844,
      "ఇం": 1845,
      "వారు": 1846,
      "ndra": 1847,
      "ible": 1848,
      "report": 1849,
      "ves": 1850,
      "ative": 1851,
      "oper": 1852,
      "pect": 1853,
      "उनकी": 1854,
      "Cent": 1855,
      "धन": 1856,
      "सभा": 1857,
      "లక్ష": 1858,
      "person": 1859,
      "धी": 1860,
      "అనే": 1861,
      "भाव": 1862,
      "party": 1863,
      "Shri": 1864,
      "రాష్ట్ర": 1865,
      "min": 1866,
      "सान": 1867,
      "resp": 1868,
      "संबंध": 1869,
      "kill": 1870,
      "const": 1871,
      "మని": 1872,
      "पाकि": 1873,
      "కాం": 1874,
      "పూర్": 1875,
      "खिलाफ": 1876,
      "Narendra": 1877,
      "cause": 1878,
      "last": 1879,
      "त्य": 1880,
      "అంద": 1881,
      "register": 1882,
      "ious": 1883,
      "జె": 1884,
      "US": 1885,
      "इंड": 1886,
      "मद": 1887,
      "ముఖ్య": 1888,
      "back": 1889,
      "war": 1890,
      "సో": 1891,
      "न्‍": 1892,
      "ins": 1893,
      "cus": 1894,
      "వల": 1895,
      "भाज": 1896,
      "vie": 1897,
      "dy": 1898,
      "ix": 1899,
      "nt": 1900,
      "नाम": 1901,
      "झे": 1902,
      "ఆమె": 1903,
      "ించా": 1904,
      "post": 1905,
      "Gand": 1906,
      "cle": 1907,
      "స్ప": 1908,
      "ublic": 1909,
      "PM": 1910,
      "ave": 1911,
      "des": 1912,
      "दिन": 1913,
      "media": 1914,
      "ati": 1915,
      "ics": 1916,
      "ప్రతి": 1917,
      "त्व": 1918,
      "just": 1919,
      "long": 1920,
      "लन": 1921,
      "ఉంటు": 1922,
      "డే": 1923,
      "లోని": 1924,
      "ular": 1925,
      "స్తుంది": 1926,
      "लेकर": 1927,
      "कारण": 1928,
      "होता": 1929,
      "చెప్ప": 1930,
      "ble": 1931,
      "down": 1932,
      "power": 1933,
      "स्थान": 1934,
      "came": 1935,
      "ving": 1936,
      "ఎస్": 1937,
      "న్నాడు": 1938,
      "ways": 1939,
      "On": 1940,
      "could": 1941,
      "fr": 1942,
      "करा": 1943,
      "help": 1944,
      "Sha": 1945,
      "वै": 1946,
      "షన్": 1947,
      "ond": 1948,
      "लै": 1949,
      "पूर्ण": 1950,
      "चित": 1951,
      "ala": 1952,
      "वाई": 1953,
      "ared": 1954,
      "కోసం": 1955,
      "शुरू": 1956,
      "भाजपा": 1957,
      "four": 1958,
      "tar": 1959,
      "sup": 1960,
      "movie": 1961,
      "Ex": 1962,
      "cor": 1963,
      "lar": 1964,
      "బంధ": 1965,
      "ched": 1966,
      "registered": 1967,
      "follow": 1968,
      "ten": 1969,
      "ised": 1970,
      "accused": 1971,
      "investig": 1972,
      "family": 1973,
      "chief": 1974,
      "ven": 1975,
      "घा": 1976,
      "पता": 1977,
      "सार": 1978,
      "యూ": 1979,
      "సూ": 1980,
      "ism": 1981,
      "करण": 1982,
      "does": 1983,
      "call": 1984,
      "निया": 1985,
      "...": 1986,
      "ప్పుడు": 1987,
      "जारी": 1988,
      "ठा": 1989,
      "प्त": 1990,
      "सबसे": 1991,
      "Kumar": 1992,
      "Me": 1993,
      "ండు": 1994,
      "नेता": 1995,
      "चुनाव": 1996,
      "కల": 1997,
      "ందని": 1998,
      "తుంది": 1999,
      "ాలని": 2000,
      "place": 2001,
      "loc": 2002,
      "Khan": 2003,
      "फै": 2004,
      "शो": 2005,
      "arrest": 2006,
      "सम्": 2007,
      "amp": 2008,
      "ద్ధ": 2009,
      ").": 2010,
      "water": 2011,
      "cons": 2012,
      "order": 2013,
      "years": 2014,
      "run": 2015,
      "ంబ": 2016,
      "గే": 2017,
      "reas": 2018,
      "नीति": 2019,
      "वो": 2020,
      "indu": 2021,
      "जांच": 2022,
      "देने": 2023,
      "district": 2024,
      "Gandhi": 2025,
      "Je": 2026,
      "ख़": 2027,
      "ouse": 2028,
      "cases": 2029,
      "Tr": 2030,
      "घट": 2031,
      "चना": 2032,
      "గో": 2033,
      "టర్": 2034,
      "arch": 2035,
      "తెలు": 2036,
      "court": 2037,
      "pri": 2038,
      "सर्": 2039,
      "సర": 2040,
      "inst": 2041,
      "app": 2042,
      "समा": 2043,
      "वाली": 2044,
      "తున్న": 2045,
      "2020": 2046,
      "team": 2047,
      "number": 2048,
      "21": 2049,
      "ged": 2050,
      "jay": 2051,
      "पं": 2052,
      "olog": 2053,
      "క్‌": 2054,
      "साम": 2055,
      "look": 2056,
      "law": 2057,
      "may": 2058,
      "గొ": 2059,
      "bu": 2060,
      "అది": 2061,
      "దల": 2062,
      "death": 2063,
      "లాంటి": 2064,
      ",\"\"": 2065,
      "Par": 2066,
      "make": 2067,
      "ual": 2068,
      "जाएगा": 2069,
      "par": 2070,
      "turn": 2071,
      "క్రి": 2072,
      "ided": 2073,
      "वाद": 2074,
      "abad": 2075,
      "quest": 2076,
      "polit": 2077,
      "च्च": 2078,
      "పారు": 2079,
      "सेवा": 2080,
      "Court": 2081,
      "सन": 2082,
      "కర్": 2083,
      "అధిక": 2084,
      "mand": 2085,
      "महि": 2086,
      "टीम": 2087,
      "రోజు": 2088,
      "अध्य": 2089,
      "आज": 2090,
      "2019": 2091,
      "కాదు": 2092,
      "inistry": 2093,
      "तीन": 2094,
      "exam": 2095,
      "fo": 2096,
      "mak": 2097,
      "oh": 2098,
      "ंगा": 2099,
      "ఉన్నాయి": 2100,
      "శి": 2101,
      "today": 2102,
      "దీని": 2103,
      "self": 2104,
      "ural": 2105,
      "shall": 2106,
      "కార్య": 2107,
      "एल": 2108,
      "social": 2109,
      "దీంతో": 2110,
      "చేసిన": 2111,
      "ఘటన": 2112,
      "బ్యా": 2113,
      "ision": 2114,
      "ese": 2115,
      "త్‌": 2116,
      "स्थि": 2117,
      "view": 2118,
      "कू": 2119,
      "कंप": 2120,
      "బె": 2121,
      "star": 2122,
      "ought": 2123,
      "Tel": 2124,
      "ंकि": 2125,
      "ంగ": 2126,
      "్‌": 2127,
      "mission": 2128,
      "शेष": 2129,
      "बद": 2130,
      "रत": 2131,
      "ants": 2132,
      "import": 2133,
      "पार्टी": 2134,
      "यल": 2135,
      "రై": 2136,
      "पाकिस्तान": 2137,
      "sur": 2138,
      "बन": 2139,
      "ale": 2140,
      "Shar": 2141,
      "mir": 2142,
      "జరిగి": 2143,
      "before": 2144,
      "ired": 2145,
      "మీరు": 2146,
      "क्रि": 2147,
      "hov": 2148,
      "both": 2149,
      "लोक": 2150,
      "head": 2151,
      "మాత్ర": 2152,
      "mers": 2153,
      "బో": 2154,
      "road": 2155,
      "करोड़": 2156,
      "injured": 2157,
      "vari": 2158,
      "गठ": 2159,
      "केट": 2160,
      "करे": 2161,
      "విజ": 2162,
      "Jehov": 2163,
      "40": 2164,
      "mor": 2165,
      "बल": 2166,
      "यक": 2167,
      "కార్": 2168,
      "ility": 2169,
      "కేంద్ర": 2170,
      "augh": 2171,
      "Jehovah": 2172,
      "Go": 2173,
      "lim": 2174,
      "pass": 2175,
      "లలో": 2176,
      "हाला": 2177,
      "aim": 2178,
      "sto": 2179,
      "యె": 2180,
      "ించే": 2181,
      "नियम": 2182,
      "इससे": 2183,
      "च्छ": 2184,
      "ber": 2185,
      "ie": 2186,
      "ऐसा": 2187,
      "ended": 2188,
      "భారత": 2189,
      "दर्ज": 2190,
      "राष्ट्रीय": 2191,
      "month": 2192,
      "ready": 2193,
      "आरोप": 2194,
      "body": 2195,
      "Do": 2196,
      "ivers": 2197,
      "ric": 2198,
      "ंट": 2199,
      "अभि": 2200,
      "too": 2201,
      "लाख": 2202,
      "going": 2203,
      "cret": 2204,
      "70": 2205,
      "బడి": 2206,
      "షి": 2207,
      "मुझे": 2208,
      "given": 2209,
      "పార్టీ": 2210,
      "differ": 2211,
      "जय": 2212,
      "apo": 2213,
      "जिन": 2214,
      "Union": 2215,
      "meeting": 2216,
      ".\"\"\"": 2217,
      "नर": 2218,
      "సై": 2219,
      "ेंगे": 2220,
      "beli": 2221,
      "tru": 2222,
      "chool": 2223,
      "ax": 2224,
      "ऐसे": 2225,
      "डॉ": 2226,
      "role": 2227,
      "माण": 2228,
      "ports": 2229,
      "contin": 2230,
      "द्योग": 2231,
      "ఉంటుంది": 2232,
      "100": 2233,
      "men": 2234,
      "sing": 2235,
      "xt": 2236,
      "जार": 2237,
      "भे": 2238,
      "పం": 2239,
      "మహ": 2240,
      "took": 2241,
      "करी": 2242,
      "peri": 2243,
      "each": 2244,
      "jo": 2245,
      "ट्": 2246,
      "inn": 2247,
      "నుండి": 2248,
      "spot": 2249,
      "formation": 2250,
      "युक्त": 2251,
      "Red": 2252,
      "तै": 2253,
      "यत": 2254,
      "लत": 2255,
      "स्वा": 2256,
      "among": 2257,
      "semb": 2258,
      "क्षण": 2259,
      "हूं": 2260,
      "clo": 2261,
      "अब": 2262,
      "दर": 2263,
      "క్తి": 2264,
      "చేసుకు": 2265,
      "पहुंच": 2266,
      "Con": 2267,
      "National": 2268,
      "Rah": 2269,
      "आधार": 2270,
      "मार्": 2271,
      "నమో": 2272,
      "వహ": 2273,
      "్యూ": 2274,
      "ages": 2275,
      "समझ": 2276,
      "ording": 2277,
      "Bank": 2278,
      "ft": 2279,
      "uk": 2280,
      "use": 2281,
      "అభి": 2282,
      "చా": 2283,
      "పర్": 2284,
      "मुख्यमंत्री": 2285,
      "king": 2286,
      "యే": 2287,
      "लॉ": 2288,
      "మృ": 2289,
      "reach": 2290,
      "विक": 2291,
      "చ్చి": 2292,
      "BI": 2293,
      "మ్మ": 2294,
      "happen": 2295,
      "22": 2296,
      "Gu": 2297,
      "wal": 2298,
      "लू": 2299,
      "oup": 2300,
      "sever": 2301,
      "ext": 2302,
      "Act": 2303,
      "Pun": 2304,
      "hold": 2305,
      "held": 2306,
      "कान": 2307,
      "conom": 2308,
      "80": 2309,
      "stem": 2310,
      "इसमें": 2311,
      "पोर्ट": 2312,
      "ंस": 2313,
      "నూ": 2314,
      "వారా": 2315,
      "प्रे": 2316,
      "क्रिया": 2317,
      "including": 2318,
      "महिला": 2319,
      "एफ": 2320,
      "क़": 2321,
      "नो": 2322,
      "సభ": 2323,
      "plain": 2324,
      "Chand": 2325,
      "MP": 2326,
      "ालय": 2327,
      "ఫి": 2328,
      "परा": 2329,
      "आत": 2330,
      "इसे": 2331,
      "organ": 2332,
      "sure": 2333,
      "Kash": 2334,
      "Sab": 2335,
      "fac": 2336,
      "want": 2337,
      "अमे": 2338,
      "లతో": 2339,
      "rol": 2340,
      "सुरक्षा": 2341,
      "partic": 2342,
      "bus": 2343,
      "nor": 2344,
      "son": 2345,
      "val": 2346,
      "टो": 2347,
      "పని": 2348,
      "second": 2349,
      "ంటా": 2350,
      "స్థి": 2351,
      "gram": 2352,
      "rece": 2353,
      "tern": 2354,
      "గ్రె": 2355,
      "जैसे": 2356,
      "same": 2357,
      "మై": 2358,
      "మధ్య": 2359,
      "र्ड": 2360,
      "found": 2361,
      "ग्रा": 2362,
      "जर": 2363,
      "वज": 2364,
      "comple": 2365,
      "्यादा": 2366,
      "జేపీ": 2367,
      "కాంగ్రె": 2368,
      "रण": 2369,
      "కృ": 2370,
      "क्‍": 2371,
      "विशेष": 2372,
      "ency": 2373,
      "support": 2374,
      "arrested": 2375,
      "घटना": 2376,
      "sembly": 2377,
      "His": 2378,
      "got": 2379,
      "ince": 2380,
      "soci": 2381,
      "show": 2382,
      "रिया": 2383,
      "हमारे": 2384,
      "अधिकार": 2385,
      "बैंक": 2386,
      "తెలిపారు": 2387,
      "ప్రభుత్వం": 2388,
      "Ministry": 2389,
      "ben": 2390,
      "कता": 2391,
      "ద్ర": 2392,
      "chn": 2393,
      "भाष": 2394,
      "leaders": 2395,
      "children": 2396,
      "ina": 2397,
      "formed": 2398,
      "సిన": 2399,
      "గుర": 2400,
      "सरे": 2401,
      "సాధ": 2402,
      "Co": 2403,
      "हन": 2404,
      "ఎన్ని": 2405,
      "యంలో": 2406,
      "శం": 2407,
      "వచ్చు": 2408,
      "curity": 2409,
      "अगर": 2410,
      "यार": 2411,
      "తంగా": 2412,
      "ेंद्र": 2413,
      "सेना": 2414,
      "ploy": 2415,
      "ద్వారా": 2416,
      "rent": 2417,
      "विश्व": 2418,
      "अध्यक्ष": 2419,
      "23": 2420,
      "99": 2421,
      "IC": 2422,
      "cy": 2423,
      "థి": 2424,
      "నాలు": 2425,
      "चाह": 2426,
      "तुम्": 2427,
      "अभी": 2428,
      "ట్ర": 2429,
      "వం": 2430,
      "ాలు": 2431,
      "andid": 2432,
      "former": 2433,
      "announ": 2434,
      "क्योंकि": 2435,
      "Kashmir": 2436,
      "घर": 2437,
      "घो": 2438,
      "शत": 2439,
      "గం": 2440,
      "ament": 2441,
      "श्‍": 2442,
      "बढ़ा": 2443,
      "బీజేపీ": 2444,
      "स्थिति": 2445,
      "अमेरि": 2446,
      "Its": 2447,
      "టో": 2448,
      "यालय": 2449,
      "मंत्रालय": 2450,
      "sent": 2451,
      "हित": 2452,
      "విధ": 2453,
      "త్స": 2454,
      "पिछ": 2455,
      "ior": 2456,
      "sm": 2457,
      "टन": 2458,
      "iness": 2459,
      "health": 2460,
      "trans": 2461,
      "भूमि": 2462,
      "राष्ट्रपति": 2463,
      "आए": 2464,
      "इस्": 2465,
      "उम्": 2466,
      "महा": 2467,
      "ారణ": 2468,
      "साल": 2469,
      "తులు": 2470,
      "eld": 2471,
      "attack": 2472,
      "laun": 2473,
      "्ड": 2474,
      "ety": 2475,
      "soon": 2476,
      "Bo": 2477,
      "दों": 2478,
      "हमें": 2479,
      "పడి": 2480,
      "ort": 2481,
      "urther": 2482,
      "अपना": 2483,
      "2017": 2484,
      "बैठ": 2485,
      "After": 2486,
      "Rahul": 2487,
      "fact": 2488,
      "na": 2489,
      "तहत": 2490,
      "सै": 2491,
      "ండా": 2492,
      "యొ": 2493,
      "స్తోంది": 2494,
      "त्रा": 2495,
      "fect": 2496,
      "days": 2497,
      "క్కడ": 2498,
      "vir": 2499,
      "सला": 2500,
      "ణి": 2501,
      "హై": 2502,
      "ered": 2503,
      "राम": 2504,
      "coming": 2505,
      "leader": 2506,
      "गिर": 2507,
      "Ac": 2508,
      "Kapo": 2509,
      "hu": 2510,
      "mot": 2511,
      "public": 2512,
      "won": 2513,
      "अला": 2514,
      "సంద": 2515,
      "ani": 2516,
      "ides": 2517,
      "ప్రక": 2518,
      "సంబంధ": 2519,
      "తీసుకు": 2520,
      "wood": 2521,
      "ideo": 2522,
      "ళ్ల": 2523,
      "umbai": 2524,
      "క్కువ": 2525,
      "Sabha": 2526,
      "aid": 2527,
      "lit": 2528,
      "remain": 2529,
      "avail": 2530,
      "तुम्ह": 2531,
      "Mumbai": 2532,
      "jab": 2533,
      "ध्या": 2534,
      "नई": 2535,
      "वान": 2536,
      "అందు": 2537,
      "హీ": 2538,
      "संख": 2539,
      "పోయి": 2540,
      "due": 2541,
      "book": 2542,
      "Allah": 2543,
      "శ్రీ": 2544,
      "ప్రధాన": 2545,
      "gest": 2546,
      "ంట్": 2547,
      "वाला": 2548,
      "project": 2549,
      "मौत": 2550,
      "व्यक्ति": 2551,
      "sed": 2552,
      "जल": 2553,
      "वल": 2554,
      "व्या": 2555,
      "అర్": 2556,
      "ఇప్పటి": 2557,
      "ణం": 2558,
      "ప్రజ": 2559,
      "డియా": 2560,
      "కొత్త": 2561,
      "president": 2562,
      "Shah": 2563,
      "भर": 2564,
      "అలా": 2565,
      "వృ": 2566,
      "प्रतिशत": 2567,
      "जबकि": 2568,
      "Kapoor": 2569,
      "If": 2570,
      "Mal": 2571,
      "Mar": 2572,
      "bank": 2573,
      "sen": 2574,
      "बल्": 2575,
      "ఆరో": 2576,
      "నేత": 2577,
      "ives": 2578,
      "कुमार": 2579,
      "परिवार": 2580,
      "members": 2581,
      "26": 2582,
      "GB": 2583,
      "Vi": 2584,
      "grow": 2585,
      "తరు": 2586,
      "ఫో": 2587,
      "మరో": 2588,
      "న్స్": 2589,
      "వచ్చి": 2590,
      "eneral": 2591,
      "Le": 2592,
      "Wor": 2593,
      "पत्": 2594,
      "श्य": 2595,
      "తర్": 2596,
      "तान": 2597,
      "ల్లా": 2598,
      "जीत": 2599,
      "मीद": 2600,
      "రెండు": 2601,
      "important": 2602,
      "Of": 2603,
      "great": 2604,
      "ror": 2605,
      "wit": 2606,
      "हार": 2607,
      "ुदा": 2608,
      "హె": 2609,
      "र्स": 2610,
      "seen": 2611,
      "ष्ठ": 2612,
      "फे": 2613,
      "olly": 2614,
      "incre": 2615,
      "हालांकि": 2616,
      "sign": 2617,
      "హు": 2618,
      "కులు": 2619,
      "प्रो": 2620,
      "साइ": 2621,
      "tries": 2622,
      "2018": 2623,
      "mber": 2624,
      "different": 2625,
      "candid": 2626,
      "gar": 2627,
      "दन": 2628,
      "यहां": 2629,
      "लं": 2630,
      "another": 2631,
      "matter": 2632,
      "Cha": 2633,
      "action": 2634,
      "econom": 2635,
      "right": 2636,
      "తొ": 2637,
      "प्रमुख": 2638,
      "प्रदर्": 2639,
      "ల్లీ": 2640,
      "That": 2641,
      "ప్రాంత": 2642,
      "others": 2643,
      "cretary": 2644,
      "Punjab": 2645,
      "अलावा": 2646,
      "bal": 2647,
      "gy": 2648,
      "less": 2649,
      "outh": 2650,
      "विधा": 2651,
      "train": 2652,
      "qual": 2653,
      "Mahar": 2654,
      "Pe": 2655,
      "done": 2656,
      "सके": 2657,
      "లె": 2658,
      "‘‘": 2659,
      "స్ట్": 2660,
      "ross": 2661,
      "imes": 2662,
      "సంగ": 2663,
      "తీయ": 2664,
      "regard": 2665,
      "High": 2666,
      "nam": 2667,
      "पक्ष": 2668,
      "తూ": 2669,
      "దం": 2670,
      "वास": 2671,
      "కోర్": 2672,
      "త్తం": 2673,
      "వరకు": 2674,
      "500": 2675,
      "hum": 2676,
      "vill": 2677,
      "नौ": 2678,
      "ife": 2679,
      "पिछले": 2680,
      "Shi": 2681,
      "ield": 2682,
      "आगे": 2683,
      "श्र": 2684,
      "అన్నారు": 2685,
      "ల్లి": 2686,
      "next": 2687,
      "जिसमें": 2688,
      "elections": 2689,
      "्‍य": 2690,
      "women": 2691,
      "development": 2692,
      "Sharma": 2693,
      "several": 2694,
      "28": 2695,
      "ek": 2696,
      "must": 2697,
      "video": 2698,
      "తమ": 2699,
      "विधान": 2700,
      "పెద్ద": 2701,
      "जूद": 2702,
      "ollywood": 2703,
      "CO": 2704,
      "Jam": 2705,
      "Res": 2706,
      "सित": 2707,
      "ప్రారం": 2708,
      "ute": 2709,
      "డ్డి": 2710,
      "దాని": 2711,
      "उम्मीद": 2712,
      "Te": 2713,
      "cation": 2714,
      "io": 2715,
      "line": 2716,
      "ran": 2717,
      "situ": 2718,
      "खान": 2719,
      "because": 2720,
      "ందిన": 2721,
      "ified": 2722,
      "देशों": 2723,
      "ology": 2724,
      "az": 2725,
      "died": 2726,
      "kar": 2727,
      "ఏమి": 2728,
      "requ": 2729,
      "काफी": 2730,
      "let": 2731,
      "ताओं": 2732,
      "imple": 2733,
      "process": 2734,
      "says": 2735,
      "ID": 2736,
      "light": 2737,
      "name": 2738,
      "अग": 2739,
      "अंत": 2740,
      "बॉ": 2741,
      "ఏర్": 2742,
      "వ‌": 2743,
      "ైనా": 2744,
      "thor": 2745,
      "total": 2746,
      "यान": 2747,
      "Why": 2748,
      "उत्तर": 2749,
      "మొద": 2750,
      "सदस्": 2751,
      "Eng": 2752,
      "Ut": 2753,
      "che": 2754,
      "later": 2755,
      "ination": 2756,
      "क्टर": 2757,
      "ప్రమా": 2758,
      "होती": 2759,
      "suc": 2760,
      "తీసు": 2761,
      "ंधी": 2762,
      "घोष": 2763,
      "फल": 2764,
      "పట్ట": 2765,
      "మం": 2766,
      "ists": 2767,
      "స్టు": 2768,
      "होगी": 2769,
      "उसने": 2770,
      "partment": 2771,
      "केंद्र": 2772,
      "60": 2773,
      "ling": 2774,
      "lot": 2775,
      "जग": 2776,
      "णी": 2777,
      "तरी": 2778,
      "सचि": 2779,
      "కల్": 2780,
      "around": 2781,
      "top": 2782,
      "स्वी": 2783,
      "cept": 2784,
      "విడు": 2785,
      "पूर": 2786,
      "स्थित": 2787,
      "killed": 2788,
      "యొక్క": 2789,
      "तौर": 2790,
      "हाल": 2791,
      "unity": 2792,
      "ately": 2793,
      "చేసింది": 2794,
      "ప్రారంభ": 2795,
      "Hy": 2796,
      "vict": 2797,
      "ओर": 2798,
      "ज्यादा": 2799,
      "ఖా": 2800,
      "agar": 2801,
      "love": 2802,
      "कुल": 2803,
      "commit": 2804,
      "engal": 2805,
      "వ్వ": 2806,
      "27": 2807,
      "35": 2808,
      "Bengal": 2809,
      "think": 2810,
      "sector": 2811,
      "विभाग": 2812,
      "वाल": 2813,
      "trib": 2814,
      "माल": 2815,
      "tee": 2816,
      "spir": 2817,
      "ajor": 2818,
      "ళ్ళ": 2819,
      "issue": 2820,
      "system": 2821,
      "నమోదు": 2822,
      "house": 2823,
      "अलग": 2824,
      "आव": 2825,
      "ఎవ": 2826,
      "కంగా": 2827,
      "reme": 2828,
      "परी": 2829,
      "मांग": 2830,
      "त्या": 2831,
      "ashtra": 2832,
      "claim": 2833,
      "directed": 2834,
      "list": 2835,
      "vot": 2836,
      "दम": 2837,
      "पद": 2838,
      "ones": 2839,
      "र्म": 2840,
      "area": 2841,
      "हमने": 2842,
      "मीर": 2843,
      "medi": 2844,
      "Reddy": 2845,
      "गांधी": 2846,
      "हिस्": 2847,
      "सूचना": 2848,
      "occas": 2849,
      "reported": 2850,
      "Mus": 2851,
      "Ra": 2852,
      "bro": 2853,
      "pet": 2854,
      "कल": 2855,
      "वहीं": 2856,
      "గల": 2857,
      "మారు": 2858,
      "షా": 2859,
      "real": 2860,
      "oney": 2861,
      "పాల్": 2862,
      "ived": 2863,
      "current": 2864,
      "At": 2865,
      "Bh": 2866,
      "One": 2867,
      "ఉప": 2868,
      "ines": 2869,
      "along": 2870,
      "become": 2871,
      "్యం": 2872,
      "इसका": 2873,
      "इसलिए": 2874,
      "दिखा": 2875,
      "చ్చ": 2876,
      "ज्ञान": 2877,
      "pend": 2878,
      "अल्": 2879,
      "तन": 2880,
      "నో": 2881,
      "వంటి": 2882,
      "प्रदान": 2883,
      "लिये": 2884,
      "विष": 2885,
      "ాలకు": 2886,
      "सीट": 2887,
      "వాటి": 2888,
      "पूरी": 2889,
      "word": 2890,
      "known": 2891,
      "available": 2892,
      "తర్వాత": 2893,
      "29": 2894,
      "Pl": 2895,
      "SP": 2896,
      "fall": 2897,
      "rain": 2898,
      "गै": 2899,
      "जरू": 2900,
      "సర్": 2901,
      "seats": 2902,
      "वित्": 2903,
      "conne": 2904,
      "accoun": 2905,
      "appe": 2906,
      "मेरे": 2907,
      "feat": 2908,
      "बनाने": 2909,
      "दूसरे": 2910,
      "started": 2911,
      "Uttar": 2912,
      "based": 2913,
      "कश्": 2914,
      "दारी": 2915,
      "కుండా": 2916,
      "్యు": 2917,
      "demand": 2918,
      "పాత్ర": 2919,
      "अधिकारी": 2920,
      "ized": 2921,
      "match": 2922,
      "phone": 2923,
      "various": 2924,
      "Sen": 2925,
      "ys": 2926,
      "अम": 2927,
      "चौ": 2928,
      "डिया": 2929,
      "फर": 2930,
      "అం": 2931,
      "aring": 2932,
      "ందే": 2933,
      "త్తి": 2934,
      "Sup": 2935,
      "jar": 2936,
      "tail": 2937,
      "अस्": 2938,
      "शल": 2939,
      "‌లో": 2940,
      "Chr": 2941,
      "countries": 2942,
      "much": 2943,
      "change": 2944,
      "చెప్పారు": 2945,
      "Dire": 2946,
      "Mad": 2947,
      "care": 2948,
      "छो": 2949,
      "पत्र": 2950,
      "ఢి": 2951,
      "దని": 2952,
      "ధర": 2953,
      "వ్ర": 2954,
      "alleg": 2955,
      "security": 2956,
      "విద్య": 2957,
      "proble": 2958,
      "riend": 2959,
      "group": 2960,
      "students": 2961,
      "लैंड": 2962,
      "IP": 2963,
      "bir": 2964,
      "yet": 2965,
      "ఇండి": 2966,
      "already": 2967,
      "वेश": 2968,
      "उसकी": 2969,
      "special": 2970,
      "कृति": 2971,
      "asked": 2972,
      "मदद": 2973,
      "యెహో": 2974,
      "big": 2975,
      "vent": 2976,
      "మర్": 2977,
      "information": 2978,
      "ప్రే": 2979,
      "respect": 2980,
      "illion": 2981,
      "पाल": 2982,
      "These": 2983,
      "निर्माण": 2984,
      "करेंगे": 2985,
      "संख्या": 2986,
      "ఢిల్లీ": 2987,
      "75": 2988,
      "Am": 2989,
      "Im": 2990,
      "Jan": 2991,
      "ML": 2992,
      "home": 2993,
      "school": 2994,
      "जहां": 2995,
      "యలు": 2996,
      "याद": 2997,
      "ication": 2998,
      "वित": 2999,
      "comes": 3000,
      "complain": 3001,
      "lier": 3002,
      "sho": 3003,
      "ंगे": 3004,
      "posed": 3005,
      "अनुसार": 3006,
      "market": 3007,
      "benef": 3008,
      "five": 3009,
      "lish": 3010,
      "पश्": 3011,
      "ब्र": 3012,
      "काल": 3013,
      "हाँ": 3014,
      "निश्": 3015,
      "discus": 3016,
      "स्टे": 3017,
      "धारा": 3018,
      "interest": 3019,
      "decision": 3020,
      "फोन": 3021,
      "केंद्रीय": 3022,
      "कानू": 3023,
      "Maharashtra": 3024,
      "ls": 3025,
      "ग्": 3026,
      "ीय": 3027,
      "ఇద్ద": 3028,
      "య్యా": 3029,
      "decl": 3030,
      "శాఖ": 3031,
      "బ్బ": 3032,
      "कार्यक्रम": 3033,
      "విడుదల": 3034,
      "Pat": 3035,
      "further": 3036,
      "ram": 3037,
      "అన్ని": 3038,
      "recent": 3039,
      "edu": 3040,
      "ताब": 3041,
      "గ్గ": 3042,
      "angana": 3043,
      "मैच": 3044,
      "उत्पा": 3045,
      "added": 3046,
      "दुनिया": 3047,
      "గురించి": 3048,
      "गिरफ्": 3049,
      "occasion": 3050,
      "Ab": 3051,
      "Fin": 3052,
      "Tamil": 3053,
      "bas": 3054,
      "treat": 3055,
      "लु": 3056,
      "పంచ": 3057,
      "లై": 3058,
      "న్యా": 3059,
      "స్వా": 3060,
      "दिए": 3061,
      "पूरा": 3062,
      "position": 3063,
      "స్తారు": 3064,
      "యెహోవా": 3065,
      "Be": 3066,
      "Bi": 3067,
      "CM": 3068,
      "dom": 3069,
      "ham": 3070,
      "major": 3071,
      "इला": 3072,
      "उठा": 3073,
      "ख्": 3074,
      "तों": 3075,
      "ఆధ": 3076,
      "నలు": 3077,
      "మంచి": 3078,
      "काश": 3079,
      "సంస్థ": 3080,
      "सकती": 3081,
      "ning": 3082,
      "pay": 3083,
      "writ": 3084,
      "ट्रे": 3085,
      "ठी": 3086,
      "కలు": 3087,
      "లంగా": 3088,
      "న్ను": 3089,
      "प्रि": 3090,
      "ences": 3091,
      "प्राप्त": 3092,
      "visit": 3093,
      "भिन्न": 3094,
      "called": 3095,
      "बैठक": 3096,
      "కోర్టు": 3097,
      "Part": 3098,
      "best": 3099,
      "fair": 3100,
      "ారీ": 3101,
      "ింపు": 3102,
      "जाना": 3103,
      "उनका": 3104,
      "కొన్ని": 3105,
      "తీవ్ర": 3106,
      "gether": 3107,
      "గ్రా": 3108,
      "farmers": 3109,
      "officials": 3110,
      "इंडिया": 3111,
      "Bollywood": 3112,
      "Cor": 3113,
      "Just": 3114,
      "dont": 3115,
      "बंद": 3116,
      "అన": 3117,
      "still": 3118,
      "ried": 3119,
      "few": 3120,
      "persons": 3121,
      "హీరో": 3122,
      "bre": 3123,
      "jud": 3124,
      "ंब": 3125,
      "पक": 3126,
      "सौ": 3127,
      "हरा": 3128,
      "చో": 3129,
      "జన": 3130,
      "హ్": 3131,
      "together": 3132,
      "నియ": 3133,
      "states": 3134,
      "कोर्ट": 3135,
      "ప్రదేశ": 3136,
      "open": 3137,
      "जीवन": 3138,
      "Inter": 3139,
      "मीडिया": 3140,
      "విషయం": 3141,
      "IT": 3142,
      "पट": 3143,
      "सल": 3144,
      "ల‌": 3145,
      "ined": 3146,
      "ering": 3147,
      "ising": 3148,
      "यास": 3149,
      "विचार": 3150,
      "त्म": 3151,
      "move": 3152,
      "keep": 3153,
      "employ": 3154,
      "బాద్": 3155,
      "तैयार": 3156,
      "face": 3157,
      "mi": 3158,
      "mil": 3159,
      "ues": 3160,
      "wife": 3161,
      "पड़": 3162,
      "शर्": 3163,
      "సింగ్": 3164,
      "told": 3165,
      "ంలోని": 3166,
      "డ్డ": 3167,
      "Commission": 3168,
      "CC": 3169,
      "daugh": 3170,
      "टू": 3171,
      "भग": 3172,
      "గె": 3173,
      "లుగా": 3174,
      "never": 3175,
      "2014": 3176,
      "Hind": 3177,
      "Spe": 3178,
      "city": 3179,
      "तब": 3180,
      "तंत्र": 3181,
      "यहो": 3182,
      "నగ": 3183,
      "మర": 3184,
      "ందా": 3185,
      "ర్కొ": 3186,
      "terror": 3187,
      "ట్లా": 3188,
      "across": 3189,
      "पीएम": 3190,
      "उपल": 3191,
      "కాంగ్రెస్": 3192,
      "CP": 3193,
      "bar": 3194,
      "cut": 3195,
      "pop": 3196,
      "जें": 3197,
      "క‌": 3198,
      "సారి": 3199,
      "search": 3200,
      "త్తు": 3201,
      "డ్‌": 3202,
      "ంటూ": 3203,
      "పరిస్థి": 3204,
      "జిల్లా": 3205,
      "derabad": 3206,
      "Central": 3207,
      "Dr": 3208,
      "band": 3209,
      "fire": 3210,
      "ఎలా": 3211,
      "కత్వ": 3212,
      "ప‌": 3213,
      "ఫీ": 3214,
      "భూ": 3215,
      "condu": 3216,
      "రుకు": 3217,
      "रिपोर्ट": 3218,
      "గుర్": 3219,
      "క్షి": 3220,
      "China": 3221,
      "రెడ్డి": 3222,
      "poss": 3223,
      "मामला": 3224,
      "భాగ": 3225,
      "స్తూ": 3226,
      "తరల": 3227,
      "released": 3228,
      "यहोवा": 3229,
      "उपलब्": 3230,
      "ually": 3231,
      "कपूर": 3232,
      "।\"": 3233,
      "నటి": 3234,
      "పడ": 3235,
      "సరి": 3236,
      "క్స్": 3237,
      "నాకు": 3238,
      "ద్ధి": 3239,
      "ump": 3240,
      "ulture": 3241,
      "जानकारी": 3242,
      "Acc": 3243,
      "సందర్": 3244,
      "Hyderabad": 3245,
      "Lord": 3246,
      "San": 3247,
      "cover": 3248,
      "ges": 3249,
      "ऑफ": 3250,
      "जवा": 3251,
      "ఇక": 3252,
      "సహా": 3253,
      "poin": 3254,
      "angu": 3255,
      "viol": 3256,
      "व्यव": 3257,
      "अंतर": 3258,
      "खेल": 3259,
      "పూర్తి": 3260,
      "consid": 3261,
      "Lok": 3262,
      "hal": 3263,
      "ned": 3264,
      "उद्": 3265,
      "बू": 3266,
      "लें": 3267,
      "aran": 3268,
      "heart": 3269,
      "stit": 3270,
      "ours": 3271,
      "मिक": 3272,
      "डियो": 3273,
      "पंजा": 3274,
      "कश्मीर": 3275,
      "ca": 3276,
      "fun": 3277,
      "ias": 3278,
      "met": 3279,
      "डल": 3280,
      "ఉన్నారు": 3281,
      "ఉత్త": 3282,
      "చారం": 3283,
      "ref": 3284,
      "iti": 3285,
      "किसान": 3286,
      "नाग": 3287,
      "विद्": 3288,
      "रात": 3289,
      "els": 3290,
      "pected": 3291,
      "away": 3292,
      "చిత్రా": 3293,
      "Gujar": 3294,
      "chnology": 3295,
      "situation": 3296,
      "Au": 3297,
      "Har": 3298,
      "West": 3299,
      "give": 3300,
      "कभी": 3301,
      "गति": 3302,
      "चर्": 3303,
      "वृ": 3304,
      "ర్మ": 3305,
      "करती": 3306,
      "adv": 3307,
      "सां": 3308,
      "లేదా": 3309,
      "When": 3310,
      "चीन": 3311,
      "బ్యాం": 3312,
      "Vijay": 3313,
      "प्रदर्शन": 3314,
      "To": 3315,
      "win": 3316,
      "मेंट": 3317,
      "इसी": 3318,
      "aka": 3319,
      "program": 3320,
      "संघ": 3321,
      "ముందు": 3322,
      "యాన్ని": 3323,
      "मूल": 3324,
      "investigation": 3325,
      "भूमिका": 3326,
      "friend": 3327,
      "mind": 3328,
      "rish": 3329,
      "ఎన్": 3330,
      "atch": 3331,
      "stri": 3332,
      "plac": 3333,
      "week": 3334,
      "रोध": 3335,
      "States": 3336,
      "sche": 3337,
      "ctors": 3338,
      "होंगे": 3339,
      "father": 3340,
      "question": 3341,
      "political": 3342,
      "Telangana": 3343,
      "announced": 3344,
      "अस्पता": 3345,
      "90": 3346,
      "bs": 3347,
      "sol": 3348,
      "went": 3349,
      "रल": 3350,
      "सहा": 3351,
      "areas": 3352,
      "ights": 3353,
      "पहली": 3354,
      "అవస": 3355,
      "iversity": 3356,
      "पंजाब": 3357,
      "hon": 3358,
      "आया": 3359,
      "यता": 3360,
      "పలు": 3361,
      "కుటు": 3362,
      "ాలీ": 3363,
      "near": 3364,
      "ముఖ": 3365,
      "express": 3366,
      "లేక": 3367,
      "Who": 3368,
      "मौके": 3369,
      "మొత్తం": 3370,
      "महत्व": 3371,
      "wards": 3372,
      "success": 3373,
      "Christ": 3374,
      "ude": 3375,
      "नजर": 3376,
      "టం": 3377,
      "మ్యా": 3378,
      "era": 3379,
      "కుమార్": 3380,
      "immedi": 3381,
      "result": 3382,
      "ults": 3383,
      "hist": 3384,
      "effect": 3385,
      "actor": 3386,
      "उपयोग": 3387,
      "things": 3388,
      "making": 3389,
      "మాత్రం": 3390,
      "World": 3391,
      "field": 3392,
      "मर": 3393,
      "सत": 3394,
      "పడు": 3395,
      "లోకి": 3396,
      "ప్రపంచ": 3397,
      "తున్నారు": 3398,
      "రాలు": 3399,
      "plan": 3400,
      "పెట్ట": 3401,
      "2015": 3402,
      "కలిగి": 3403,
      "Karn": 3404,
      "Ne": 3405,
      "Rail": 3406,
      "ST": 3407,
      "money": 3408,
      "बड़ी": 3409,
      "కని": 3410,
      "erv": 3411,
      "స్వ": 3412,
      "level": 3413,
      "नाथ": 3414,
      "जाती": 3415,
      "ద్దు": 3416,
      "ंग्": 3417,
      "ange": 3418,
      "ार्थ": 3419,
      "बेह": 3420,
      "क्षेत्रों": 3421,
      "address": 3422,
      "ఆర్థి": 3423,
      "large": 3424,
      "निश्चित": 3425,
      "den": 3426,
      "भु": 3427,
      "षि": 3428,
      "हरी": 3429,
      "పర": 3430,
      "प्रक्रिया": 3431,
      "విచ": 3432,
      "మాట్లా": 3433,
      "द्धि": 3434,
      "news": 3435,
      "నిర్ణ": 3436,
      "respons": 3437,
      "clear": 3438,
      "सचिव": 3439,
      "six": 3440,
      "दक्ष": 3441,
      "ुक": 3442,
      "జర": 3443,
      "లభ": 3444,
      "प्रयास": 3445,
      "परमे": 3446,
      "del": 3447,
      "न्द्र": 3448,
      "protest": 3449,
      "lock": 3450,
      "కోట్లు": 3451,
      "शिक्षा": 3452,
      "మీడియా": 3453,
      "చుకు": 3454,
      "భారీ": 3455,
      "election": 3456,
      "క్రమ": 3457,
      "condition": 3458,
      "ణాలు": 3459,
      "record": 3460,
      "Gujarat": 3461,
      "అవసరం": 3462,
      "Nor": 3463,
      "ta": 3464,
      "जल्": 3465,
      "య్": 3466,
      "return": 3467,
      "icle": 3468,
      "heav": 3469,
      "step": 3470,
      "చేశా": 3471,
      "స్తున్నా": 3472,
      "cost": 3473,
      "सहयोग": 3474,
      "ముఖ్యమంత్రి": 3475,
      "Shiv": 3476,
      "31": 3477,
      "32": 3478,
      "Home": 3479,
      "hra": 3480,
      "detail": 3481,
      "తుల": 3482,
      "होते": 3483,
      "మాన": 3484,
      "వేశ": 3485,
      "శాతం": 3486,
      "తెలిసి": 3487,
      "ప్రధాని": 3488,
      "food": 3489,
      "कंपनी": 3490,
      "complaint": 3491,
      "Ak": 3492,
      "Ro": 3493,
      "आने": 3494,
      "गू": 3495,
      "అవు": 3496,
      "అధ్య": 3497,
      "మ‌": 3498,
      "శు": 3499,
      "beg": 3500,
      "గాయ": 3501,
      "लाह": 3502,
      "लेख": 3503,
      "ians": 3504,
      "Assembly": 3505,
      "मौजूद": 3506,
      "produced": 3507,
      "release": 3508,
      "reached": 3509,
      "Aust": 3510,
      "Dis": 3511,
      "pra": 3512,
      "अदा": 3513,
      "एच": 3514,
      "नए": 3515,
      "सरा": 3516,
      "తలు": 3517,
      "లం": 3518,
      "anch": 3519,
      "itive": 3520,
      "adu": 3521,
      "विभिन्न": 3522,
      "लाई": 3523,
      "liament": 3524,
      "యాప్": 3525,
      "గురు": 3526,
      "endra": 3527,
      "रेल": 3528,
      "చిత్రం": 3529,
      "ఇంకా": 3530,
      "particip": 3531,
      "Jammu": 3532,
      "आवश्य": 3533,
      "treatment": 3534,
      "Amit": 3535,
      "Ele": 3536,
      "My": 3537,
      "Not": 3538,
      "gir": 3539,
      "kind": 3540,
      "tion": 3541,
      "तम": 3542,
      "बड़ा": 3543,
      "ఎక్కువ": 3544,
      "యన్": 3545,
      "esus": 3546,
      "प्रकार": 3547,
      "विदेश": 3548,
      "ప్రత్య": 3549,
      "appro": 3550,
      "समर्थ": 3551,
      "చెప్": 3552,
      "accident": 3553,
      "Secretary": 3554,
      "ग्रह": 3555,
      "सामने": 3556,
      "build": 3557,
      "भाषा": 3558,
      "ప్రకట": 3559,
      "Day": 3560,
      "eas": 3561,
      "since": 3562,
      "उच्च": 3563,
      "వార్": 3564,
      "केवल": 3565,
      "prote": 3566,
      "हुल": 3567,
      "उसका": 3568,
      "చెందిన": 3569,
      "price": 3570,
      "2016": 3571,
      "saying": 3572,
      "स्वास्थ": 3573,
      "वजह": 3574,
      "According": 3575,
      "Air": 3576,
      "mus": 3577,
      "झा": 3578,
      "पित": 3579,
      "జో": 3580,
      "బట్టి": 3581,
      "ancial": 3582,
      "ారని": 3583,
      "स्तु": 3584,
      "ury": 3585,
      "लेने": 3586,
      "uty": 3587,
      "शाह": 3588,
      "తెర": 3589,
      "hoto": 3590,
      "జీవి": 3591,
      "elect": 3592,
      "దర్శకత్వ": 3593,
      "Centre": 3594,
      "संबंधित": 3595,
      "అధికారు": 3596,
      "implement": 3597,
      "IS": 3598,
      "May": 3599,
      "VID": 3600,
      "ka": 3601,
      "कौ": 3602,
      "डर": 3603,
      "దో": 3604,
      "ataka": 3605,
      "ందో": 3606,
      "న్నీ": 3607,
      "proper": 3608,
      "दाय": 3609,
      "ards": 3610,
      "కారణ": 3611,
      "आपको": 3612,
      "series": 3613,
      "అత్య": 3614,
      "अवसर": 3615,
      "Supreme": 3616,
      "Yad": 3617,
      "मृ": 3618,
      "దూ": 3619,
      "నర్": 3620,
      "మరణ": 3621,
      "कीमत": 3622,
      "प्रबंध": 3623,
      "cell": 3624,
      "చేసు": 3625,
      "డియో": 3626,
      "सिल": 3627,
      "ంటారు": 3628,
      "परियोजना": 3629,
      "statement": 3630,
      "operation": 3631,
      "local": 3632,
      "Austral": 3633,
      "Jesus": 3634,
      "अभ": 3635,
      "टक": 3636,
      "मध्य": 3637,
      "यदि": 3638,
      "అంటే": 3639,
      "త‌": 3640,
      "పాల": 3641,
      "वाह": 3642,
      "इसकी": 3643,
      "मिले": 3644,
      "ార్థ": 3645,
      "Then": 3646,
      "కొన": 3647,
      "కారం": 3648,
      "अस्पताल": 3649,
      "स्वास्थ्य": 3650,
      "DP": 3651,
      "Some": 3652,
      "ps": 3653,
      "ped": 3654,
      "rid": 3655,
      "side": 3656,
      "उद्योग": 3657,
      "वें": 3658,
      "కారు": 3659,
      "గత": 3660,
      "స్య": 3661,
      "ర్యా": 3662,
      "स्तर": 3663,
      "ల్లు": 3664,
      "राहुल": 3665,
      "ప్ర‌": 3666,
      "cele": 3667,
      "why": 3668,
      "संगठ": 3669,
      "సంఖ్య": 3670,
      "199": 3671,
      "शिका": 3672,
      "బాబు": 3673,
      "cricket": 3674,
      "అనేక": 3675,
      "कूल": 3676,
      "period": 3677,
      "COVID": 3678,
      "Karnataka": 3679,
      "36": 3680,
      "ban": 3681,
      "gre": 3682,
      "ड्": 3683,
      "पानी": 3684,
      "बस": 3685,
      "thir": 3686,
      "though": 3687,
      "ानि": 3688,
      "true": 3689,
      "abu": 3690,
      "बाइ": 3691,
      "allow": 3692,
      "కోట్ల": 3693,
      "దేవు": 3694,
      "మ్‌": 3695,
      "ష్టం": 3696,
      "पिता": 3697,
      "Develop": 3698,
      "ज्ञा": 3699,
      "अमेरिका": 3700,
      "human": 3701,
      "account": 3702,
      "पश्चि": 3703,
      "गिरफ्तार": 3704,
      "Bihar": 3705,
      "ंबई": 3706,
      "Col": 3707,
      "Every": 3708,
      "Sa": 3709,
      "bed": 3710,
      "wa": 3711,
      "गृ": 3712,
      "కథ": 3713,
      "డంతో": 3714,
      "నట": 3715,
      "పించ": 3716,
      "శీ": 3717,
      "ara": 3718,
      "itiz": 3719,
      "देते": 3720,
      "पांच": 3721,
      "యాలు": 3722,
      "films": 3723,
      "prices": 3724,
      "జాతీయ": 3725,
      "reng": 3726,
      "వ్యవ": 3727,
      "compan": 3728,
      "strong": 3729,
      "talk": 3730,
      "Add": 3731,
      "మొదటి": 3732,
      "cour": 3733,
      "sim": 3734,
      "ंबर": 3735,
      "उल्": 3736,
      "खंड": 3737,
      "न्यू": 3738,
      "लर": 3739,
      "वरी": 3740,
      "ఎస్‌": 3741,
      "జరుగు": 3742,
      "దారు": 3743,
      "inde": 3744,
      "ada": 3745,
      "ither": 3746,
      "పిల్ల": 3747,
      "ically": 3748,
      "త్వర": 3749,
      "दूर": 3750,
      "వ్యక్": 3751,
      "మృతి": 3752,
      "Muslim": 3753,
      "Yadav": 3754,
      "Pri": 3755,
      "Sam": 3756,
      "ंति": 3757,
      "अच्छ": 3758,
      "बयान": 3759,
      "रखा": 3760,
      "लड़": 3761,
      "समु": 3762,
      "అమె": 3763,
      "ఆర్‌": 3764,
      "టింగ్": 3765,
      "మనం": 3766,
      "నిజ": 3767,
      "प्रभा": 3768,
      "प्रशा": 3769,
      "वालों": 3770,
      "राव": 3771,
      "aged": 3772,
      "point": 3773,
      "క్షణ": 3774,
      "earth": 3775,
      "तरफ": 3776,
      "author": 3777,
      "రెండ": 3778,
      "ళ్లు": 3779,
      "company": 3780,
      "include": 3781,
      "పేర్కొ": 3782,
      "व्यवस्था": 3783,
      "free": 3784,
      "hya": 3785,
      "sal": 3786,
      "ton": 3787,
      "wr": 3788,
      "अफ": 3789,
      "ऐसी": 3790,
      "गं": 3791,
      "ఉత్": 3792,
      "టై": 3793,
      "రకు": 3794,
      "नेट": 3795,
      "story": 3796,
      "क्षित": 3797,
      "దేశా": 3798,
      "region": 3799,
      "ference": 3800,
      "తెలియ": 3801,
      "colle": 3802,
      "priv": 3803,
      "नरेंद्र": 3804,
      "business": 3805,
      "ఆర్థిక": 3806,
      "दक्षि": 3807,
      "Bhar": 3808,
      "Hary": 3809,
      "ather": 3810,
      "camp": 3811,
      "eve": 3812,
      "अर्": 3813,
      "खो": 3814,
      "लब": 3815,
      "ఇందు": 3816,
      "సన": 3817,
      "always": 3818,
      "asthan": 3819,
      "र्ष": 3820,
      "concer": 3821,
      "सीमा": 3822,
      "मिला": 3823,
      "त्‍": 3824,
      "मुंबई": 3825,
      "Andhra": 3826,
      "అవకా": 3827,
      "జ్ఞ": 3828,
      "करीब": 3829,
      "श्‍वर": 3830,
      "launched": 3831,
      "celebr": 3832,
      "IA": 3833,
      "Ke": 3834,
      "dri": 3835,
      "tre": 3836,
      "धित": 3837,
      "వల్ల": 3838,
      "షన్‌": 3839,
      "streng": 3840,
      "cture": 3841,
      "నున్న": 3842,
      "ples": 3843,
      "ession": 3844,
      "effor": 3845,
      "मान्य": 3846,
      "अधिनियम": 3847,
      "మోదీ": 3848,
      "working": 3849,
      "crit": 3850,
      "मैंने": 3851,
      "యోగ": 3852,
      "member": 3853,
      "भावना": 3854,
      "ख़ुदा": 3855,
      "ంటాయి": 3856,
      "ध्यान": 3857,
      "senior": 3858,
      "जरूरत": 3859,
      "CBI": 3860,
      "General": 3861,
      "Test": 3862,
      "di": 3863,
      "times": 3864,
      "टल": 3865,
      "’’": 3866,
      "informed": 3867,
      "కుడు": 3868,
      "निय": 3869,
      "निवेश": 3870,
      "చేసే": 3871,
      "ets": 3872,
      "दिनों": 3873,
      "मिली": 3874,
      "చ్‌": 3875,
      "క్షు": 3876,
      "తెలంగా": 3877,
      "cannot": 3878,
      "event": 3879,
      "taking": 3880,
      "నిర్వహ": 3881,
      "जेपी": 3882,
      "recover": 3883,
      "య్యారు": 3884,
      "services": 3885,
      "following": 3886,
      "candidates": 3887,
      "daughter": 3888,
      "Haryana": 3889,
      "Po": 3890,
      "South": 3891,
      "TV": 3892,
      "ris": 3893,
      "rul": 3894,
      "ub": 3895,
      "whe": 3896,
      "गार": 3897,
      "गढ़": 3898,
      "చంద్ర": 3899,
      "శాల": 3900,
      "స‌": 3901,
      "ature": 3902,
      "ily": 3903,
      "stor": 3904,
      "प्री": 3905,
      "प्रत्य": 3906,
      "results": 3907,
      "त्री": 3908,
      "మాజీ": 3909,
      "बाहर": 3910,
      "without": 3911,
      "समू": 3912,
      "upon": 3913,
      "ष्ट्र": 3914,
      "निर्देश": 3915,
      "speak": 3916,
      "certain": 3917,
      "received": 3918,
      "హైద": 3919,
      "Director": 3920,
      "परमेश्‍वर": 3921,
      "Ag": 3922,
      "Many": 3923,
      "Sri": 3924,
      "ball": 3925,
      "ंभ": 3926,
      "ंव": 3927,
      "गें": 3928,
      "दृ": 3929,
      "पन": 3930,
      "भव": 3931,
      "मजब": 3932,
      "icy": 3933,
      "लिख": 3934,
      "aren": 3935,
      "oung": 3936,
      "राजनीति": 3937,
      "వెంట": 3938,
      "ष्‍": 3939,
      "product": 3940,
      "stry": 3941,
      "meric": 3942,
      "ఆరోగ": 3943,
      "తరువాత": 3944,
      "People": 3945,
      "नागरि": 3946,
      "मजबू": 3947,
      "Ah": 3948,
      "joy": 3949,
      "net": 3950,
      "spo": 3951,
      "अर": 3952,
      "अति": 3953,
      "षण": 3954,
      "ఎందుకు": 3955,
      "నని": 3956,
      "ేక": 3957,
      "लाने": 3958,
      "ప్రశ్": 3959,
      "వాహ": 3960,
      "सुन": 3961,
      "filed": 3962,
      "लगभग": 3963,
      "mitted": 3964,
      "न्याय": 3965,
      "चर्चा": 3966,
      "महत्वपूर्ण": 3967,
      "Development": 3968,
      "cam": 3969,
      "hard": 3970,
      "ugu": 3971,
      "कट": 3972,
      "कल्": 3973,
      "जम्": 3974,
      "फ्र": 3975,
      "లక": 3976,
      "र्फ": 3977,
      "ల్సి": 3978,
      "irus": 3979,
      "deep": 3980,
      "unt": 3981,
      "నాయ": 3982,
      "expected": 3983,
      "हमारी": 3984,
      "key": 3985,
      "च्छा": 3986,
      "Rajasthan": 3987,
      "international": 3988,
      "played": 3989,
      "कर्म": 3990,
      "captain": 3991,
      "faith": 3992,
      "త్రికి": 3993,
      "reason": 3994,
      "village": 3995,
      "alleged": 3996,
      "Party": 3997,
      "शर्मा": 3998,
      "యాప్తు": 3999,
      "Son": 4000,
      "ఎమ్": 4001,
      "టే": 4002,
      "ulation": 4003,
      "क्षम": 4004,
      "meas": 4005,
      "means": 4006,
      "కొని": 4007,
      "ष्टि": 4008,
      "prof": 4009,
      "వెల్ల": 4010,
      "spec": 4011,
      "production": 4012,
      "मार्ट": 4013,
      "बोर्ड": 4014,
      "issues": 4015,
      "woman": 4016,
      "shared": 4017,
      "क्रिकेट": 4018,
      "వృద్ధి": 4019,
      "recently": 4020,
      "उपलब्ध": 4021,
      "ner": 4022,
      "sil": 4023,
      "आदि": 4024,
      "कदम": 4025,
      "धे": 4026,
      "सदी": 4027,
      "ఒక్క": 4028,
      "amoun": 4029,
      "dead": 4030,
      "sum": 4031,
      "जिले": 4032,
      "వెళ్": 4033,
      "మోడీ": 4034,
      "నిర్మా": 4035,
      "provide": 4036,
      "पेश": 4037,
      "దర్యాప్తు": 4038,
      "ट्रो": 4039,
      "खुद": 4040,
      "however": 4041,
      "छात्र": 4042,
      "न्यायालय": 4043,
      "करेगा": 4044,
      "happened": 4045,
      "కుటుంబ": 4046,
      "300": 4047,
      "Ash": 4048,
      "Him": 4049,
      "Sat": 4050,
      "glo": 4051,
      "hit": 4052,
      "ient": 4053,
      "vo": 4054,
      "आर्थ": 4055,
      "चो": 4056,
      "పరీ": 4057,
      "మహి": 4058,
      "వద్ద": 4059,
      "left": 4060,
      "veh": 4061,
      "చేస్తున్నారు": 4062,
      "opport": 4063,
      "कृत": 4064,
      "increase": 4065,
      "తొలి": 4066,
      "उम्मीदवार": 4067,
      "ాలీవు": 4068,
      "తెలంగాణ": 4069,
      "Bang": 4070,
      "Ker": 4071,
      "Sal": 4072,
      "dr": 4073,
      "hus": 4074,
      "phas": 4075,
      "pati": 4076,
      "चर": 4077,
      "जों": 4078,
      "मही": 4079,
      "ంగ్": 4080,
      "ఇతర": 4081,
      "ఎదు": 4082,
      "icts": 4083,
      "स्प": 4084,
      "క్కి": 4085,
      "ateg": 4086,
      "peace": 4087,
      "मुद्": 4088,
      "avirus": 4089,
      "रोक": 4090,
      "పింది": 4091,
      "ibility": 4092,
      "महारा": 4093,
      "industry": 4094,
      "currently": 4095,
      "अल्लाह": 4096,
      "अदालत": 4097,
      "third": 4098,
      "''": 4099,
      "Med": 4100,
      "दबा": 4101,
      "मॉ": 4102,
      "onavirus": 4103,
      "यात्रा": 4104,
      "స్తే": 4105,
      "कोवि": 4106,
      "లోనే": 4107,
      "chall": 4108,
      "తున్నాయి": 4109,
      "ప్‌": 4110,
      "చికి": 4111,
      "itional": 4112,
      "brought": 4113,
      "సినిమాలో": 4114,
      "custo": 4115,
      "Parliament": 4116,
      "Chandr": 4117,
      "small": 4118,
      "Kal": 4119,
      "Koh": 4120,
      "MS": 4121,
      "fund": 4122,
      "gress": 4123,
      "tle": 4124,
      "शान": 4125,
      "aries": 4126,
      "परे": 4127,
      "लाइ": 4128,
      "trad": 4129,
      "deli": 4130,
      "कार्या": 4131,
      "होना": 4132,
      "parties": 4133,
      "మీద": 4134,
      "agement": 4135,
      "जिसके": 4136,
      "better": 4137,
      "कैसे": 4138,
      "ించుకు": 4139,
      "ించాడు": 4140,
      "అలాగే": 4141,
      "आर्थिक": 4142,
      "lam": 4143,
      "langu": 4144,
      "tell": 4145,
      "ंचा": 4146,
      "चै": 4147,
      "बच्च": 4148,
      "यं": 4149,
      "దృ": 4150,
      "arri": 4151,
      "प्रकाश": 4152,
      "నుంది": 4153,
      "विधि": 4154,
      "acy": 4155,
      "within": 4156,
      "भाई": 4157,
      "lood": 4158,
      "doing": 4159,
      "answ": 4160,
      "योजन": 4161,
      "ज़ा": 4162,
      "चुके": 4163,
      "bring": 4164,
      "మూడు": 4165,
      "योजित": 4166,
      "director": 4167,
      "selves": 4168,
      "runs": 4169,
      "विधानसभा": 4170,
      "హైదరా": 4171,
      "Her": 4172,
      "Lo": 4173,
      "Or": 4174,
      "jun": 4175,
      "minis": 4176,
      "sk": 4177,
      "पना": 4178,
      "सें": 4179,
      "सफल": 4180,
      "న‌": 4181,
      "నరే": 4182,
      "పథ": 4183,
      "initi": 4184,
      "enn": 4185,
      "learn": 4186,
      "idence": 4187,
      "लिक": 4188,
      "तिहा": 4189,
      "రికా": 4190,
      "कार्र": 4191,
      "ources": 4192,
      "suf": 4193,
      "mean": 4194,
      "भारी": 4195,
      "anka": 4196,
      "Army": 4197,
      "likely": 4198,
      "fairs": 4199,
      "తరలించారు": 4200,
      "చికిత్స": 4201,
      "Kohli": 4202,
      "55": 4203,
      "Coun": 4204,
      "div": 4205,
      "fail": 4206,
      "nation": 4207,
      "वरि": 4208,
      "हजार": 4209,
      "inal": 4210,
      "నిక": 4211,
      "నున్నారు": 4212,
      "जाते": 4213,
      "माध्य": 4214,
      "संयुक्त": 4215,
      "మిళ": 4216,
      "activ": 4217,
      "ज़ि": 4218,
      "University": 4219,
      "అతని": 4220,
      "issued": 4221,
      "జరిగిన": 4222,
      "పోయింది": 4223,
      "परीक्षा": 4224,
      "Justice": 4225,
      "immediately": 4226,
      "తెలిసిందే": 4227,
      "कार्रवाई": 4228,
      "cri": 4229,
      "date": 4230,
      "fight": 4231,
      "past": 4232,
      "vind": 4233,
      "आयोग": 4234,
      "एक्": 4235,
      "पढ़": 4236,
      "बड़े": 4237,
      "रै": 4238,
      "అంది": 4239,
      "న్యూ": 4240,
      "deal": 4241,
      "ంతా": 4242,
      "చిన్న": 4243,
      "पुन": 4244,
      "earlier": 4245,
      "understand": 4246,
      "దేశంలో": 4247,
      "final": 4248,
      "education": 4249,
      "పరిస్థితి": 4250,
      "సందర్భ": 4251,
      "शिकायत": 4252,
      "మహిళ": 4253,
      "IN": 4254,
      "Tri": 4255,
      "million": 4256,
      "pan": 4257,
      "rate": 4258,
      "wn": 4259,
      "wicket": 4260,
      "अर्थ": 4261,
      "छोड़": 4262,
      "थि": 4263,
      "समि": 4264,
      "నంద": 4265,
      "బై": 4266,
      "reed": 4267,
      "atives": 4268,
      "कां": 4269,
      "लागू": 4270,
      "\"\"\"\"": 4271,
      "Health": 4272,
      "que": 4273,
      "मेरी": 4274,
      "बीजेपी": 4275,
      "ished": 4276,
      "serious": 4277,
      "बनाए": 4278,
      "వారికి": 4279,
      "रुपए": 4280,
      "కలిసి": 4281,
      "believe": 4282,
      "Hindi": 4283,
      "Ho": 4284,
      "Sr": 4285,
      "dra": 4286,
      "mal": 4287,
      "sus": 4288,
      "till": 4289,
      "अहम": 4290,
      "बह": 4291,
      "arr": 4292,
      "entire": 4293,
      "adi": 4294,
      "तेमाल": 4295,
      "appl": 4296,
      "ल्ड": 4297,
      "जिन्ह": 4298,
      "class": 4299,
      "కెట్": 4300,
      "provided": 4301,
      "Department": 4302,
      "Telugu": 4303,
      "జరిగింది": 4304,
      "ఏర్పాటు": 4305,
      "ఇండియా": 4306,
      "कानून": 4307,
      "जम्मू": 4308,
      "Americ": 4309,
      "Gr": 4310,
      "RS": 4311,
      "don": 4312,
      "dist": 4313,
      "gn": 4314,
      "pict": 4315,
      "छे": 4316,
      "शहर": 4317,
      "ఉద్య": 4318,
      "జన్": 4319,
      "ars": 4320,
      "ilities": 4321,
      "oting": 4322,
      "न्द": 4323,
      "नीय": 4324,
      "teach": 4325,
      "hip": 4326,
      "vious": 4327,
      "सरकारी": 4328,
      "భారత్‌": 4329,
      "United": 4330,
      "full": 4331,
      "రాజకీ": 4332,
      "कृषि": 4333,
      "रखने": 4334,
      "अधिकारियों": 4335,
      "growth": 4336,
      "वित्त": 4337,
      "Australia": 4338,
      "49": 4339,
      "With": 4340,
      "cing": 4341,
      "fut": 4342,
      "twe": 4343,
      "नगर": 4344,
      "అతి": 4345,
      "యత్": 4346,
      "లపై": 4347,
      "వరి": 4348,
      "redu": 4349,
      "करो": 4350,
      "करके": 4351,
      "క్ట": 4352,
      "une": 4353,
      "ively": 4354,
      "राज्यों": 4355,
      "Gods": 4356,
      "చూడ": 4357,
      "relig": 4358,
      "music": 4359,
      "arents": 4360,
      "Kerala": 4361,
      "समिति": 4362,
      "45": 4363,
      "AN": 4364,
      "Our": 4365,
      "job": 4366,
      "आम": 4367,
      "कला": 4368,
      "मण": 4369,
      "मारी": 4370,
      "చీ": 4371,
      "డె": 4372,
      "సార్": 4373,
      "ream": 4374,
      "ential": 4375,
      "ताकि": 4376,
      "utions": 4377,
      "conf": 4378,
      "Indias": 4379,
      "కాగా": 4380,
      "सिर्फ": 4381,
      "शिया": 4382,
      "crores": 4383,
      "invol": 4384,
      "పొంద": 4385,
      "temple": 4386,
      "సోష": 4387,
      "हिस्सा": 4388,
      "ఇద్దరు": 4389,
      "య్యాయి": 4390,
      "న్యాయ": 4391,
      "details": 4392,
      "48": 4393,
      "BS": 4394,
      "Can": 4395,
      "ees": 4396,
      "kes": 4397,
      "might": 4398,
      "nal": 4399,
      "vol": 4400,
      "vest": 4401,
      "पड़ा": 4402,
      "रन": 4403,
      "ఆఫ్": 4404,
      "anth": 4405,
      "ery": 4406,
      "isation": 4407,
      "స్త్ర": 4408,
      "लाभ": 4409,
      "using": 4410,
      "संस्": 4411,
      "approv": 4412,
      "experi": 4413,
      "పాయ": 4414,
      "udget": 4415,
      "రోనా": 4416,
      "वीडियो": 4417,
      "దీనికి": 4418,
      "office": 4419,
      "award": 4420,
      "बनाया": 4421,
      "जाएगी": 4422,
      "happy": 4423,
      "financial": 4424,
      "सहित": 4425,
      "months": 4426,
      "मार्ग": 4427,
      "ఏమిటి": 4428,
      "పాల్గొ": 4429,
      "హైదరాబాద్": 4430,
      "Two": 4431,
      "cu": 4432,
      "ey": 4433,
      "find": 4434,
      "mod": 4435,
      "मरा": 4436,
      "लना": 4437,
      "అక్క": 4438,
      "ఇవ్వ": 4439,
      "ధు": 4440,
      "నకు": 4441,
      "ilar": 4442,
      "हाथ": 4443,
      "ించడానికి": 4444,
      "दिव": 4445,
      "जिसे": 4446,
      "తాను": 4447,
      "యువ": 4448,
      "గిన": 4449,
      "परिणा": 4450,
      "వీడియో": 4451,
      "ంధీ": 4452,
      "stars": 4453,
      "మాత్రమే": 4454,
      "आतंक": 4455,
      "MLA": 4456,
      "दक्षिण": 4457,
      "ఇందులో": 4458,
      "II": 4459,
      "Nar": 4460,
      "fast": 4461,
      "ience": 4462,
      "rup": 4463,
      "लने": 4464,
      "सरी": 4465,
      "िकी": 4466,
      "గాంధీ": 4467,
      "hav": 4468,
      "ించడం": 4469,
      "prove": 4470,
      "गांव": 4471,
      "మును": 4472,
      "mother": 4473,
      "शुरु": 4474,
      "అతను": 4475,
      "వారిని": 4476,
      "ushed": 4477,
      "constru": 4478,
      "सम्मान": 4479,
      "Board": 4480,
      "सदस्य": 4481,
      "घोषणा": 4482,
      "जवाब": 4483,
      "समर्थन": 4484,
      "కొనసా": 4485,
      "परिणाम": 4486,
      "Ma": 4487,
      "SC": 4488,
      "Vir": 4489,
      "gold": 4490,
      "lab": 4491,
      "mp": 4492,
      "oil": 4493,
      "sold": 4494,
      "tax": 4495,
      "आदेश": 4496,
      "ఆస్ప": 4497,
      "ఎలాంటి": 4498,
      "ళి": 4499,
      "aram": 4500,
      "र्जा": 4501,
      "भीर": 4502,
      "सीसी": 4503,
      "కాబట్టి": 4504,
      "जिला": 4505,
      "द्धा": 4506,
      "pose": 4507,
      "ousand": 4508,
      "म्मे": 4509,
      "వీరి": 4510,
      "playing": 4511,
      "complete": 4512,
      "इस्तेमाल": 4513,
      "ठीक": 4514,
      "International": 4515,
      "విచారణ": 4516,
      "వెల్లడ": 4517,
      "37": 4518,
      "46": 4519,
      "AM": 4520,
      "AP": 4521,
      "Mon": 4522,
      "gener": 4523,
      "wel": 4524,
      "young": 4525,
      "ग्री": 4526,
      "तना": 4527,
      "बरा": 4528,
      "అరె": 4529,
      "కళ": 4530,
      "కరణ": 4531,
      "వార": 4532,
      "यां": 4533,
      "ains": 4534,
      "ంతి": 4535,
      "ంతరం": 4536,
      "रहने": 4537,
      "ivil": 4538,
      "ష్ణ": 4539,
      "feel": 4540,
      "वार्": 4541,
      "score": 4542,
      "Ass": 4543,
      "commun": 4544,
      "according": 4545,
      "control": 4546,
      "ize": 4547,
      "बिना": 4548,
      "వైర": 4549,
      "నెల": 4550,
      "related": 4551,
      "decided": 4552,
      "లక్షల": 4553,
      "फैसला": 4554,
      "continue": 4555,
      "economic": 4556,
      "victim": 4557,
      "అమెరికా": 4558,
      "husband": 4559,
      "ministr": 4560,
      "Bible": 4561,
      "DA": 4562,
      "Serv": 4563,
      "cal": 4564,
      "dou": 4565,
      "गयी": 4566,
      "वु": 4567,
      "वहां": 4568,
      "शब्": 4569,
      "ఇలా": 4570,
      "షే": 4571,
      "roles": 4572,
      "ింత": 4573,
      "uri": 4574,
      "uru": 4575,
      "విని": 4576,
      "సుప": 4577,
      "ify": 4578,
      "स्ट्रे": 4579,
      "वर्ग": 4580,
      "टिंग": 4581,
      "చర్చ": 4582,
      "front": 4583,
      "बदला": 4584,
      "గుర్త": 4585,
      "తెరకె": 4586,
      "వెంటనే": 4587,
      "39": 4588,
      "Ja": 4589,
      "Krish": 4590,
      "Ran": 4591,
      "Rav": 4592,
      "hy": 4593,
      "wan": 4594,
      "शं": 4595,
      "ेक": 4596,
      "ఇక్కడ": 4597,
      "కౌ": 4598,
      "కరోనా": 4599,
      "టకు": 4600,
      "బ్ర": 4601,
      "really": 4602,
      "stat": 4603,
      "ablish": 4604,
      "संर": 4605,
      "live": 4606,
      "short": 4607,
      "సంవ": 4608,
      "हिं": 4609,
      "मीटर": 4610,
      "inder": 4611,
      "प्ता": 4612,
      "works": 4613,
      "దేశం": 4614,
      "चीत": 4615,
      "इंटर": 4616,
      "instit": 4617,
      "ट्स": 4618,
      "witter": 4619,
      "సంగీ": 4620,
      "North": 4621,
      "महाराष्ट्र": 4622,
      "65": 4623,
      "Ap": 4624,
      "Both": 4625,
      "Jo": 4626,
      "Sy": 4627,
      "gave": 4628,
      "photo": 4629,
      "rap": 4630,
      "उपा": 4631,
      "एक्स": 4632,
      "धर": 4633,
      "श्रे": 4634,
      "తమిళ": 4635,
      "వడం": 4636,
      "సిం": 4637,
      "ali": 4638,
      "स्कूल": 4639,
      "became": 4640,
      "seven": 4641,
      "प्रस्ता": 4642,
      "క్టర్": 4643,
      "ప్రీ": 4644,
      "abin": 4645,
      "बाजार": 4646,
      "exp": 4647,
      "లేదని": 4648,
      "शिश": 4649,
      "बातचीत": 4650,
      "స్టార్": 4651,
      "पोस्ट": 4652,
      "Trump": 4653,
      "तुम्हारे": 4654,
      "बल्कि": 4655,
      "వచ్చింది": 4656,
      "ప్రేమ": 4657,
      "विद्यालय": 4658,
      "girl": 4659,
      "amount": 4660,
      "Jag": 4661,
      "gl": 4662,
      "night": 4663,
      "अच्छा": 4664,
      "आयोजित": 4665,
      "एजें": 4666,
      "गर्": 4667,
      "दल": 4668,
      "शक": 4669,
      "అదే": 4670,
      "జరి": 4671,
      "నిలి": 4672,
      "ently": 4673,
      "force": 4674,
      "having": 4675,
      "नियों": 4676,
      "दिर": 4677,
      "promis": 4678,
      "ope": 4679,
      "समान": 4680,
      "పోయా": 4681,
      "सुधार": 4682,
      "बीआई": 4683,
      "शनल": 4684,
      "భారత్": 4685,
      "getting": 4686,
      "शेयर": 4687,
      "कहते": 4688,
      "needs": 4689,
      "capital": 4690,
      "ification": 4691,
      "continu": 4692,
      "close": 4693,
      "Rao": 4694,
      "Finance": 4695,
      "सहायता": 4696,
      "ప్రత్యేక": 4697,
      "private": 4698,
      "పరీక్ష": 4699,
      "నరేంద్ర": 4700,
      "वरिष्ठ": 4701,
      "38": 4702,
      "47": 4703,
      "Hindu": 4704,
      "Ka": 4705,
      "Ph": 4706,
      "ji": 4707,
      "round": 4708,
      "ईमान": 4709,
      "खरी": 4710,
      "बचा": 4711,
      "పద": 4712,
      "rep": 4713,
      "towards": 4714,
      "ప్రభా": 4715,
      "dev": 4716,
      "कार्": 4717,
      "చేస్తున్న": 4718,
      "हमे": 4719,
      "धिकार": 4720,
      "197": 4721,
      "थीं": 4722,
      "central": 4723,
      "जनता": 4724,
      "వ్యక్తి": 4725,
      "fully": 4726,
      "Former": 4727,
      "సమాచారం": 4728,
      "వ్యాప్": 4729,
      "ficult": 4730,
      "single": 4731,
      "సంబంధించిన": 4732,
      "words": 4733,
      "Madhya": 4734,
      "scheme": 4735,
      "CR": 4736,
      "During": 4737,
      "Ko": 4738,
      "Mr": 4739,
      "Sci": 4740,
      "bi": 4741,
      "cir": 4742,
      "dest": 4743,
      "dies": 4744,
      "equ": 4745,
      "km": 4746,
      "non": 4747,
      "parents": 4748,
      "आग": 4749,
      "सार्": 4750,
      "పడ్డ": 4751,
      "‌ర్": 4752,
      "ission": 4753,
      "ర్పు": 4754,
      "कोशिश": 4755,
      "नाटक": 4756,
      "nder": 4757,
      "उनसे": 4758,
      "सुविधा": 4759,
      "aff": 4760,
      "nothing": 4761,
      "contest": 4762,
      "दुर्": 4763,
      "వైద్య": 4764,
      "districts": 4765,
      "తెలుగు": 4766,
      "truth": 4767,
      "बल्ले": 4768,
      "efforts": 4769,
      "AT": 4770,
      "Def": 4771,
      "More": 4772,
      "Sm": 4773,
      "Twitter": 4774,
      "male": 4775,
      "सही": 4776,
      "ोह": 4777,
      "జూ": 4778,
      "డో": 4779,
      "నాల": 4780,
      "ret": 4781,
      "reen": 4782,
      "itation": 4783,
      "నించ": 4784,
      "న్య": 4785,
      "icles": 4786,
      "प्रयोग": 4787,
      "लिखा": 4788,
      "tri": 4789,
      "contrib": 4790,
      "కాలు": 4791,
      "parts": 4792,
      "Stud": 4793,
      "टेस्ट": 4794,
      "ధానం": 4795,
      "बिहार": 4796,
      "స్ట్ర": 4797,
      "milit": 4798,
      "function": 4799,
      "Cl": 4800,
      "Ear": 4801,
      "Far": 4802,
      "Govern": 4803,
      "Op": 4804,
      "bat": 4805,
      "hol": 4806,
      "भो": 4807,
      "शक्ति": 4808,
      "िश": 4809,
      "అభ": 4810,
      "పక్ష": 4811,
      "ౖన": 4812,
      "alli": 4813,
      "tou": 4814,
      "iting": 4815,
      "stay": 4816,
      "కుల": 4817,
      "seas": 4818,
      "वायर": 4819,
      "कार्ड": 4820,
      "uss": 4821,
      "ung": 4822,
      "రాహు": 4823,
      "lives": 4824,
      "त्ता": 4825,
      "loss": 4826,
      "సంఘటన": 4827,
      "जोर": 4828,
      "ground": 4829,
      "च्चे": 4830,
      "आपके": 4831,
      "जिससे": 4832,
      "ानीय": 4833,
      "Commit": 4834,
      "స్థాయి": 4835,
      "constitu": 4836,
      "घायल": 4837,
      "लोकसभा": 4838,
      "क्‍त": 4839,
      "projects": 4840,
      "required": 4841,
      "history": 4842,
      "गृह": 4843,
      "गंभीर": 4844,
      "camera": 4845,
      "future": 4846,
      "abinet": 4847,
      "Roh": 4848,
      "aut": 4849,
      "bad": 4850,
      "bow": 4851,
      "data": 4852,
      "ja": 4853,
      "mad": 4854,
      "एयर": 4855,
      "बद्ध": 4856,
      "అందుకు": 4857,
      "కంటే": 4858,
      "చట్ట": 4859,
      "వారం": 4860,
      "ేదు": 4861,
      "ances": 4862,
      "aster": 4863,
      "assembly": 4864,
      "विरोध": 4865,
      "ల్సిన": 4866,
      "हासिल": 4867,
      "तेल": 4868,
      "వాడు": 4869,
      "Thats": 4870,
      "ival": 4871,
      "fected": 4872,
      "పెట్టు": 4873,
      "medical": 4874,
      "engers": 4875,
      "कहना": 4876,
      "Sub": 4877,
      "difficult": 4878,
      "respond": 4879,
      "example": 4880,
      "पत्नी": 4881,
      "features": 4882,
      "पश्चिम": 4883,
      "माध्यम": 4884,
      "Cr": 4885,
      "OD": 4886,
      "UP": 4887,
      "fav": 4888,
      "hot": 4889,
      "mes": 4890,
      "ties": 4891,
      "अन्": 4892,
      "गण": 4893,
      "दौ": 4894,
      "हरिया": 4895,
      "्व": 4896,
      "అమ": 4897,
      "యారు": 4898,
      "tour": 4899,
      "roll": 4900,
      "प्रौ": 4901,
      "ల్ని": 4902,
      "def": 4903,
      "ability": 4904,
      "uses": 4905,
      "संबो": 4906,
      "ంత్ర": 4907,
      "ivid": 4908,
      "पूरे": 4909,
      "उससे": 4910,
      "మెంట్": 4911,
      "ंदर": 4912,
      "grap": 4913,
      "మేరకు": 4914,
      "jee": 4915,
      "गुज": 4916,
      "engine": 4917,
      "आरोपी": 4918,
      "charge": 4919,
      "particular": 4920,
      "launch": 4921,
      "England": 4922,
      "claimed": 4923,
      "declared": 4924,
      "possible": 4925,
      "expressed": 4926,
      "समूह": 4927,
      "సందర్భంగా": 4928,
      "वुड": 4929,
      "33": 4930,
      "64": 4931,
      "Apr": 4932,
      "Pre": 4933,
      "Sw": 4934,
      "cil": 4935,
      "ease": 4936,
      "jour": 4937,
      "pot": 4938,
      "sat": 4939,
      "अल": 4940,
      "तृ": 4941,
      "यही": 4942,
      "लगे": 4943,
      "ఆలో": 4944,
      "ఆసుప": 4945,
      "ఉంటాయి": 4946,
      "తప్ప": 4947,
      "సహ": 4948,
      "సౌ": 4949,
      "स्क": 4950,
      "र्गत": 4951,
      "fort": 4952,
      "విశ్": 4953,
      "देशक": 4954,
      "మిక": 4955,
      "ంటర్": 4956,
      "తాయి": 4957,
      "acted": 4958,
      "ipur": 4959,
      "चुका": 4960,
      "लगता": 4961,
      "vision": 4962,
      "సమస్య": 4963,
      "దీనిపై": 4964,
      "problems": 4965,
      "pract": 4966,
      "मजबूत": 4967,
      "tweet": 4968,
      "Kar": 4969,
      "Nadu": 4970,
      "ging": 4971,
      "mur": 4972,
      "ron": 4973,
      "song": 4974,
      "जित": 4975,
      "धर्म": 4976,
      "पॉ": 4977,
      "డై": 4978,
      "తల్లి": 4979,
      "హం": 4980,
      "stru": 4981,
      "किस": 4982,
      "वाप": 4983,
      "lost": 4984,
      "స్తున్నాయి": 4985,
      "anti": 4986,
      "policy": 4987,
      "దాపు": 4988,
      "కూడ": 4989,
      "परिवर्": 4990,
      "Art": 4991,
      "service": 4992,
      "coronavirus": 4993,
      "society": 4994,
      "चाहता": 4995,
      "किसानों": 4996,
      "ాలీవుడ్": 4997,
      "बल्लेबा": 4998,
      "East": 4999,
      "IR": 5000,
      "YS": 5001,
      "bit": 5002,
      "san": 5003,
      "wide": 5004,
      "चला": 5005,
      "तू": 5006,
      "बित": 5007,
      "बंगा": 5008,
      "కను": 5009,
      "కమి": 5010,
      "ణ్": 5011,
      "తను": 5012,
      "ఫె": 5013,
      "రాల": 5014,
      "ories": 5015,
      "ेंस": 5016,
      "ప్రయా": 5017,
      "तियों": 5018,
      "तेज": 5019,
      "मुताब": 5020,
      "percent": 5021,
      "शिव": 5022,
      "ధిక": 5023,
      "వీటి": 5024,
      "workers": 5025,
      "टेड": 5026,
      "ultural": 5027,
      "positive": 5028,
      "ferred": 5029,
      "ension": 5030,
      "స్టే": 5031,
      "ledge": 5032,
      "पैदा": 5033,
      "politics": 5034,
      "ఎన్నిక": 5035,
      "ఇప్పటికే": 5036,
      "ప్రజలు": 5037,
      "increased": 5038,
      "basis": 5039,
      "ప్రదేశ్": 5040,
      "అధికారులు": 5041,
      "companies": 5042,
      "ఉద్యో": 5043,
      "Virat": 5044,
      "प्रौद्योग": 5045,
      "मुताबिक": 5046,
      "Tha": 5047,
      "aud": 5048,
      "lod": 5049,
      "mess": 5050,
      "ఫలి": 5051,
      "యని": 5052,
      "రంగా": 5053,
      "thousand": 5054,
      "once": 5055,
      "represent": 5056,
      "ensure": 5057,
      "ेंट": 5058,
      "ర్చు": 5059,
      "स्या": 5060,
      "लाल": 5061,
      "ప్రయత్": 5062,
      "abo": 5063,
      "देव": 5064,
      "देखा": 5065,
      "త్వా": 5066,
      "establish": 5067,
      "लीवुड": 5068,
      "youth": 5069,
      "Instit": 5070,
      "speed": 5071,
      "something": 5072,
      "लगाया": 5073,
      "Reg": 5074,
      "చర్యలు": 5075,
      "स्वतंत्र": 5076,
      "ండ్‌": 5077,
      "investigating": 5078,
      "విజయ": 5079,
      "साइट": 5080,
      "connection": 5081,
      "consider": 5082,
      "जल्द": 5083,
      "अभिया": 5084,
      "global": 5085,
      "महीने": 5086,
      "April": 5087,
      "42": 5088,
      "Dev": 5089,
      "Sun": 5090,
      "citiz": 5091,
      "nes": 5092,
      "pat": 5093,
      "ring": 5094,
      "अनि": 5095,
      "ऊर्जा": 5096,
      "कप्": 5097,
      "चन": 5098,
      "चान": 5099,
      "डो": 5100,
      "ढा": 5101,
      "मति": 5102,
      "लौ": 5103,
      "జర్": 5104,
      "ఫా": 5105,
      "ర‌": 5106,
      "ుల": 5107,
      "aled": 5108,
      "किये": 5109,
      "section": 5110,
      "\"\".\"": 5111,
      "ops": 5112,
      "దాదాపు": 5113,
      "individ": 5114,
      "pray": 5115,
      "ियां": 5116,
      "प्रतिनि": 5117,
      "సీఎం": 5118,
      "నిర్మ": 5119,
      "అయిన": 5120,
      "పేరు": 5121,
      "Affairs": 5122,
      "బడిన": 5123,
      "సాధారణ": 5124,
      "Offic": 5125,
      "birth": 5126,
      "यादव": 5127,
      "అనంతరం": 5128,
      "అధ్యక్షు": 5129,
      "building": 5130,
      "हरियाणा": 5131,
      "CE": 5132,
      "King": 5133,
      "Naid": 5134,
      "gone": 5135,
      "lat": 5136,
      "rushed": 5137,
      "sens": 5138,
      "अपरा": 5139,
      "एंड": 5140,
      "वही": 5141,
      "सड़": 5142,
      "డూ": 5143,
      "తల": 5144,
      "దన": 5145,
      "వన్": 5146,
      "శే": 5147,
      "review": 5148,
      "research": 5149,
      "ena": 5150,
      "chan": 5151,
      "mocr": 5152,
      "moved": 5153,
      "सिक": 5154,
      "मंदिर": 5155,
      "मेलन": 5156,
      "जिसका": 5157,
      "यूनि": 5158,
      "వైపు": 5159,
      "relation": 5160,
      "ట్టిన": 5161,
      "ఉండే": 5162,
      "न्याया": 5163,
      "అధికారి": 5164,
      "आधारित": 5165,
      "संगठन": 5166,
      "ఉత్ప": 5167,
      "नियंत्र": 5168,
      "हमेशा": 5169,
      "Committee": 5170,
      "Ali": 5171,
      "ED": 5172,
      "Edu": 5173,
      "Fe": 5174,
      "Ste": 5175,
      "fill": 5176,
      "fest": 5177,
      "game": 5178,
      "general": 5179,
      "yan": 5180,
      "उसी": 5181,
      "गम": 5182,
      "डु": 5183,
      "तरा": 5184,
      "ఇంత": 5185,
      "ఏం": 5186,
      "బయ": 5187,
      "మారి": 5188,
      "thers": 5189,
      "onse": 5190,
      "నింది": 5191,
      "station": 5192,
      "stated": 5193,
      "ention": 5194,
      "్యంలో": 5195,
      "ceed": 5196,
      "तिम": 5197,
      "दिल": 5198,
      "संस्थान": 5199,
      "shif": 5200,
      "त्सा": 5201,
      "समस्या": 5202,
      "हमले": 5203,
      "active": 5204,
      "early": 5205,
      "स्थानीय": 5206,
      "ipal": 5207,
      "युवा": 5208,
      "cogn": 5209,
      "రంగ": 5210,
      "foreign": 5211,
      "didnt": 5212,
      "direct": 5213,
      "largest": 5214,
      "బడింది": 5215,
      "పర్య": 5216,
      "quality": 5217,
      "problem": 5218,
      "హీరోయి": 5219,
      "उद्देश": 5220,
      "programme": 5221,
      "बेहतर": 5222,
      "आवश्यकता": 5223,
      "wrong": 5224,
      "स्पष्ट": 5225,
      "बच्चों": 5226,
      "suffer": 5227,
      "150": 5228,
      "Will": 5229,
      "dam": 5230,
      "fare": 5231,
      "foc": 5232,
      "hur": 5233,
      "nel": 5234,
      "ग़": 5235,
      "तला": 5236,
      "धो": 5237,
      "मित": 5238,
      "मगर": 5239,
      "िज": 5240,
      "బల": 5241,
      "ert": 5242,
      "reports": 5243,
      "enjoy": 5244,
      "often": 5245,
      "నివా": 5246,
      "least": 5247,
      "లువ": 5248,
      "seat": 5249,
      "ays": 5250,
      "ప్రముఖ": 5251,
      "साय": 5252,
      "aking": 5253,
      "డిగా": 5254,
      "సింది": 5255,
      "చిన": 5256,
      "పాట": 5257,
      "వులు": 5258,
      "నీటి": 5259,
      "నిర్మి": 5260,
      "मामलों": 5261,
      "కీలక": 5262,
      "वरण": 5263,
      "ింగ్‌": 5264,
      "Whats": 5265,
      "విషయంలో": 5266,
      "कर्नाटक": 5267,
      "స్థాన": 5268,
      "अंतिम": 5269,
      "design": 5270,
      "भेज": 5271,
      "ఎన్నికల": 5272,
      "बॉलीवुड": 5273,
      "చోటు": 5274,
      "half": 5275,
      "कोविड": 5276,
      "कप्तान": 5277,
      "85": 5278,
      "bor": 5279,
      "cto": 5280,
      "hous": 5281,
      "mult": 5282,
      "जरि": 5283,
      "भविष": 5284,
      "मर्": 5285,
      "हत्या": 5286,
      "జై": 5287,
      "केस": 5288,
      "itor": 5289,
      "ley": 5290,
      "sequ": 5291,
      "विकेट": 5292,
      "सामान्य": 5293,
      "promot": 5294,
      "opt": 5295,
      "पाए": 5296,
      "apur": 5297,
      "mob": 5298,
      "పోటీ": 5299,
      "शांति": 5300,
      "ending": 5301,
      "पहला": 5302,
      "ization": 5303,
      "हूँ": 5304,
      "Isra": 5305,
      "पर्य": 5306,
      "Also": 5307,
      "महिलाओं": 5308,
      "वजनिक": 5309,
      "अमेरिकी": 5310,
      "viral": 5311,
      "garh": 5312,
      "demanded": 5313,
      "Sena": 5314,
      "सार्वजनिक": 5315,
      "అభ్య": 5316,
      "प्रौद्योगिकी": 5317,
      "भविष्य": 5318,
      "NE": 5319,
      "School": 5320,
      "TDP": 5321,
      "card": 5322,
      "flow": 5323,
      "hind": 5324,
      "तारी": 5325,
      "दें": 5326,
      "सले": 5327,
      "గర్": 5328,
      "భవ": 5329,
      "associ": 5330,
      "enter": 5331,
      "స్సు": 5332,
      "प्रभाव": 5333,
      "olk": 5334,
      "विज्ञान": 5335,
      "वायु": 5336,
      "వివర": 5337,
      "uted": 5338,
      "log": 5339,
      "exist": 5340,
      "समे": 5341,
      "డ్డా": 5342,
      "मेरा": 5343,
      "fear": 5344,
      "वेब": 5345,
      "सुनिश्चित": 5346,
      "న్నాను": 5347,
      "acter": 5348,
      "वीट": 5349,
      "బాగా": 5350,
      "common": 5351,
      "preci": 5352,
      "సమయంలో": 5353,
      "కేసులు": 5354,
      "join": 5355,
      "అభివృద్ధి": 5356,
      "वृद्धि": 5357,
      "रेलवे": 5358,
      "ఆరోగ్య": 5359,
      "बंगाल": 5360,
      "Naidu": 5361,
      "Ge": 5362,
      "dict": 5363,
      "sister": 5364,
      "uro": 5365,
      "उन्‍": 5366,
      "टॉ": 5367,
      "टिक": 5368,
      "फु": 5369,
      "ब्रा": 5370,
      "रॉ": 5371,
      "ఎంతో": 5372,
      "తప్పు": 5373,
      "నై": 5374,
      "లిం": 5375,
      "oud": 5376,
      "स्कार": 5377,
      "ami": 5378,
      "ప్రి": 5379,
      "progress": 5380,
      "ained": 5381,
      "టువంటి": 5382,
      "जिक": 5383,
      "समी": 5384,
      "ंद्र": 5385,
      "निर्धार": 5386,
      "married": 5387,
      "बिज": 5388,
      "created": 5389,
      "giving": 5390,
      "study": 5391,
      "Jehovahs": 5392,
      "ट्वीट": 5393,
      "ग्राम": 5394,
      "బ్బంది": 5395,
      "त्मक": 5396,
      "conducted": 5397,
      "मूल्य": 5398,
      "प्रभावित": 5399,
      "measures": 5400,
      "स्ट्रेलिया": 5401,
      "Rohit": 5402,
      "89": 5403,
      "Bal": 5404,
      "CA": 5405,
      "Ju": 5406,
      "Octo": 5407,
      "uary": 5408,
      "ze": 5409,
      "कमी": 5410,
      "खबर": 5411,
      "गये": 5412,
      "धु": 5413,
      "बर्": 5414,
      "ఇచ్చి": 5415,
      "చని": 5416,
      "టార్": 5417,
      "onment": 5418,
      "नेक": 5419,
      "नेशनल": 5420,
      "र्जी": 5421,
      "ames": 5422,
      "प्रणा": 5423,
      "ల్స్": 5424,
      "aya": 5425,
      "ప్రయో": 5426,
      "department": 5427,
      "निजी": 5428,
      "माता": 5429,
      "संभावना": 5430,
      "సిద్ధ": 5431,
      "రావ": 5432,
      "రావు": 5433,
      "supp": 5434,
      "ముగ్": 5435,
      "technology": 5436,
      "సంఘ": 5437,
      "सुर": 5438,
      "spread": 5439,
      "Pras": 5440,
      "ंडी": 5441,
      "स्टो": 5442,
      "మీకు": 5443,
      "పెనీ": 5444,
      "pris": 5445,
      "anything": 5446,
      "eved": 5447,
      "మేము": 5448,
      "himself": 5449,
      "హింద": 5450,
      "रखते": 5451,
      "charges": 5452,
      "కోవాలి": 5453,
      "కాలం": 5454,
      "Mean": 5455,
      "आरोपियों": 5456,
      "IPL": 5457,
      "written": 5458,
      "మరింత": 5459,
      "దర్శకత్వంలో": 5460,
      "प्रबंधन": 5461,
      "Priy": 5462,
      "murder": 5463,
      "अभियान": 5464,
      "Israel": 5465,
      "October": 5466,
      "370": 5467,
      "RD": 5468,
      "Ven": 5469,
      "ners": 5470,
      "ses": 5471,
      "शव": 5472,
      "ख़ुदा": 5473,
      "ంబ్": 5474,
      "ఇదే": 5475,
      "తారు": 5476,
      "తగ్గ": 5477,
      "సొ": 5478,
      "infl": 5479,
      "esides": 5480,
      "किलो": 5481,
      "ర్లు": 5482,
      "कोरो": 5483,
      "iding": 5484,
      "sex": 5485,
      "sele": 5486,
      "विद्य": 5487,
      "लाइन": 5488,
      "राब": 5489,
      "निका": 5490,
      "ాలతో": 5491,
      "agree": 5492,
      "త్మ": 5493,
      "दिशा": 5494,
      "ప్టె": 5495,
      "తిని": 5496,
      "ద్ది": 5497,
      "except": 5498,
      "समार": 5499,
      "धिक": 5500,
      "मीण": 5501,
      "मीन": 5502,
      "राजस्थान": 5503,
      "increas": 5504,
      "वीं": 5505,
      "board": 5506,
      "चुकी": 5507,
      "इनमें": 5508,
      "భార్య": 5509,
      "दूसरी": 5510,
      "encies": 5511,
      "Deep": 5512,
      "officer": 5513,
      "फोटो": 5514,
      "కంపెనీ": 5515,
      "धीन": 5516,
      "విజయం": 5517,
      "inning": 5518,
      "విధంగా": 5519,
      "points": 5520,
      "pointed": 5521,
      "వ్యక్తం": 5522,
      "strengthen": 5523,
      "प्रत्येक": 5524,
      "अतिरि": 5525,
      "అక్కడి": 5526,
      "వ్యాప్తంగా": 5527,
      "गुजरात": 5528,
      "NT": 5529,
      "Sp": 5530,
      "aign": 5531,
      "publ": 5532,
      "आद": 5533,
      "तः": 5534,
      "नल": 5535,
      "फॉ": 5536,
      "అసె": 5537,
      "ఎల్": 5538,
      "క్యా": 5539,
      "జం": 5540,
      "టక": 5541,
      "బడు": 5542,
      "శో": 5543,
      "town": 5544,
      "idd": 5545,
      "ids": 5546,
      "विरा": 5547,
      "देता": 5548,
      "iah": 5549,
      "తిక": 5550,
      "जिम्मे": 5551,
      "poor": 5552,
      "हमला": 5553,
      "quar": 5554,
      "quir": 5555,
      "doctors": 5556,
      "మైన": 5557,
      "2011": 5558,
      "జీవ": 5559,
      "ఎంపి": 5560,
      "स्थापित": 5561,
      "response": 5562,
      "कंपनियों": 5563,
      "विकसित": 5564,
      "ग्रामीण": 5565,
      "signific": 5566,
      "candidate": 5567,
      "brother": 5568,
      "petition": 5569,
      "ब्रि": 5570,
      "सलमान": 5571,
      "places": 5572,
      "Hospital": 5573,
      "Defence": 5574,
      "Are": 5575,
      "Che": 5576,
      "Dav": 5577,
      "March": 5578,
      "SA": 5579,
      "cou": 5580,
      "cru": 5581,
      "either": 5582,
      "ked": 5583,
      "sw": 5584,
      "शरी": 5585,
      "ड़ा": 5586,
      "ड़ी": 5587,
      "ఎఫ్": 5588,
      "యంగా": 5589,
      "income": 5590,
      "ste": 5591,
      "room": 5592,
      "sec": 5593,
      "imp": 5594,
      "राशि": 5595,
      "uries": 5596,
      "हाद": 5597,
      "cember": 5598,
      "రికీ": 5599,
      "वेदन": 5600,
      "సాం": 5601,
      "वर्त": 5602,
      "బాటు": 5603,
      "चुनौ": 5604,
      "community": 5605,
      "चिकि": 5606,
      "leading": 5607,
      "previous": 5608,
      "భాష": 5609,
      "pped": 5610,
      "December": 5611,
      "రాజు": 5612,
      "చిత్రంలో": 5613,
      "लगातार": 5614,
      "फीसदी": 5615,
      "अवधि": 5616,
      "Super": 5617,
      "पर्या": 5618,
      "changed": 5619,
      "అంతే": 5620,
      "completed": 5621,
      "ఫోన్": 5622,
      "जगह": 5623,
      "popular": 5624,
      "చిత్రాన్ని": 5625,
      "మీడియాలో": 5626,
      "ందోళ": 5627,
      "పేర్కొన్నారు": 5628,
      "recovered": 5629,
      "क्षमता": 5630,
      "Council": 5631,
      "Meanwhile": 5632,
      "समारोह": 5633,
      "Cap": 5634,
      "House": 5635,
      "Tata": 5636,
      "mater": 5637,
      "कत": 5638,
      "चरण": 5639,
      "जता": 5640,
      "नया": 5641,
      "అక్కడ": 5642,
      "జ‌": 5643,
      "జరు": 5644,
      "काब": 5645,
      "कोह": 5646,
      "began": 5647,
      "क्ता": 5648,
      "forward": 5649,
      "గాలు": 5650,
      "ప్రొ": 5651,
      "ots": 5652,
      "చేరుకు": 5653,
      "lies": 5654,
      "living": 5655,
      "द्वि": 5656,
      "पीछे": 5657,
      "Ministers": 5658,
      "2013": 5659,
      "న్‌లో": 5660,
      "forms": 5661,
      "मिलने": 5662,
      "attended": 5663,
      "crim": 5664,
      "jected": 5665,
      "క్రీ": 5666,
      "highest": 5667,
      "पुरस्कार": 5668,
      "carry": 5669,
      "జెపి": 5670,
      "స్పంద": 5671,
      "ఫిర్యా": 5672,
      "huge": 5673,
      "अगले": 5674,
      "घोषित": 5675,
      "shooting": 5676,
      "violence": 5677,
      "వ్యవస్థ": 5678,
      "Bangl": 5679,
      "patients": 5680,
      "Srin": 5681,
      "प्रस्ताव": 5682,
      "lodged": 5683,
      "Education": 5684,
      "कोरोना": 5685,
      "ఫిర్యాదు": 5686,
      "400": 5687,
      "69": 5688,
      "Mu": 5689,
      "Muk": 5690,
      "TI": 5691,
      "sit": 5692,
      "अप्र": 5693,
      "नै": 5694,
      "ఇప్పుడు": 5695,
      "ఎంత": 5696,
      "తమైన": 5697,
      "పించారు": 5698,
      "శ్రా": 5699,
      "atic": 5700,
      "astru": 5701,
      "నియా": 5702,
      "rodu": 5703,
      "adha": 5704,
      "स्त्र": 5705,
      "forces": 5706,
      "हाई": 5707,
      "resol": 5708,
      "trade": 5709,
      "etc": 5710,
      "दियों": 5711,
      "मियों": 5712,
      "దుపు": 5713,
      "रीज": 5714,
      "load": 5715,
      "श्वर": 5716,
      "దానికి": 5717,
      "offer": 5718,
      "access": 5719,
      "सूल": 5720,
      "occur": 5721,
      "शील": 5722,
      "కోవడం": 5723,
      "looking": 5724,
      "समझौ": 5725,
      "మైంది": 5726,
      "चाहते": 5727,
      "witness": 5728,
      "సంగతి": 5729,
      "committee": 5730,
      "benefit": 5731,
      "electric": 5732,
      "అసెంబ్": 5733,
      "51": 5734,
      "Don": 5735,
      "Des": 5736,
      "Mem": 5737,
      "Paw": 5738,
      "Wom": 5739,
      "\\\"\"": 5740,
      "budget": 5741,
      "sl": 5742,
      "sou": 5743,
      "tit": 5744,
      "wish": 5745,
      "अक्": 5746,
      "आन": 5747,
      "आयोजन": 5748,
      "इट": 5749,
      "लक": 5750,
      "िता": 5751,
      "అవి": 5752,
      "ఇన్": 5753,
      "చైనా": 5754,
      "శక్తి": 5755,
      "isions": 5756,
      "aland": 5757,
      "arh": 5758,
      "itness": 5759,
      "काउ": 5760,
      "र्क": 5761,
      "vey": 5762,
      "కుమారు": 5763,
      "विस्त": 5764,
      "trict": 5765,
      "deb": 5766,
      "చేస్తా": 5767,
      "ముంబ": 5768,
      "मुकाब": 5769,
      "पुरा": 5770,
      "ష్టి": 5771,
      "cast": 5772,
      "Chenn": 5773,
      "ems": 5774,
      "earch": 5775,
      "तुलना": 5776,
      "చెబు": 5777,
      "aug": 5778,
      "एसटी": 5779,
      "टेल": 5780,
      "స్‌లో": 5781,
      "निर्ण": 5782,
      "सोशल": 5783,
      "విషయాన్ని": 5784,
      "అవసర": 5785,
      "higher": 5786,
      "families": 5787,
      "frastru": 5788,
      "కృష్ణ": 5789,
      "అర్థ": 5790,
      "వచ్చిన": 5791,
      "named": 5792,
      "Patel": 5793,
      "conduct": 5794,
      "Railway": 5795,
      "responsibility": 5796,
      "జరగ": 5797,
      "Bharat": 5798,
      "storage": 5799,
      "Salman": 5800,
      "పడ్డారు": 5801,
      "relationship": 5802,
      "वर्तमान": 5803,
      "అసెంబ్లీ": 5804,
      "44": 5805,
      "Jud": 5806,
      "June": 5807,
      "Nir": 5808,
      "Ur": 5809,
      "bur": 5810,
      "bill": 5811,
      "bats": 5812,
      "kg": 5813,
      "paid": 5814,
      "ufact": 5815,
      "vid": 5816,
      "wind": 5817,
      "आय": 5818,
      "जवान": 5819,
      "टों": 5820,
      "ट्ट": 5821,
      "लान": 5822,
      "वक्त": 5823,
      "सवाल": 5824,
      "ह्": 5825,
      "అస": 5826,
      "ఆందోళ": 5827,
      "డ్ర": 5828,
      "మండ": 5829,
      "thy": 5830,
      "anim": 5831,
      "erc": 5832,
      "ern": 5833,
      "administr": 5834,
      "वादी": 5835,
      "resign": 5836,
      "చేపట్ట": 5837,
      "డిని": 5838,
      "संशो": 5839,
      "ल्स": 5840,
      "मुला": 5841,
      "నాన్ని": 5842,
      "tegr": 5843,
      "webs": 5844,
      "డ్డు": 5845,
      "క్షన్": 5846,
      "मानव": 5847,
      "दोष": 5848,
      "आईपी": 5849,
      "अनुमति": 5850,
      "चिका": 5851,
      "వర్ష": 5852,
      "బిజెపి": 5853,
      "knowledge": 5854,
      "వ్‌": 5855,
      "included": 5856,
      "marks": 5857,
      "clean": 5858,
      "smart": 5859,
      "ఆధార": 5860,
      "राजनीतिक": 5861,
      "సోషల్": 5862,
      "प्रणाली": 5863,
      "Chennai": 5864,
      "66": 5865,
      "Bill": 5866,
      "Let": 5867,
      "Later": 5868,
      "hours": 5869,
      "sions": 5870,
      "इल": 5871,
      "उन्": 5872,
      "गरी": 5873,
      "टै": 5874,
      "न्य": 5875,
      "पल": 5876,
      "रों": 5877,
      "लक्ष": 5878,
      "लयों": 5879,
      "ఆల": 5880,
      "ఎన్‌": 5881,
      "జట్టు": 5882,
      "దె": 5883,
      "దొ": 5884,
      "పణ": 5885,
      "బం": 5886,
      "భద్ర": 5887,
      "reve": 5888,
      "recogn": 5889,
      "atul": 5890,
      "outs": 5891,
      "నిర": 5892,
      "leave": 5893,
      "కున్న": 5894,
      "विमान": 5895,
      "वास्त": 5896,
      "राय": 5897,
      "सामा": 5898,
      "न्स": 5899,
      "देना": 5900,
      "ములు": 5901,
      "सिंग": 5902,
      "ivity": 5903,
      "उनमें": 5904,
      "हिंद": 5905,
      "space": 5906,
      "host": 5907,
      "served": 5908,
      "compet": 5909,
      "mony": 5910,
      "पेट्रो": 5911,
      "सोच": 5912,
      "object": 5913,
      "పొందు": 5914,
      "यीशु": 5915,
      "includes": 5916,
      "రాష్ట్రంలో": 5917,
      "constit": 5918,
      "कराया": 5919,
      "instru": 5920,
      "పడిన": 5921,
      "economy": 5922,
      "Special": 5923,
      "course": 5924,
      "campaign": 5925,
      "అవకాశం": 5926,
      "products": 5927,
      "संबोधित": 5928,
      "ఆలోచ": 5929,
      "Amb": 5930,
      "Dep": 5931,
      "Rel": 5932,
      "Sep": 5933,
      "batt": 5934,
      "nu": 5935,
      "rich": 5936,
      "ंदा": 5937,
      "घु": 5938,
      "ఇలాంటి": 5939,
      "తక్కువ": 5940,
      "పతి": 5941,
      "వహి": 5942,
      "ర్థ": 5943,
      "र्च": 5944,
      "behind": 5945,
      "నులు": 5946,
      "imum": 5947,
      "democr": 5948,
      "lied": 5949,
      "safe": 5950,
      "necess": 5951,
      "मंडल": 5952,
      "కొంత": 5953,
      "వేయ": 5954,
      "తాజా": 5955,
      "పైగా": 5956,
      "वर्ण": 5957,
      "पहचान": 5958,
      "आईटी": 5959,
      "gets": 5960,
      "Rajya": 5961,
      "ంటున్నారు": 5962,
      "introdu": 5963,
      "Afric": 5964,
      "वर्षों": 5965,
      "share": 5966,
      "धीश": 5967,
      "mortem": 5968,
      "కార్డు": 5969,
      "प्रेर": 5970,
      "సభ్య": 5971,
      "training": 5972,
      "विषय": 5973,
      "deliver": 5974,
      "above": 5975,
      "Prasad": 5976,
      "Bangladesh": 5977,
      "frastructure": 5978,
      "57": 5979,
      "HD": 5980,
      "Sever": 5981,
      "Yog": 5982,
      "\\\\": 5983,
      "ier": 5984,
      "path": 5985,
      "uck": 5986,
      "ंतर": 5987,
      "एँ": 5988,
      "प्य": 5989,
      "रसूल": 5990,
      "वॉ": 5991,
      "ఇటీ": 5992,
      "ట్రా": 5993,
      "ూరు": 5994,
      "‌ని": 5995,
      "belong": 5996,
      "ama": 5997,
      "प्रार": 5998,
      "ించండి": 5999,
      "ించాలని": 6000,
      "mention": 6001,
      "ababu": 6002,
      "कारो": 6003,
      "unto": 6004,
      "రామ": 6005,
      "ल्‍": 6006,
      "rail": 6007,
      "model": 6008,
      "పాఠ": 6009,
      "female": 6010,
      "Invest": 6011,
      "చ్చు": 6012,
      "కేవల": 6013,
      "దాలు": 6014,
      "వేల": 6015,
      "acting": 6016,
      "2012": 6017,
      "आईसी": 6018,
      "trying": 6019,
      "box": 6020,
      "వ్యవహ": 6021,
      "ంధ్ర": 6022,
      "Moham": 6023,
      "energy": 6024,
      "everyone": 6025,
      "సూచ": 6026,
      "सम्मेलन": 6027,
      "reasons": 6028,
      "समाज": 6029,
      "కార్యక్ర": 6030,
      "joint": 6031,
      "closed": 6032,
      "बढ़ाने": 6033,
      "व्यापार": 6034,
      "Technology": 6035,
      "सदस्यों": 6036,
      "ప్రమాద": 6037,
      "तरीके": 6038,
      "petrol": 6039,
      "गैर": 6040,
      "break": 6041,
      "shifted": 6042,
      "उन्‍ह": 6043,
      "Priyanka": 6044,
      "కేవలం": 6045,
      "34": 6046,
      "52": 6047,
      "Fil": 6048,
      "Nav": 6049,
      "Rash": 6050,
      "Russ": 6051,
      "Up": 6052,
      "ggest": 6053,
      "ye": 6054,
      "इंग्": 6055,
      "जमा": 6056,
      "बनी": 6057,
      "भर्": 6058,
      "वधान": 6059,
      "ఉన్నా": 6060,
      "పౌ": 6061,
      "ఫై": 6062,
      "threat": 6063,
      "ane": 6064,
      "atory": 6065,
      "ark": 6066,
      "నిమి": 6067,
      "icated": 6068,
      "लिम": 6069,
      "arent": 6070,
      "వివ": 6071,
      "రికి": 6072,
      "न्तु": 6073,
      "माना": 6074,
      "तेजी": 6075,
      "కావ": 6076,
      "पालन": 6077,
      "ney": 6078,
      "తిరిగి": 6079,
      "స్తున్నాడు": 6080,
      "త్రు": 6081,
      "affected": 6082,
      "పెరుగు": 6083,
      "achal": 6084,
      "anyone": 6085,
      "रुष": 6086,
      "assist": 6087,
      "screen": 6088,
      "సీపీ": 6089,
      "सूची": 6090,
      "చేయడం": 6091,
      "officers": 6092,
      "2009": 6093,
      "డీపీ": 6094,
      "సేవ": 6095,
      "देखने": 6096,
      "personal": 6097,
      "सामना": 6098,
      "विश्वविद्यालय": 6099,
      "వాటిని": 6100,
      "उत्पाद": 6101,
      "similar": 6102,
      "answer": 6103,
      "शुरुआत": 6104,
      "రాహుల్": 6105,
      "Institute": 6106,
      "అధ్యక్షుడు": 6107,
      "उद्देश्य": 6108,
      "Several": 6109,
      "67": 6110,
      "App": 6111,
      "Cabinet": 6112,
      "Lt": 6113,
      "Nit": 6114,
      "Under": 6115,
      "aul": 6116,
      "categ": 6117,
      "ech": 6118,
      "आयु": 6119,
      "कहीं": 6120,
      "डू": 6121,
      "తగ్": 6122,
      "నల్": 6123,
      "నటు": 6124,
      "నన్ను": 6125,
      "వంత": 6126,
      "reli": 6127,
      "ator": 6128,
      "याचिका": 6129,
      "क्शन": 6130,
      "forman": 6131,
      "लागत": 6132,
      "imate": 6133,
      "improve": 6134,
      "निंग": 6135,
      "whom": 6136,
      "ాలలో": 6137,
      "ull": 6138,
      "మాట": 6139,
      "expect": 6140,
      "दावा": 6141,
      "हमारा": 6142,
      "Three": 6143,
      "polls": 6144,
      "disease": 6145,
      "వేది": 6146,
      "Chin": 6147,
      "ghan": 6148,
      "emer": 6149,
      "emic": 6150,
      "वहन": 6151,
      "aware": 6152,
      "प्ले": 6153,
      "worked": 6154,
      "కెప్టె": 6155,
      "itual": 6156,
      "ika": 6157,
      "पहुँ": 6158,
      "changes": 6159,
      "फ़ि": 6160,
      "bodies": 6161,
      "जिनमें": 6162,
      "inner": 6163,
      "ప్రకటన": 6164,
      "little": 6165,
      "विधायक": 6166,
      "మర్శ": 6167,
      "उत्पादन": 6168,
      "friends": 6169,
      "heavy": 6170,
      "विदेशी": 6171,
      "कौन": 6172,
      "అత్యంత": 6173,
      "until": 6174,
      "application": 6175,
      "सड़क": 6176,
      "सामाजिक": 6177,
      "--": 6178,
      "AS": 6179,
      "Big": 6180,
      "BCC": 6181,
      "Fr": 6182,
      "Ger": 6183,
      "GST": 6184,
      "Public": 6185,
      "nath": 6186,
      "van": 6187,
      "wro": 6188,
      "warn": 6189,
      "कप": 6190,
      "थो": 6191,
      "मई": 6192,
      "मना": 6193,
      "शै": 6194,
      "ఎన్న": 6195,
      "చారు": 6196,
      "చరి": 6197,
      "త్యా": 6198,
      "బడ": 6199,
      "బాలీవుడ్": 6200,
      "లూ": 6201,
      "సము": 6202,
      "thank": 6203,
      "सेट": 6204,
      "vember": 6205,
      "Their": 6206,
      "ల్వే": 6207,
      "igarh": 6208,
      "comb": 6209,
      "संस्था": 6210,
      "Indust": 6211,
      "రాజీ": 6212,
      "shi": 6213,
      "पुरुष": 6214,
      "पूछ": 6215,
      "poll": 6216,
      "स्टार": 6217,
      "princ": 6218,
      "whole": 6219,
      "ప్పుడూ": 6220,
      "వచ్చే": 6221,
      "వచ్చా": 6222,
      "Anil": 6223,
      "Mahesh": 6224,
      "November": 6225,
      "అంతర్": 6226,
      "developed": 6227,
      "questions": 6228,
      "foot": 6229,
      "बदल": 6230,
      "చేసుకుంది": 6231,
      "spirit": 6232,
      "ఉపయోగ": 6233,
      "January": 6234,
      "Aug": 6235,
      "క్రమంలో": 6236,
      "अच्छे": 6237,
      "చంద్రబాబు": 6238,
      "ఎమ్మె": 6239,
      "vehicles": 6240,
      "Chandrababu": 6241,
      "न्यायाधीश": 6242,
      "wrote": 6243,
      "Ay": 6244,
      "Cup": 6245,
      "Dhon": 6246,
      "Fore": 6247,
      "Jay": 6248,
      "Nath": 6249,
      "Sush": 6250,
      "Tal": 6251,
      "Ze": 6252,
      "bann": 6253,
      "gen": 6254,
      "gri": 6255,
      "govern": 6256,
      "ium": 6257,
      "jit": 6258,
      "ler": 6259,
      "link": 6260,
      "sched": 6261,
      "फ्ट": 6262,
      "ఆంధ్ర": 6263,
      "గౌ": 6264,
      "తది": 6265,
      "ల్య": 6266,
      "షూ": 6267,
      "eds": 6268,
      "यात": 6269,
      "న్స్‌": 6270,
      "icide": 6271,
      "ilater": 6272,
      "roy": 6273,
      "स्पे": 6274,
      "क्ट": 6275,
      "लियन": 6276,
      "लाया": 6277,
      "urs": 6278,
      "dece": 6279,
      "ables": 6280,
      "utes": 6281,
      "बाल": 6282,
      "కాల్": 6283,
      "super": 6284,
      "पात": 6285,
      "apan": 6286,
      "rah": 6287,
      "सियों": 6288,
      "दीप": 6289,
      "हम्": 6290,
      "performan": 6291,
      "quite": 6292,
      "worship": 6293,
      "While": 6294,
      "फिल": 6295,
      "hood": 6296,
      "ఒకటి": 6297,
      "భావ": 6298,
      "गुण": 6299,
      "Arjun": 6300,
      "రాజ్య": 6301,
      "plays": 6302,
      "players": 6303,
      "tained": 6304,
      "स्‍थ": 6305,
      "शीर्ष": 6306,
      "फाय": 6307,
      "Islam": 6308,
      "पर्क": 6309,
      "मनो": 6310,
      "seek": 6311,
      "joined": 6312,
      "सलाह": 6313,
      "English": 6314,
      "vote": 6315,
      "अंतर्रा": 6316,
      "జ్ఞా": 6317,
      "Kej": 6318,
      "दिवस": 6319,
      "diesel": 6320,
      "Governor": 6321,
      "constituency": 6322,
      "परिवर्तन": 6323,
      "समेत": 6324,
      "वेबसाइट": 6325,
      "material": 6326,
      "निर्णय": 6327,
      "भर्ती": 6328,
      "AI": 6329,
      "Bl": 6330,
      "Bha": 6331,
      "Mand": 6332,
      "Nag": 6333,
      "Other": 6334,
      "Pand": 6335,
      "freed": 6336,
      "ga": 6337,
      "iers": 6338,
      "late": 6339,
      "ming": 6340,
      "mun": 6341,
      "rights": 6342,
      "squ": 6343,
      "tor": 6344,
      "watch": 6345,
      "एड": 6346,
      "तस्वी": 6347,
      "नती": 6348,
      "पण": 6349,
      "प्ट": 6350,
      "बधा": 6351,
      "मसी": 6352,
      "ంక": 6353,
      "అలాంటి": 6354,
      "అదుపు": 6355,
      "ఇంటి": 6356,
      "ఉందని": 6357,
      "ఐదు": 6358,
      "చార": 6359,
      "టమి": 6360,
      "నమ్మ": 6361,
      "షణ": 6362,
      "సంతో": 6363,
      "హార్": 6364,
      "ators": 6365,
      "ene": 6366,
      "केन्द्र": 6367,
      "amb": 6368,
      "secretary": 6369,
      "लित": 6370,
      "ప్రజా": 6371,
      "వివిధ": 6372,
      "सात": 6373,
      "చేస్తుంది": 6374,
      "కింద": 6375,
      "ప్లా": 6376,
      "ड़ों": 6377,
      "suggest": 6378,
      "saf": 6379,
      "పాకి": 6380,
      "పోర్": 6381,
      "anger": 6382,
      "పిన": 6383,
      "themselves": 6384,
      "खास": 6385,
      "प्‍": 6386,
      "जनवरी": 6387,
      "rug": 6388,
      "Arun": 6389,
      "ption": 6390,
      "जैसा": 6391,
      "जैसी": 6392,
      "purpose": 6393,
      "विश्‍": 6394,
      "देखते": 6395,
      "చర్య": 6396,
      "वैश्": 6397,
      "नेताओं": 6398,
      "फैसले": 6399,
      "सर्व": 6400,
      "passengers": 6401,
      "ట్రో": 6402,
      "పడింది": 6403,
      "చ్చారు": 6404,
      "Sanjay": 6405,
      "చేశాడు": 6406,
      "प्रशासन": 6407,
      "opportunity": 6408,
      "involved": 6409,
      "July": 6410,
      "अतिरिक्त": 6411,
      "68": 6412,
      "Face": 6413,
      "Here": 6414,
      "MC": 6415,
      "Sur": 6416,
      "cra": 6417,
      "cities": 6418,
      "khar": 6419,
      "mass": 6420,
      "अली": 6421,
      "ठि": 6422,
      "पृ": 6423,
      "शू": 6424,
      "ील": 6425,
      "ంట్‌": 6426,
      "జగ": 6427,
      "డైన": 6428,
      "యల్": 6429,
      "thought": 6430,
      "enge": 6431,
      "्रो": 6432,
      "प्रस्तु": 6433,
      "ింప": 6434,
      "ట్స్": 6435,
      "निदेशक": 6436,
      "igital": 6437,
      "ably": 6438,
      "డికి": 6439,
      "पाया": 6440,
      "tele": 6441,
      "tember": 6442,
      "जीव": 6443,
      "identified": 6444,
      "स्टा": 6445,
      "grant": 6446,
      "regular": 6447,
      "पूर्ति": 6448,
      "ensive": 6449,
      "వ్వు": 6450,
      "मतलब": 6451,
      "ప్పటికీ": 6452,
      "దర్శకుడు": 6453,
      "कराने": 6454,
      "followed": 6455,
      "teams": 6456,
      "भेजा": 6457,
      "प्रेस": 6458,
      "vironment": 6459,
      "स्वीकार": 6460,
      "చిత్రానికి": 6461,
      "నిర్ణయం": 6462,
      "approach": 6463,
      "కారణంగా": 6464,
      "Colle": 6465,
      "अच्छी": 6466,
      "whether": 6467,
      "गेंदबा": 6468,
      "experience": 6469,
      "సంగీతం": 6470,
      "increasing": 6471,
      "David": 6472,
      "कोहली": 6473,
      "Deputy": 6474,
      "necessary": 6475,
      "हम्मद": 6476,
      "Kejri": 6477,
      "बधाई": 6478,
      "CB": 6479,
      "Euro": 6480,
      "Fir": 6481,
      "JD": 6482,
      "Kolk": 6483,
      "ahead": 6484,
      "fans": 6485,
      "ger": 6486,
      "jan": 6487,
      "mag": 6488,
      "sons": 6489,
      "उदा": 6490,
      "जन्": 6491,
      "तय": 6492,
      "दरा": 6493,
      "पसं": 6494,
      "बढ़": 6495,
      "ैल": 6496,
      "ज़ा": 6497,
      "కపో": 6498,
      "గ‌": 6499,
      "ఫు": 6500,
      "భర్": 6501,
      "య‌": 6502,
      "రవి": 6503,
      "online": 6504,
      "isl": 6505,
      "orig": 6506,
      "స్టి": 6507,
      "ందన్నారు": 6508,
      "स्मार्ट": 6509,
      "term": 6510,
      "terms": 6511,
      "విమర్శ": 6512,
      "तिक": 6513,
      "igation": 6514,
      "जाय": 6515,
      "తున్నా": 6516,
      "చేరి": 6517,
      "aper": 6518,
      "मिशन": 6519,
      "ल्क": 6520,
      "నేపథ": 6521,
      "techn": 6522,
      "manufact": 6523,
      "సామా": 6524,
      "actress": 6525,
      "ండ్ర": 6526,
      "auto": 6527,
      "जिसने": 6528,
      "हरण": 6529,
      "అయినా": 6530,
      "strict": 6531,
      "Mohan": 6532,
      "खुश": 6533,
      "రాష్ట్రా": 6534,
      "Produ": 6535,
      "character": 6536,
      "జెక్": 6537,
      "examination": 6538,
      "करेगी": 6539,
      "కేంద్రం": 6540,
      "डॉलर": 6541,
      "నమోద": 6542,
      "north": 6543,
      "సంబంధించి": 6544,
      "విద్యార్థ": 6545,
      "कृतिक": 6546,
      "इलाके": 6547,
      "population": 6548,
      "भुग": 6549,
      "talks": 6550,
      "Muslims": 6551,
      "ष्‍ट": 6552,
      "Group": 6553,
      "రాజకీయ": 6554,
      "పాల్గొన్నారు": 6555,
      "बदलाव": 6556,
      "significant": 6557,
      "website": 6558,
      "September": 6559,
      "वैश्विक": 6560,
      "Kolkata": 6561,
      "120": 6562,
      "Amar": 6563,
      "By": 6564,
      "Japan": 6565,
      "PP": 6566,
      "bound": 6567,
      "ded": 6568,
      "fell": 6569,
      "pted": 6570,
      "rural": 6571,
      "wise": 6572,
      "अंक": 6573,
      "अनेक": 6574,
      "आस": 6575,
      "इतिहा": 6576,
      "ऊपर": 6577,
      "जरी": 6578,
      "बने": 6579,
      "बच्चे": 6580,
      "అద్": 6581,
      "అమి": 6582,
      "ఆస": 6583,
      "దారి": 6584,
      "నొ": 6585,
      "మౌ": 6586,
      "సమీ": 6587,
      "ేష్": 6588,
      "attem": 6589,
      "ened": 6590,
      "किंग": 6591,
      "स्टी": 6592,
      "గానే": 6593,
      "वासी": 6594,
      "ప్రవేశ": 6595,
      "ague": 6596,
      "చేయు": 6597,
      "मां": 6598,
      "contr": 6599,
      "confir": 6600,
      "డుగు": 6601,
      "ource": 6602,
      "lip": 6603,
      "shot": 6604,
      "sured": 6605,
      "లియా": 6606,
      "పులు": 6607,
      "iful": 6608,
      "रिश्": 6609,
      "కొండ": 6610,
      "स्टि": 6611,
      "పెం": 6612,
      "nov": 6613,
      "whose": 6614,
      "మోహ": 6615,
      "दूसरा": 6616,
      "బ్‌": 6617,
      "పోలీసులకు": 6618,
      "कर्ता": 6619,
      "ఎంపీ": 6620,
      "फाइन": 6621,
      "standing": 6622,
      "operations": 6623,
      "morning": 6624,
      "కాంగ్రెస్‌": 6625,
      "liter": 6626,
      "Research": 6627,
      "ప్రమాదం": 6628,
      "spiritual": 6629,
      "Commissioner": 6630,
      "Railways": 6631,
      "Election": 6632,
      "implementation": 6633,
      "సార్లు": 6634,
      "Krishna": 6635,
      "circ": 6636,
      "season": 6637,
      "अप्रैल": 6638,
      "ముంబై": 6639,
      "BCCI": 6640,
      "ilateral": 6641,
      "Kejriwal": 6642,
      "भुगतान": 6643,
      "इतिहास": 6644,
      "77": 6645,
      "?\"": 6646,
      "Ben": 6647,
      "Cont": 6648,
      "FC": 6649,
      "NS": 6650,
      "Roy": 6651,
      "Sim": 6652,
      "aired": 6653,
      "pite": 6654,
      "इयों": 6655,
      "गन": 6656,
      "जनों": 6657,
      "नुक": 6658,
      "पौ": 6659,
      "मक": 6660,
      "रान": 6661,
      "शहरी": 6662,
      "हॉ": 6663,
      "అన్న": 6664,
      "ఆహ": 6665,
      "ఎందు": 6666,
      "ద్యా": 6667,
      "పరుగు": 6668,
      "మన్నారు": 6669,
      "వరు": 6670,
      "argu": 6671,
      "ici": 6672,
      "परवर": 6673,
      "verse": 6674,
      "लिंग": 6675,
      "विजय": 6676,
      "विधे": 6677,
      "ట్లో": 6678,
      "ించాలి": 6679,
      "निर": 6680,
      "निपट": 6681,
      "न्व": 6682,
      "दिगार": 6683,
      "acity": 6684,
      "accept": 6685,
      "संसा": 6686,
      "संचार": 6687,
      "రామ్": 6688,
      "కాని": 6689,
      "suicide": 6690,
      "riage": 6691,
      "ल्प": 6692,
      "भागी": 6693,
      "ंगी": 6694,
      "పోయారు": 6695,
      "డ్జె": 6696,
      "upcoming": 6697,
      "కొను": 6698,
      "management": 6699,
      "सुना": 6700,
      "सुप्री": 6701,
      "పెరిగి": 6702,
      "టీడీపీ": 6703,
      "చెంద": 6704,
      "2010": 6705,
      "gov": 6706,
      "मोहन": 6707,
      "scri": 6708,
      "ధాన": 6709,
      "128": 6710,
      "व्यक्त": 6711,
      "Most": 6712,
      "distrib": 6713,
      "needed": 6714,
      "जुड़े": 6715,
      "ఉండాలి": 6716,
      "శ్రమ": 6717,
      "पहुंचा": 6718,
      "विश्वास": 6719,
      "లక్షలు": 6720,
      "గొప్ప": 6721,
      "రైల్వే": 6722,
      "passed": 6723,
      "Chair": 6724,
      "सीटों": 6725,
      "अमित": 6726,
      "Corpor": 6727,
      "सांसद": 6728,
      "steps": 6729,
      "challeng": 6730,
      "wickets": 6731,
      "Monday": 6732,
      "ఎన్నికల్లో": 6733,
      "quiry": 6734,
      "ఎమ్మెల్య": 6735,
      "परवरदिगार": 6736,
      "ఎమ్మెల్యే": 6737,
      "Ban": 6738,
      "Lal": 6739,
      "ME": 6740,
      "Pers": 6741,
      "Power": 6742,
      "Vice": 6743,
      "cred": 6744,
      "south": 6745,
      "ंदी": 6746,
      "अधीन": 6747,
      "ऑन": 6748,
      "कथ": 6749,
      "खार": 6750,
      "बारी": 6751,
      "यहाँ": 6752,
      "रोग": 6753,
      "ल्यू": 6754,
      "वस्तु": 6755,
      "सप्ता": 6756,
      "हरे": 6757,
      "అప్పుడు": 6758,
      "దర": 6759,
      "పార": 6760,
      "ఫ్ర": 6761,
      "బహు": 6762,
      "మార": 6763,
      "inaug": 6764,
      "న్సి": 6765,
      "ilt": 6766,
      "कात": 6767,
      "ప్రకారం": 6768,
      "कारा": 6769,
      "akash": 6770,
      "probe": 6771,
      "uni": 6772,
      "संक्रम": 6773,
      "संविधान": 6774,
      "सीरीज": 6775,
      "मुस्": 6776,
      "रहते": 6777,
      "स्टर": 6778,
      "वीर": 6779,
      "counter": 6780,
      "బాధ్య": 6781,
      "एसपी": 6782,
      "enced": 6783,
      "మొదల": 6784,
      "మూవీ": 6785,
      "जानते": 6786,
      "investment": 6787,
      "జ్‌": 6788,
      "ించాయి": 6789,
      "located": 6790,
      "ieve": 6791,
      "मार्च": 6792,
      "value": 6793,
      "999": 6794,
      "पत्ति": 6795,
      "committed": 6796,
      "वित्तीय": 6797,
      "schools": 6798,
      "భాగంగా": 6799,
      "జీవిత": 6800,
      "allowed": 6801,
      "उल्लेख": 6802,
      "दृष्टि": 6803,
      "लिखित": 6804,
      "failed": 6805,
      "American": 6806,
      "ruption": 6807,
      "Assam": 6808,
      "नियंत्रण": 6809,
      "నిందితు": 6810,
      "समीक्षा": 6811,
      "आदमी": 6812,
      "प्यार": 6813,
      "చరిత్ర": 6814,
      "Dhoni": 6815,
      "freedom": 6816,
      "56": 6817,
      "AR": 6818,
      "Kore": 6819,
      "Rep": 6820,
      "cup": 6821,
      "dro": 6822,
      "eight": 6823,
      "fine": 6824,
      "fru": 6825,
      "hom": 6826,
      "hope": 6827,
      "mom": 6828,
      "nat": 6829,
      "phe": 6830,
      "send": 6831,
      "tw": 6832,
      "vs": 6833,
      "आती": 6834,
      "आंक": 6835,
      "गल": 6836,
      "ट्रा": 6837,
      "तत्": 6838,
      "दय": 6839,
      "बिक": 6840,
      "గంట": 6841,
      "తగా": 6842,
      "దశ": 6843,
      "integr": 6844,
      "request": 6845,
      "केरल": 6846,
      "iced": 6847,
      "స్ట్‌": 6848,
      "ర్తి": 6849,
      "advis": 6850,
      "admitted": 6851,
      "separ": 6852,
      "प्रसार": 6853,
      "विवाद": 6854,
      "క్స్‌": 6855,
      "గాల": 6856,
      "लादेश": 6857,
      "resh": 6858,
      "వివా": 6859,
      "aging": 6860,
      "माने": 6861,
      "opal": 6862,
      "సిబ్బంది": 6863,
      "కాకుండా": 6864,
      "meth": 6865,
      "నాథ": 6866,
      "కోట్": 6867,
      "सिटी": 6868,
      "शासन": 6869,
      "चाहे": 6870,
      "దేవ": 6871,
      "దాంతో": 6872,
      "ండగా": 6873,
      "ष्ट्रीय": 6874,
      "prime": 6875,
      "मैन": 6876,
      "orders": 6877,
      "वर्क": 6878,
      "aily": 6879,
      "ష్ట్ర": 6880,
      "ashed": 6881,
      "therefore": 6882,
      "Indians": 6883,
      "hero": 6884,
      "बेटी": 6885,
      "योगदान": 6886,
      "కెట్‌": 6887,
      "Afghan": 6888,
      "legal": 6889,
      "స్తాయి": 6890,
      "हेतु": 6891,
      "minor": 6892,
      "laws": 6893,
      "stop": 6894,
      "डॉक्टर": 6895,
      "మహారా": 6896,
      "Constit": 6897,
      "ICC": 6898,
      "announce": 6899,
      "Mark": 6900,
      "छोटे": 6901,
      "employment": 6902,
      "employees": 6903,
      "మాట్లాడు": 6904,
      "District": 6905,
      "protect": 6906,
      "దర్శకత్వం": 6907,
      "వెళ్లి": 6908,
      "language": 6909,
      "draw": 6910,
      "ఆస్పత్రికి": 6911,
      "Services": 6912,
      "tweeted": 6913,
      "డైరె": 6914,
      "वापस": 6915,
      "प्रतिनिधि": 6916,
      "హీరోయిన్": 6917,
      "focus": 6918,
      "houses": 6919,
      "निर्धारित": 6920,
      "सुरक्षित": 6921,
      "published": 6922,
      "couple": 6923,
      "फिलहाल": 6924,
      "Facebook": 6925,
      "Europe": 6926,
      "First": 6927,
      "नुकसान": 6928,
      "58": 6929,
      "78": 6930,
      "Bab": 6931,
      "Di": 6932,
      "From": 6933,
      "Law": 6934,
      "PS": 6935,
      "Per": 6936,
      "Sar": 6937,
      "Water": 6938,
      "fal": 6939,
      "fel": 6940,
      "ping": 6941,
      "इन्": 6942,
      "उत": 6943,
      "एशिया": 6944,
      "घं": 6945,
      "म्र": 6946,
      "सत्र": 6947,
      "सहम": 6948,
      "ड़े": 6949,
      "అంచ": 6950,
      "ధీ": 6951,
      "బడ్జె": 6952,
      "లర్": 6953,
      "recomm": 6954,
      "यानी": 6955,
      "నిజా": 6956,
      "ందరు": 6957,
      "bey": 6958,
      "लेज": 6959,
      "agric": 6960,
      "बाव": 6961,
      "estic": 6962,
      "వాడ": 6963,
      "appreci": 6964,
      "मिन": 6965,
      "त्मा": 6966,
      "plat": 6967,
      "plant": 6968,
      "नीचे": 6969,
      "పాడు": 6970,
      "ously": 6971,
      "म्स": 6972,
      "ళ్లి": 6973,
      "जनरल": 6974,
      "ర్‌లో": 6975,
      "उपस्थित": 6976,
      "युव": 6977,
      "lower": 6978,
      "गुरु": 6979,
      "ంటుంది": 6980,
      "डाल": 6981,
      "बारिश": 6982,
      "itude": 6983,
      "ప్రభుత్వా": 6984,
      "Pakistani": 6985,
      "everything": 6986,
      "personnel": 6987,
      "descri": 6988,
      "normal": 6989,
      "ternal": 6990,
      "litre": 6991,
      "banks": 6992,
      "गैस": 6993,
      "respectively": 6994,
      "placed": 6995,
      "conditions": 6996,
      "easy": 6997,
      "परियोजनाओं": 6998,
      "authorities": 6999,
      "driver": 7000,
      "Ahmed": 7001,
      "custody": 7002,
      "construction": 7003,
      "अपराध": 7004,
      "mobile": 7005,
      "बिजली": 7006,
      "विराट": 7007,
      "ఆందోళన": 7008,
      "इंग्लैंड": 7009,
      "तस्वीर": 7010,
      "सुप्रीम": 7011,
      "Constitution": 7012,
      "RBI": 7013,
      "T20": 7014,
      "blood": 7015,
      "ecut": 7016,
      "ken": 7017,
      "pun": 7018,
      "west": 7019,
      "ंख": 7020,
      "इड": 7021,
      "ऑस्ट्रेलिया": 7022,
      "खू": 7023,
      "पथ": 7024,
      "यद": 7025,
      "सक्रि": 7026,
      "అంగ": 7027,
      "ఆనంద": 7028,
      "చొ": 7029,
      "దక్షి": 7030,
      "ఫే": 7031,
      "రక్షణ": 7032,
      "శర్మ": 7033,
      "హత్య": 7034,
      "anda": 7035,
      "ites": 7036,
      "stage": 7037,
      "काली": 7038,
      "forth": 7039,
      "tery": 7040,
      "క్త": 7041,
      "साक्ष": 7042,
      "tran": 7043,
      "जाति": 7044,
      "abh": 7045,
      "uled": 7046,
      "unities": 7047,
      "మాలు": 7048,
      "क्षक": 7049,
      "వాస్త": 7050,
      "పున": 7051,
      "ंगल": 7052,
      "కోవి": 7053,
      "रिक": 7054,
      "द्वी": 7055,
      "దాన్ని": 7056,
      "रोजग": 7057,
      "యుద్ధ": 7058,
      "సాధ్య": 7059,
      "చెల్ల": 7060,
      "దీన్ని": 7061,
      "iple": 7062,
      "वहार": 7063,
      "underway": 7064,
      "century": 7065,
      "बेटे": 7066,
      "serve": 7067,
      "black": 7068,
      "ప్రాజెక్": 7069,
      "मतदान": 7070,
      "సమావేశ": 7071,
      "వలె": 7072,
      "Express": 7073,
      "wanted": 7074,
      "तुम्हें": 7075,
      "names": 7076,
      "अंतर्गत": 7077,
      "बेहद": 7078,
      "property": 7079,
      "త్వరలో": 7080,
      "రెండో": 7081,
      "concerned": 7082,
      "activities": 7083,
      "आतंकवाद": 7084,
      "एजेंसी": 7085,
      "Science": 7086,
      "Earlier": 7087,
      "ODI": 7088,
      "जरिए": 7089,
      "వివరాలు": 7090,
      "నేపథ్యంలో": 7091,
      "विधेयक": 7092,
      "62": 7093,
      "Dha": 7094,
      "Have": 7095,
      "Nagar": 7096,
      "RE": 7097,
      "RO": 7098,
      "Sik": 7099,
      "Ter": 7100,
      "Yes": 7101,
      "block": 7102,
      "cere": 7103,
      "eat": 7104,
      "moun": 7105,
      "अथ": 7106,
      "आखि": 7107,
      "इका": 7108,
      "छह": 7109,
      "तमिल": 7110,
      "पान": 7111,
      "भ्र": 7112,
      "वक्ता": 7113,
      "हार्": 7114,
      "అప్ప": 7115,
      "ఏపీ": 7116,
      "గూ": 7117,
      "జరా": 7118,
      "దరు": 7119,
      "యాల": 7120,
      "రారు": 7121,
      "istr": 7122,
      "केन्द": 7123,
      "नेतृ": 7124,
      "ita": 7125,
      "याण": 7126,
      "icial": 7127,
      "staff": 7128,
      "कोल": 7129,
      "र्ना": 7130,
      "प्रशि": 7131,
      "నుక": 7132,
      "लिमि": 7133,
      "निभा": 7134,
      "abs": 7135,
      "conference": 7136,
      "त्रि": 7137,
      "propos": 7138,
      "డిన": 7139,
      "संपर्क": 7140,
      "सीबीआई": 7141,
      "సుప్రీ": 7142,
      "చింది": 7143,
      "text": 7144,
      "expl": 7145,
      "exerc": 7146,
      "सिद्ध": 7147,
      "పాద": 7148,
      "मंजू": 7149,
      "शादी": 7150,
      "ంట్ర": 7151,
      "उनको": 7152,
      "partners": 7153,
      "टीवी": 7154,
      "యుడు": 7155,
      "Child": 7156,
      "क्रा": 7157,
      "టీఆర్": 7158,
      "plea": 7159,
      "मोहम्मद": 7160,
      "cially": 7161,
      "उत्तरा": 7162,
      "తెలిపింది": 7163,
      "capacity": 7164,
      "ministers": 7165,
      "स्वयं": 7166,
      "इंडि": 7167,
      "వలన": 7168,
      "industri": 7169,
      "రైతు": 7170,
      "aught": 7171,
      "पहुंचे": 7172,
      "యేసు": 7173,
      "organised": 7174,
      "నాలుగు": 7175,
      "इस्ला": 7176,
      "అందులో": 7177,
      "ళ్ళు": 7178,
      "हिस्से": 7179,
      "pending": 7180,
      "इलाज": 7181,
      "movement": 7182,
      "terrorism": 7183,
      "ఉత్తర": 7184,
      "critic": 7185,
      "छात्रों": 7186,
      "languages": 7187,
      "religious": 7188,
      "शब्द": 7189,
      "favour": 7190,
      "Feb": 7191,
      "मर्श": 7192,
      "August": 7193,
      "performance": 7194,
      "उदाहरण": 7195,
      "మహారాష్ట్ర": 7196,
      "बावजूद": 7197,
      "05": 7198,
      "41": 7199,
      "Follow": 7200,
      "Mot": 7201,
      "Sol": 7202,
      "Sund": 7203,
      "Tod": 7204,
      "Witness": 7205,
      "gather": 7206,
      "hatt": 7207,
      "ns": 7208,
      "rise": 7209,
      "swe": 7210,
      "ti": 7211,
      "आइ": 7212,
      "आता": 7213,
      "गौर": 7214,
      "छू": 7215,
      "नन": 7216,
      "नरे": 7217,
      "व्‍य": 7218,
      "हटा": 7219,
      "అంటూ": 7220,
      "ఒకే": 7221,
      "డంలో": 7222,
      "మిం": 7223,
      "మద్ద": 7224,
      "సృ": 7225,
      "ald": 7226,
      "aly": 7227,
      "estern": 7228,
      "करनी": 7229,
      "below": 7230,
      "ప్రై": 7231,
      "ించలేదు": 7232,
      "dem": 7233,
      "deter": 7234,
      "जाये": 7235,
      "संभव": 7236,
      "appointed": 7237,
      "నాడు": 7238,
      "hib": 7239,
      "exper": 7240,
      "లేద": 7241,
      "शांत": 7242,
      "मेल": 7243,
      "हिमा": 7244,
      "udd": 7245,
      "वेस्ट": 7246,
      "पीड़": 7247,
      "राजधान": 7248,
      "disput": 7249,
      "indra": 7250,
      "achieve": 7251,
      "prim": 7252,
      "శాలు": 7253,
      "శాస్త్ర": 7254,
      "ज़ी": 7255,
      "rule": 7256,
      "cooperation": 7257,
      "చేయాలి": 7258,
      "marriage": 7259,
      "crime": 7260,
      "పరిశీ": 7261,
      "సినిమాకు": 7262,
      "వ్యతి": 7263,
      "శ్చి": 7264,
      "Force": 7265,
      "मूर्": 7266,
      "डाय": 7267,
      "ट्रंप": 7268,
      "అధికార": 7269,
      "gives": 7270,
      "handed": 7271,
      "Trans": 7272,
      "सेवाओं": 7273,
      "regarding": 7274,
      "పాత్రలో": 7275,
      "discussed": 7276,
      "సహాయం": 7277,
      "caused": 7278,
      "participated": 7279,
      "आवश्यक": 7280,
      "ప్రశ్న": 7281,
      "silver": 7282,
      "कार्यालय": 7283,
      "पुनर्": 7284,
      "susp": 7285,
      "जिन्हें": 7286,
      "వెల్లడించారు": 7287,
      "institutions": 7288,
      "military": 7289,
      "Article": 7290,
      "ఉత్పత్తి": 7291,
      "विस्तार": 7292,
      "అర్థం": 7293,
      "अंतर्राष्ट्रीय": 7294,
      "ఆసక్తి": 7295,
      "false": 7296,
      "रोजगार": 7297,
      "केन्द्रीय": 7298,
      "సుప్రీం": 7299,
      "43": 7300,
      "72": 7301,
      "Az": 7302,
      "DM": 7303,
      "Dont": 7304,
      "Pet": 7305,
      "RR": 7306,
      "Sports": 7307,
      "TC": 7308,
      "Var": 7309,
      "culture": 7310,
      "gg": 7311,
      "ires": 7312,
      "kh": 7313,
      "lic": 7314,
      "ost": 7315,
      "pow": 7316,
      "pack": 7317,
      "rad": 7318,
      "site": 7319,
      "ंजी": 7320,
      "आवेदन": 7321,
      "उद्य": 7322,
      "कद": 7323,
      "ण्ड": 7324,
      "थम": 7325,
      "అరు": 7326,
      "చరణ": 7327,
      "వో": 7328,
      "infrastructure": 7329,
      "hearing": 7330,
      "స్వీ": 7331,
      "स्ते": 7332,
      "प्रगति": 7333,
      "ప్రసా": 7334,
      "otal": 7335,
      "విస్త": 7336,
      "విలువ": 7337,
      "defin": 7338,
      "igr": 7339,
      "बांग्": 7340,
      "गाँ": 7341,
      "river": 7342,
      "plann": 7343,
      "raj": 7344,
      "raised": 7345,
      "గుజరా": 7346,
      "docu": 7347,
      "undred": 7348,
      "क्रो": 7349,
      "achi": 7350,
      "म्प": 7351,
      "మ్ము": 7352,
      "వెలు": 7353,
      "వెళ్ల": 7354,
      "takes": 7355,
      "governments": 7356,
      "शुल्क": 7357,
      "గ్రీ": 7358,
      "चारियों": 7359,
      "prep": 7360,
      "చేయడానికి": 7361,
      "बंधन": 7362,
      "चीज़": 7363,
      "प्राथ": 7364,
      "स्‍था": 7365,
      "Section": 7366,
      "Security": 7367,
      "స్థాన్": 7368,
      "लगाने": 7369,
      "ట్టుకు": 7370,
      "Read": 7371,
      "phys": 7372,
      "जून": 7373,
      "travel": 7374,
      "setting": 7375,
      "య్యే": 7376,
      "కోవాలని": 7377,
      "subject": 7378,
      "కాలంలో": 7379,
      "Meh": 7380,
      "शोक": 7381,
      "वोट": 7382,
      "ological": 7383,
      "సభ్యు": 7384,
      "హైకోర్టు": 7385,
      "ప్రాంతా": 7386,
      "ఎవరి": 7387,
      "दिखाई": 7388,
      "majority": 7389,
      "strike": 7390,
      "ఎక్కువగా": 7391,
      "పిల్లలు": 7392,
      "रावट": 7393,
      "risk": 7394,
      "opportunities": 7395,
      "challenge": 7396,
      "जिन्होंने": 7397,
      "खरीद": 7398,
      "destroy": 7399,
      "నించారు": 7400,
      "graph": 7401,
      "चुनौती": 7402,
      "Africa": 7403,
      "लिमिटेड": 7404,
      "వ్యతిరే": 7405,
      "09": 7406,
      "61": 7407,
      "95": 7408,
      "Agr": 7409,
      "Bar": 7410,
      "Besides": 7411,
      "Gur": 7412,
      "Iran": 7413,
      "Paul": 7414,
      "Ver": 7415,
      "border": 7416,
      "greg": 7417,
      "pal": 7418,
      "ule": 7419,
      "uel": 7420,
      "vies": 7421,
      "ंता": 7422,
      "कने": 7423,
      "घन": 7424,
      "चले": 7425,
      "छु": 7426,
      "टरी": 7427,
      "पड़े": 7428,
      "पटेल": 7429,
      "मों": 7430,
      "रानी": 7431,
      "కై": 7432,
      "కరి": 7433,
      "డబ్": 7434,
      "మతి": 7435,
      "మవు": 7436,
      "ారో": 7437,
      "ications": 7438,
      "stag": 7439,
      "किल": 7440,
      "करार": 7441,
      "leav": 7442,
      "प्रचार": 7443,
      "omet": 7444,
      "लिका": 7445,
      "वाज": 7446,
      "ట్వీ": 7447,
      "लेक्": 7448,
      "साबित": 7449,
      "ager": 7450,
      "कारों": 7451,
      "माह": 7452,
      "congr": 7453,
      "త్తా": 7454,
      "दिसं": 7455,
      "మాన్": 7456,
      "संचा": 7457,
      "sust": 7458,
      "त्तर": 7459,
      "యానికి": 7460,
      "లేని": 7461,
      "ender": 7462,
      "కొద్ది": 7463,
      "198": 7464,
      "सुपर": 7465,
      "సాయ": 7466,
      "तुर": 7467,
      "म्‍": 7468,
      "చెప్పు": 7469,
      "स्थल": 7470,
      "grand": 7471,
      "चुना": 7472,
      "త్వం": 7473,
      "Associ": 7474,
      "commission": 7475,
      "निर्वा": 7476,
      "बिल": 7477,
      "जाएंगे": 7478,
      "यूरो": 7479,
      "aik": 7480,
      "डाउन": 7481,
      "गिरावट": 7482,
      "టెక్": 7483,
      "hands": 7484,
      "టానికి": 7485,
      "prior": 7486,
      "శివ": 7487,
      "Chandigarh": 7488,
      "भाषण": 7489,
      "घरों": 7490,
      "అందుబాటు": 7491,
      "victory": 7492,
      "ट्रेन": 7493,
      "బ్యాంక్": 7494,
      "schemes": 7495,
      "Aksh": 7496,
      "Road": 7497,
      "anchay": 7498,
      "मृत्य": 7499,
      "దేవుని": 7500,
      "समुदाय": 7501,
      "spokes": 7502,
      "कल्याण": 7503,
      "कर्मचारियों": 7504,
      "phase": 7505,
      "मॉडल": 7506,
      "वायरस": 7507,
      "तलाश": 7508,
      "ముగ్గురు": 7509,
      "ఎంపిక": 7510,
      "mentioned": 7511,
      "షూటింగ్": 7512,
      "safety": 7513,
      "पसंद": 7514,
      "सप्ताह": 7515,
      "Agric": 7516,
      "दिसंबर": 7517,
      "Brit": 7518,
      "Pad": 7519,
      "bail": 7520,
      "civil": 7521,
      "daily": 7522,
      "god": 7523,
      "gap": 7524,
      "iety": 7525,
      "nom": 7526,
      "os": 7527,
      "ंज": 7528,
      "उचित": 7529,
      "ऑफि": 7530,
      "कं": 7531,
      "खर": 7532,
      "खी": 7533,
      "नॉ": 7534,
      "बन्": 7535,
      "रंग": 7536,
      "ఆమో": 7537,
      "జయ": 7538,
      "‌కు": 7539,
      "ారె": 7540,
      "icro": 7541,
      "कित": 7542,
      "ताप": 7543,
      "chair": 7544,
      "वाही": 7545,
      "राहत": 7546,
      "ప్రస్తు": 7547,
      "ట్వి": 7548,
      "ago": 7549,
      "देगा": 7550,
      "డిమా": 7551,
      "opra": 7552,
      "सीएम": 7553,
      "కోహ్": 7554,
      "रिली": 7555,
      "रहेंगे": 7556,
      "fection": 7557,
      "क्रे": 7558,
      "गीत": 7559,
      "परिवहन": 7560,
      "commer": 7561,
      "దేశీ": 7562,
      "వ్యూ": 7563,
      "Arvind": 7564,
      "స్టా": 7565,
      "జిక": 7566,
      "వరణ": 7567,
      "రాజ్": 7568,
      "direction": 7569,
      "presented": 7570,
      "टिप्": 7571,
      "lands": 7572,
      "Mano": 7573,
      "టెస్టు": 7574,
      "चलते": 7575,
      "injuries": 7576,
      "fourth": 7577,
      "शोध": 7578,
      "roads": 7579,
      "गठबंधन": 7580,
      "च्छे": 7581,
      "అభిమా": 7582,
      "लॉक": 7583,
      "लॉन्": 7584,
      "మృత": 7585,
      "పోయిన": 7586,
      "Leg": 7587,
      "श्रद्धा": 7588,
      "తీసుకో": 7589,
      "MLAs": 7590,
      "సహాయ": 7591,
      "లేకపో": 7592,
      "Everyone": 7593,
      "indeed": 7594,
      "vehicle": 7595,
      "approved": 7596,
      "కొనసాగు": 7597,
      "संरक्षण": 7598,
      "Students": 7599,
      "मुलाकात": 7600,
      "సభ్యులు": 7601,
      "उन्‍होंने": 7602,
      "प्रस्तुत": 7603,
      "कथित": 7604,
      "मुस्लिम": 7605,
      "राजधानी": 7606,
      "बांग्लादेश": 7607,
      "मृत्यु": 7608,
      "250": 7609,
      "Babu": 7610,
      "IM": 7611,
      "Kam": 7612,
      "Kul": 7613,
      "Lim": 7614,
      "Mir": 7615,
      "NA": 7616,
      "Tax": 7617,
      "burn": 7618,
      "flood": 7619,
      "gas": 7620,
      "sle": 7621,
      "sources": 7622,
      "var": 7623,
      "ying": 7624,
      "अग्र": 7625,
      "आउ": 7626,
      "आठ": 7627,
      "खर्च": 7628,
      "ठो": 7629,
      "नदी": 7630,
      "नवी": 7631,
      "नंबर": 7632,
      "मल": 7633,
      "सारे": 7634,
      "्स": 7635,
      "ఇంటర్": 7636,
      "కమ": 7637,
      "గణ": 7638,
      "దగ్గ": 7639,
      "పడ్డా": 7640,
      "మహా": 7641,
      "ైంది": 7642,
      "almost": 7643,
      "espe": 7644,
      "icke": 7645,
      "heard": 7646,
      "స్తో": 7647,
      "bel": 7648,
      "sell": 7649,
      "ches": 7650,
      "verage": 7651,
      "improv": 7652,
      "trust": 7653,
      "రియా": 7654,
      "agency": 7655,
      "माइ": 7656,
      "units": 7657,
      "రువు": 7658,
      "సులు": 7659,
      "సులభ": 7660,
      "पाने": 7661,
      "ముగా": 7662,
      "thern": 7663,
      "కోల్": 7664,
      "సంబం": 7665,
      "లేకుండా": 7666,
      "porters": 7667,
      "वेद": 7668,
      "avo": 7669,
      "వేగ": 7670,
      "बीर": 7671,
      "తాలు": 7672,
      "ंडा": 7673,
      "గింది": 7674,
      "athi": 7675,
      "च्चा": 7676,
      "ruary": 7677,
      "bless": 7678,
      "cross": 7679,
      "చేయాలని": 7680,
      "cked": 7681,
      "cricke": 7682,
      "enger": 7683,
      "స్టో": 7684,
      "कामना": 7685,
      "कृष्": 7686,
      "akhand": 7687,
      "guid": 7688,
      "टिव": 7689,
      "purch": 7690,
      "पैसे": 7691,
      "hospitals": 7692,
      "target": 7693,
      "deaths": 7694,
      "క్రియ": 7695,
      "ఘటనలో": 7696,
      "remains": 7697,
      "connect": 7698,
      "groups": 7699,
      "vention": 7700,
      "ప్రదేశ్‌": 7701,
      "Christian": 7702,
      "ग्रहण": 7703,
      "बाइल": 7704,
      "बाइबल": 7705,
      "picture": 7706,
      "pictures": 7707,
      "scored": 7708,
      "बल्लेबाज": 7709,
      "కమిటీ": 7710,
      "revealed": 7711,
      "Chinese": 7712,
      "ఎన్నో": 7713,
      "deceased": 7714,
      "inaugur": 7715,
      "मंजूरी": 7716,
      "February": 7717,
      "congratul": 7718,
      "च्छेद": 7719,
      "especially": 7720,
      "Car": 7721,
      "Civil": 7722,
      "DE": 7723,
      "Fire": 7724,
      "Further": 7725,
      "Pal": 7726,
      "PTI": 7727,
      "Since": 7728,
      "UN": 7729,
      "hundred": 7730,
      "iy": 7731,
      "pain": 7732,
      "sale": 7733,
      "ug": 7734,
      "असम": 7735,
      "कमा": 7736,
      "घरे": 7737,
      "डब्": 7738,
      "फू": 7739,
      "बज": 7740,
      "वहाँ": 7741,
      "सों": 7742,
      "हल": 7743,
      "ఉద": 7744,
      "ఉదా": 7745,
      "ఎల్‌": 7746,
      "తండ": 7747,
      "పట్ల": 7748,
      "ఫర్": 7749,
      "భయ": 7750,
      "మను": 7751,
      "రంలో": 7752,
      "రద్దు": 7753,
      "thus": 7754,
      "ini": 7755,
      "inha": 7756,
      "inary": 7757,
      "eres": 7758,
      "rejected": 7759,
      "किताब": 7760,
      "rovers": 7761,
      "beat": 7762,
      "राजा": 7763,
      "निकाल": 7764,
      "होकर": 7765,
      "alled": 7766,
      "note": 7767,
      "जिए": 7768,
      "mode": 7769,
      "mohan": 7770,
      "worth": 7771,
      "manner": 7772,
      "Prakash": 7773,
      "actors": 7774,
      "ankar": 7775,
      "मोबाइल": 7776,
      "ట్టే": 7777,
      "science": 7778,
      "rupe": 7779,
      "शुभ": 7780,
      "జాబి": 7781,
      "दर्श": 7782,
      "రంగు": 7783,
      "Shr": 7784,
      "speech": 7785,
      "यूपी": 7786,
      "टाइ": 7787,
      "कैमरा": 7788,
      "స్థానిక": 7789,
      "బీఐ": 7790,
      "2007": 7791,
      "పొందిన": 7792,
      "మందికి": 7793,
      "खुशी": 7794,
      "पूर्वो": 7795,
      "కేసులో": 7796,
      "య్యి": 7797,
      "charged": 7798,
      "evening": 7799,
      "संबंधी": 7800,
      "न्‍द्र": 7801,
      "वैज्ञान": 7802,
      "समाधान": 7803,
      "समाप्त": 7804,
      "makes": 7805,
      "Goa": 7806,
      "ించేందుకు": 7807,
      "believer": 7808,
      "చేసుకున్న": 7809,
      "transport": 7810,
      "అర్జు": 7811,
      "నేతలు": 7812,
      "తరులు": 7813,
      "హెచ్‌": 7814,
      "प्रदर्श": 7815,
      "सितंबर": 7816,
      "ఎవరు": 7817,
      "Bhatt": 7818,
      "Uttarakhand": 7819,
      "covered": 7820,
      "considered": 7821,
      "మాట్లాడ": 7822,
      "नागरिक": 7823,
      "సంవత్స": 7824,
      "continued": 7825,
      "Cricket": 7826,
      "అమలు": 7827,
      "YSR": 7828,
      "message": 7829,
      "लौट": 7830,
      "CEO": 7831,
      "స్థానంలో": 7832,
      "supply": 7833,
      "శోధ": 7834,
      "लक्ष्य": 7835,
      "outside": 7836,
      "पेट्रोल": 7837,
      "जन्म": 7838,
      "सक्रिय": 7839,
      "తండ్రి": 7840,
      "वैज्ञानिक": 7841,
      "NCP": 7842,
      "Out": 7843,
      "TRS": 7844,
      "cul": 7845,
      "cant": 7846,
      "duty": 7847,
      "eth": 7848,
      "equal": 7849,
      "fice": 7850,
      "ministry": 7851,
      "pes": 7852,
      "pick": 7853,
      "sports": 7854,
      "simple": 7855,
      "xa": 7856,
      "चय": 7857,
      "चंडी": 7858,
      "नव": 7859,
      "नवं": 7860,
      "मारे": 7861,
      "लड़ा": 7862,
      "ఆదేశ": 7863,
      "క్య": 7864,
      "టల్": 7865,
      "తయ": 7866,
      "బే": 7867,
      "హరణ": 7868,
      "tourn": 7869,
      "कोर": 7870,
      "वां": 7871,
      "విద్యా": 7872,
      "निष्": 7873,
      "होनी": 7874,
      "त्रों": 7875,
      "త్సర": 7876,
      "दिग्": 7877,
      "acce": 7878,
      "संसद": 7879,
      "lif": 7880,
      "saw": 7881,
      "notice": 7882,
      "నేష": 7883,
      "ంలోకి": 7884,
      "रेज": 7885,
      "వేర్": 7886,
      "रोहित": 7887,
      "kept": 7888,
      "Where": 7889,
      "म्बर": 7890,
      "గిలి": 7891,
      "బాధి": 7892,
      "तकनी": 7893,
      "తేడా": 7894,
      "కారణం": 7895,
      "Asia": 7896,
      "సీసీ": 7897,
      "coal": 7898,
      "కెమె": 7899,
      "डिजि": 7900,
      "provides": 7901,
      "create": 7902,
      "addition": 7903,
      "produce": 7904,
      "जानता": 7905,
      "సమయం": 7906,
      "्‍या": 7907,
      "సమావే": 7908,
      "asks": 7909,
      "వ్యాఖ్య": 7910,
      "అనేది": 7911,
      "తెలుసు": 7912,
      "अध्ययन": 7913,
      "ంగళ": 7914,
      "बढ़ावा": 7915,
      "require": 7916,
      "अंतरि": 7917,
      "కల్ప": 7918,
      "Among": 7919,
      "प्रियं": 7920,
      "पड़ता": 7921,
      "పూర్తిగా": 7922,
      "effective": 7923,
      "कौशल": 7924,
      "strength": 7925,
      "drink": 7926,
      "मुद्दों": 7927,
      "arrived": 7928,
      "arrange": 7929,
      "eyes": 7930,
      "అరెస్టు": 7931,
      "సంవత్సర": 7932,
      "స్ట్రే": 7933,
      "अन्त": 7934,
      "citizens": 7935,
      "Ltd": 7936,
      "అద్భు": 7937,
      "అంగీ": 7938,
      "Following": 7939,
      "घरेलू": 7940,
      "नवंबर": 7941,
      "प्रियंका": 7942,
      "74": 7943,
      "BA": 7944,
      "BSP": 7945,
      "Now": 7946,
      "Over": 7947,
      "Take": 7948,
      "bag": 7949,
      "ding": 7950,
      "die": 7951,
      "hir": 7952,
      "wants": 7953,
      "ंकी": 7954,
      "अंग": 7955,
      "आधिकार": 7956,
      "उंड": 7957,
      "जर्": 7958,
      "पारी": 7959,
      "पार्": 7960,
      "पन्न": 7961,
      "वत": 7962,
      "व्": 7963,
      "ఆట": 7964,
      "ఒక్": 7965,
      "జనా": 7966,
      "బౌ": 7967,
      "బర్": 7968,
      "రస్": 7969,
      "వస": 7970,
      "వస్తు": 7971,
      "ొక": 7972,
      "—⁠": 7973,
      "repe": 7974,
      "ises": 7975,
      "anded": 7976,
      "న్లు": 7977,
      "stake": 7978,
      "विल": 7979,
      "విక్ర": 7980,
      "साफ": 7981,
      "trial": 7982,
      "కిలో": 7983,
      "संग": 7984,
      "opposition": 7985,
      "सीए": 7986,
      "सीपी": 7987,
      "ries": 7988,
      "लीटर": 7989,
      "neigh": 7990,
      "rape": 7991,
      "weight": 7992,
      "Thurs": 7993,
      "शायद": 7994,
      "हिन्": 7995,
      "చ్చే": 7996,
      "पीठ": 7997,
      "रेट": 7998,
      "తీర్పు": 7999,
      "పెట్టి": 8000,
      "offered": 8001,
      "count": 8002,
      "रुख": 8003,
      "अनुभव": 8004,
      "जिसकी": 8005,
      "चिंता": 8006,
      "contain": 8007,
      "భాగం": 8008,
      "मौजू": 8009,
      "खिल": 8010,
      "providing": 8011,
      "बातें": 8012,
      "स्तानी": 8013,
      "ఆయనకు": 8014,
      "వరకూ": 8015,
      "जुलाई": 8016,
      "టెడ్": 8017,
      "कॉलेज": 8018,
      "tests": 8019,
      "दारों": 8020,
      "దర్శి": 8021,
      "carried": 8022,
      "inside": 8023,
      "onda": 8024,
      "built": 8025,
      "turned": 8026,
      "stock": 8027,
      "extreme": 8028,
      "facilities": 8029,
      "ఎన్నికలు": 8030,
      "appear": 8031,
      "Senior": 8032,
      "discussion": 8033,
      "recorded": 8034,
      "अरब": 8035,
      "Himachal": 8036,
      "funds": 8037,
      "status": 8038,
      "हिंसा": 8039,
      "ఆసుపత్రికి": 8040,
      "पर्यटन": 8041,
      "హిందీ": 8042,
      "किलोमीटर": 8043,
      "Women": 8044,
      "संशोधन": 8045,
      "తాజాగా": 8046,
      "వేదిక": 8047,
      "అంతర్జాతీయ": 8048,
      "संसाधन": 8049,
      "द्वीप": 8050,
      "अथवा": 8051,
      "गाँव": 8052,
      "Akshay": 8053,
      "Thursday": 8054,
      "63": 8055,
      "600": 8056,
      "Apart": 8057,
      "EC": 8058,
      "Gold": 8059,
      "Ha": 8060,
      "Jhar": 8061,
      "Li": 8062,
      "Pu": 8063,
      "Your": 8064,
      "ape": 8065,
      "cultural": 8066,
      "dates": 8067,
      "gain": 8068,
      "lay": 8069,
      "mist": 8070,
      "nan": 8071,
      "pil": 8072,
      "rates": 8073,
      "ww": 8074,
      "आपूर्ति": 8075,
      "चयन": 8076,
      "चंद्र": 8077,
      "जॉ": 8078,
      "बजे": 8079,
      "षद": 8080,
      "ఎల": 8081,
      "జారీ": 8082,
      "డని": 8083,
      "ద‌": 8084,
      "ధులు": 8085,
      "నడు": 8086,
      "బొ": 8087,
      "బాల": 8088,
      "బ్రి": 8089,
      "భే": 8090,
      "మాల": 8091,
      "వది": 8092,
      "inated": 8093,
      "inem": 8094,
      "ense": 8095,
      "enship": 8096,
      "eder": 8097,
      "हैदरा": 8098,
      "ందం": 8099,
      "beaut": 8100,
      "కుంటు": 8101,
      "seized": 8102,
      "న్నది": 8103,
      "గాయి": 8104,
      "ప్రో": 8105,
      "oted": 8106,
      "तीनों": 8107,
      "तीसरे": 8108,
      "వాద": 8109,
      "पाठ": 8110,
      "त्ति": 8111,
      "ल्म": 8112,
      "ముస్": 8113,
      "अपील": 8114,
      "Those": 8115,
      "रहता": 8116,
      "रहती": 8117,
      "Instag": 8118,
      "उसमें": 8119,
      "Char": 8120,
      "Chopra": 8121,
      "शिप": 8122,
      "పెట్రో": 8123,
      "दोस्त": 8124,
      "आईए": 8125,
      "ज़रू": 8126,
      "प्रतिबंध": 8127,
      "च्‍": 8128,
      "itions": 8129,
      "पूर्वी": 8130,
      "दर्भ": 8131,
      "योग्य": 8132,
      "controvers": 8133,
      "హాజర": 8134,
      "Rajnath": 8135,
      "తనకు": 8136,
      "कर्ताओं": 8137,
      "వారిలో": 8138,
      "స్థాని": 8139,
      "guest": 8140,
      "కోవడానికి": 8141,
      "apped": 8142,
      "బోర్": 8143,
      "पहुंची": 8144,
      "happening": 8145,
      "बैंकों": 8146,
      "Covid": 8147,
      "ట్రం": 8148,
      "व्यापक": 8149,
      "growing": 8150,
      "హెచ్": 8151,
      "trains": 8152,
      "Bengaluru": 8153,
      "rains": 8154,
      "matches": 8155,
      "About": 8156,
      "నియర్": 8157,
      "टूबर": 8158,
      "सहायक": 8159,
      "మ్యాచ్‌": 8160,
      "histor": 8161,
      "కనిపించ": 8162,
      "appropri": 8163,
      "मिलेगा": 8164,
      "independ": 8165,
      "త్వరలోనే": 8166,
      "अफ्री": 8167,
      "rules": 8168,
      "सुनवाई": 8169,
      "Ashok": 8170,
      "దృష్టి": 8171,
      "న్యూఢిల్లీ": 8172,
      "Phone": 8173,
      "కూడదు": 8174,
      "अनिल": 8175,
      "जिम्मेदारी": 8176,
      "criminal": 8177,
      "Pawan": 8178,
      "smartphone": 8179,
      "కెప్టెన్": 8180,
      "Zealand": 8181,
      "खारिज": 8182,
      "नेतृत्व": 8183,
      "మద్దతు": 8184,
      "मूर्ति": 8185,
      "ప్రసాద్": 8186,
      "आउट": 8187,
      "आधिकारिक": 8188,
      "मौजूदा": 8189,
      "हैदराबाद": 8190,
      "Instagram": 8191,
      "Div": 8192,
      "Fo": 8193,
      "Fund": 8194,
      "Frid": 8195,
      "FIR": 8196,
      "La": 8197,
      "UT": 8198,
      "bing": 8199,
      "dream": 8200,
      "fif": 8201,
      "hor": 8202,
      "sac": 8203,
      "smo": 8204,
      "session": 8205,
      "vac": 8206,
      "अगु": 8207,
      "आते": 8208,
      "गलत": 8209,
      "चारी": 8210,
      "छि": 8211,
      "फ्रा": 8212,
      "बच": 8213,
      "भरो": 8214,
      "भवन": 8215,
      "यलों": 8216,
      "ष्य": 8217,
      "हवाई": 8218,
      "ृत": 8219,
      "అల": 8220,
      "ఉపా": 8221,
      "కష్ట": 8222,
      "జవా": 8223,
      "ఠా": 8224,
      "ధో": 8225,
      "ధ్యా": 8226,
      "నష్ట": 8227,
      "మత": 8228,
      "‌ను": 8229,
      "inquiry": 8230,
      "anci": 8231,
      "ergy": 8232,
      "ona": 8233,
      "rect": 8234,
      "itam": 8235,
      "నిల": 8236,
      "stress": 8237,
      "ంద్": 8238,
      "ందర్": 8239,
      "rock": 8240,
      "र्य": 8241,
      "ams": 8242,
      "लिन": 8243,
      "लिब": 8244,
      "नियर": 8245,
      "जाम": 8246,
      "చేస్తున్నా": 8247,
      "भीतर": 8248,
      "sharing": 8249,
      "దులు": 8250,
      "ములను": 8251,
      "ift": 8252,
      "explain": 8253,
      "दीन": 8254,
      "iving": 8255,
      "fee": 8256,
      "istic": 8257,
      "Information": 8258,
      "చ్చా": 8259,
      "disci": 8260,
      "ండే": 8261,
      "मानना": 8262,
      "harm": 8263,
      "तकों": 8264,
      "ज़्यादा": 8265,
      "presence": 8266,
      "Asian": 8267,
      "ధాని": 8268,
      "उपचार": 8269,
      "युद्ध": 8270,
      "prevent": 8271,
      "राज्यपाल": 8272,
      "brand": 8273,
      "ंकन": 8274,
      "उत्‍": 8275,
      "స్టర్": 8276,
      "శ్వ": 8277,
      "క్రై": 8278,
      "additional": 8279,
      "మార్కెట్": 8280,
      "Comp": 8281,
      "బుల్": 8282,
      "कर्मियों": 8283,
      "visited": 8284,
      "लगाए": 8285,
      "स्थापना": 8286,
      "సమాధానం": 8287,
      "Enter": 8288,
      "निकल": 8289,
      "colour": 8290,
      "फ़ा": 8291,
      "కాలేదు": 8292,
      "wara": 8293,
      "makers": 8294,
      "views": 8295,
      "गठन": 8296,
      "iversary": 8297,
      "సైతం": 8298,
      "పంజా": 8299,
      "motor": 8300,
      "అందుకే": 8301,
      "ఆరోపణ": 8302,
      "ఫోటో": 8303,
      "League": 8304,
      "villages": 8305,
      "स्टेट": 8306,
      "educ": 8307,
      "हराया": 8308,
      "గెలి": 8309,
      "अंतरराष्ट्रीय": 8310,
      "successful": 8311,
      "కనిపి": 8312,
      "lockdown": 8313,
      "network": 8314,
      "Sonia": 8315,
      "modern": 8316,
      "soldiers": 8317,
      "doub": 8318,
      "श्रेष्ठ": 8319,
      "alliance": 8320,
      "स्वतंत्रता": 8321,
      "individual": 8322,
      "festival": 8323,
      "sequently": 8324,
      "options": 8325,
      "influ": 8326,
      "प्रारंभ": 8327,
      "Chairman": 8328,
      "method": 8329,
      "इंडियन": 8330,
      "Today": 8331,
      "लॉन्च": 8332,
      "beautiful": 8333,
      "Friday": 8334,
      "800": 8335,
      "Baj": 8336,
      "CS": 8337,
      "City": 8338,
      "Dal": 8339,
      "Even": 8340,
      "Gup": 8341,
      "RA": 8342,
      "Sach": 8343,
      "Sche": 8344,
      "Us": 8345,
      "Vid": 8346,
      "Yah": 8347,
      "bilateral": 8348,
      "khand": 8349,
      "nations": 8350,
      "page": 8351,
      "rank": 8352,
      "sought": 8353,
      "tro": 8354,
      "आंध": 8355,
      "इन्ह": 8356,
      "ज्य": 8357,
      "दलों": 8358,
      "नू": 8359,
      "रज": 8360,
      "ఇరు": 8361,
      "ఇండ": 8362,
      "గమని": 8363,
      "టనా": 8364,
      "పశ్చి": 8365,
      "బ్రా": 8366,
      "యర్": 8367,
      "రళ": 8368,
      "రవ": 8369,
      "సన్": 8370,
      "enough": 8371,
      "केजरी": 8372,
      "नेह": 8373,
      "ilit": 8374,
      "rog": 8375,
      "कोण": 8376,
      "ades": 8377,
      "नाय": 8378,
      "vell": 8379,
      "विशा": 8380,
      "लाए": 8381,
      "urged": 8382,
      "urban": 8383,
      "lying": 8384,
      "రిక": 8385,
      "त्रियों": 8386,
      "proposed": 8387,
      "2000": 8388,
      "2021": 8389,
      "acqu": 8390,
      "संभा": 8391,
      "టికి": 8392,
      "बाकी": 8393,
      "ड़ियों": 8394,
      "appoint": 8395,
      "त्त": 8396,
      "त्ती": 8397,
      "मुझ": 8398,
      "जिलों": 8399,
      "కోరు": 8400,
      "execut": 8401,
      "रिंग": 8402,
      "essential": 8403,
      "పోస్టు": 8404,
      "endent": 8405,
      "endment": 8406,
      "ష్‌": 8407,
      "udi": 8408,
      "वेज": 8409,
      "వుల": 8410,
      "file": 8411,
      "रोधी": 8412,
      "యులు": 8413,
      "Champ": 8414,
      "సాగు": 8415,
      "emphas": 8416,
      "्याज": 8417,
      "evidence": 8418,
      "टेन": 8419,
      "टेली": 8420,
      "pressure": 8421,
      "अनुच्छेद": 8422,
      "జాగ్ర": 8423,
      "గ్రహ": 8424,
      "दर्शन": 8425,
      "brid": 8426,
      "बिल्": 8427,
      "डिंग": 8428,
      "పరిశోధ": 8429,
      "Arab": 8430,
      "प्रावधान": 8431,
      "कहानी": 8432,
      "capt": 8433,
      "Adity": 8434,
      "numbers": 8435,
      "ixed": 8436,
      "posted": 8437,
      "घायलों": 8438,
      "శిక్ష": 8439,
      "Good": 8440,
      "नियमित": 8441,
      "ट्वि": 8442,
      "ukh": 8443,
      "చ్చింది": 8444,
      "bench": 8445,
      "healthy": 8446,
      "Boss": 8447,
      "appeared": 8448,
      "domestic": 8449,
      "judge": 8450,
      "బ్యాంకు": 8451,
      "Neh": 8452,
      "నిర్ణయ": 8453,
      "प्रयासों": 8454,
      "protection": 8455,
      "అత్యధిక": 8456,
      "उल्लं": 8457,
      "profession": 8458,
      "मुद्दे": 8459,
      "सफलता": 8460,
      "completely": 8461,
      "satis": 8462,
      "हादसे": 8463,
      "democracy": 8464,
      "introduced": 8465,
      "ఇటీవల": 8466,
      "Russia": 8467,
      "craft": 8468,
      "फाइनल": 8469,
      "moment": 8470,
      "platform": 8471,
      "ceremony": 8472,
      "మిండియా": 8473,
      "तुरंत": 8474,
      "xa0": 8475,
      "केजरीवाल": 8476,
      "71": 8477,
      "79": 8478,
      "82": 8479,
      "83": 8480,
      "Bach": 8481,
      "Gang": 8482,
      "LO": 8483,
      "MT": 8484,
      "Met": 8485,
      "Ti": 8486,
      "War": 8487,
      "bh": 8488,
      "bes": 8489,
      "dark": 8490,
      "ff": 8491,
      "hil": 8492,
      "iPhone": 8493,
      "pen": 8494,
      "pand": 8495,
      "sin": 8496,
      "sound": 8497,
      "skill": 8498,
      "za": 8499,
      "आकाश": 8500,
      "इंत": 8501,
      "कब्": 8502,
      "ट्टी": 8503,
      "मला": 8504,
      "लगी": 8505,
      "हता": 8506,
      "िका": 8507,
      "ఆత్": 8508,
      "ఆటో": 8509,
      "ఉద్": 8510,
      "ఎక్స్": 8511,
      "కన": 8512,
      "ఖర్చు": 8513,
      "గవర్": 8514,
      "చల": 8515,
      "చక్క": 8516,
      "ఠి": 8517,
      "దండ్ర": 8518,
      "రవా": 8519,
      "లక్": 8520,
      "ero": 8521,
      "rev": 8522,
      "stations": 8523,
      "స్కూ": 8524,
      "कोय": 8525,
      "स्ती": 8526,
      "नाडु": 8527,
      "प्रथम": 8528,
      "लियों": 8529,
      "वितर": 8530,
      "ల్డ్": 8531,
      "साह": 8532,
      "साहित": 8533,
      "depos": 8534,
      "demon": 8535,
      "जाग": 8536,
      "aker": 8537,
      "akes": 8538,
      "congreg": 8539,
      "संजय": 8540,
      "ड़ने": 8541,
      "సుమారు": 8542,
      "save": 8543,
      "neg": 8544,
      "నేందుకు": 8545,
      "movies": 8546,
      "లానికి": 8547,
      "दास": 8548,
      "గులు": 8549,
      "Thus": 8550,
      "Theres": 8551,
      "जीबी": 8552,
      "शासित": 8553,
      "ంటీ": 8554,
      "हिर": 8555,
      "हिरा": 8556,
      "Prab": 8557,
      "నీరు": 8558,
      "शिष्ट": 8559,
      "పిక్": 8560,
      "టీమిండియా": 8561,
      "goes": 8562,
      "న్‌గా": 8563,
      "clar": 8564,
      "boost": 8565,
      "रहेगा": 8566,
      "firm": 8567,
      "अनुमान": 8568,
      "contact": 8569,
      "attend": 8570,
      "చేయండి": 8571,
      "जेल": 8572,
      "व्यवहार": 8573,
      "महान": 8574,
      "విషయ": 8575,
      "रखी": 8576,
      "रखे": 8577,
      "2008": 8578,
      "ships": 8579,
      "ఇంగ్": 8580,
      "corruption": 8581,
      "consult": 8582,
      "కార్యదర్శి": 8583,
      "extended": 8584,
      "प्रेम": 8585,
      "faced": 8586,
      "receive": 8587,
      "अध्यक्षता": 8588,
      "पक्षीय": 8589,
      "thinking": 8590,
      "परीक्षण": 8591,
      "votes": 8592,
      "पदक": 8593,
      "ధరలు": 8594,
      "తీవ్రంగా": 8595,
      "గుర్తు": 8596,
      "Author": 8597,
      "పడుతుంది": 8598,
      "పెట్టారు": 8599,
      "returned": 8600,
      "శుభ": 8601,
      "अफग": 8602,
      "religion": 8603,
      "संस्कृति": 8604,
      "పాయిం": 8605,
      "धरती": 8606,
      "Class": 8607,
      "స్థాయిలో": 8608,
      "తల్లిదండ్ర": 8609,
      "రాలేదు": 8610,
      "ఇచ్చిన": 8611,
      "शरीर": 8612,
      "चिकित्सा": 8613,
      "मुकाबले": 8614,
      "batsman": 8615,
      "ఆధారంగా": 8616,
      "assistance": 8617,
      "Foreign": 8618,
      "సంతోష": 8619,
      "पृथ": 8620,
      "ष्‍ट्रीय": 8621,
      "announcement": 8622,
      "ప్రైవే": 8623,
      "మృతదే": 8624,
      "Jharkhand": 8625,
      "ఎలక్ట": 8626,
      "आंध्र": 8627,
      "జాగ్రత్త": 8628,
      "उल्लंघन": 8629,
      "',": 8630,
      "04": 8631,
      "84": 8632,
      "86": 8633,
      "Ano": 8634,
      "Bu": 8635,
      "Dil": 8636,
      "Em": 8637,
      "Famil": 8638,
      "Kan": 8639,
      "Wed": 8640,
      "average": 8641,
      "bers": 8642,
      "ds": 8643,
      "fan": 8644,
      "fra": 8645,
      "figh": 8646,
      "fish": 8647,
      "gment": 8648,
      "kur": 8649,
      "sof": 8650,
      "uals": 8651,
      "via": 8652,
      "wat": 8653,
      "इतना": 8654,
      "उपरा": 8655,
      "खराब": 8656,
      "चार्": 8657,
      "देंगे": 8658,
      "पें": 8659,
      "हस्ता": 8660,
      "।\"\"\"": 8661,
      "ఆస్ట్రే": 8662,
      "ఇందుకు": 8663,
      "ఏడా": 8664,
      "ఖ్యా": 8665,
      "ఛా": 8666,
      "పాలి": 8667,
      "ులకు": 8668,
      "thee": 8669,
      "rear": 8670,
      "alone": 8671,
      "aste": 8672,
      "స్పె": 8673,
      "सेल": 8674,
      "स्य": 8675,
      "sets": 8676,
      "प्रमाण": 8677,
      "గాలి": 8678,
      "हाउस": 8679,
      "ించనున్నారు": 8680,
      "traf": 8681,
      "igence": 8682,
      "రికార్డు": 8683,
      "uti": 8684,
      "consu": 8685,
      "unit": 8686,
      "comment": 8687,
      "संधान": 8688,
      "టివ్": 8689,
      "सीख": 8690,
      "estim": 8691,
      "ప్తి": 8692,
      "shan": 8693,
      "मिता": 8694,
      "లిక": 8695,
      "యాద": 8696,
      "सिस्ट": 8697,
      "ighte": 8698,
      "కొందరు": 8699,
      "राजनाथ": 8700,
      "రోడ్డు": 8701,
      "मैदान": 8702,
      "బాధ": 8703,
      "మేం": 8704,
      "एसएस": 8705,
      "मिलकर": 8706,
      "command": 8707,
      "निर्भर": 8708,
      "गईं": 8709,
      "सूस": 8710,
      "attention": 8711,
      "elected": 8712,
      "encour": 8713,
      "fulfill": 8714,
      "Anand": 8715,
      "రేషన్": 8716,
      "knows": 8717,
      "condol": 8718,
      "कहने": 8719,
      "stands": 8720,
      "seeking": 8721,
      "లక్ష్య": 8722,
      "constant": 8723,
      "justice": 8724,
      "स्थानों": 8725,
      "helps": 8726,
      "घाटन": 8727,
      "running": 8728,
      "सेवाएं": 8729,
      "variant": 8730,
      "अभिनेता": 8731,
      "जिनके": 8732,
      "continues": 8733,
      "severe": 8734,
      "organis": 8735,
      "surely": 8736,
      "remaining": 8737,
      "brothers": 8738,
      "feature": 8739,
      "ఇండియన్": 8740,
      "biggest": 8741,
      "markets": 8742,
      "గెలు": 8743,
      "विद्या": 8744,
      "మ్యాచ్": 8745,
      "ार्थियों": 8746,
      "responsible": 8747,
      "protests": 8748,
      "Elect": 8749,
      "ड्डी": 8750,
      "प्रभावी": 8751,
      "treated": 8752,
      "अर्थव्यवस्था": 8753,
      "labor": 8754,
      "Service": 8755,
      "System": 8756,
      "touch": 8757,
      "शिवसेना": 8758,
      "మారింది": 8759,
      "పాఠశాల": 8760,
      "Film": 8761,
      "Bigg": 8762,
      "scheduled": 8763,
      "సామాజిక": 8764,
      "confirmed": 8765,
      "खूब": 8766,
      "Association": 8767,
      "avoid": 8768,
      "cricketer": 8769,
      "बजट": 8770,
      "ఉదాహరణ": 8771,
      "चंडीगढ़": 8772,
      "डिजिटल": 8773,
      "neighb": 8774,
      "Another": 8775,
      ".,": 8776,
      "Ajay": 8777,
      "Cre": 8778,
      "Cur": 8779,
      "DG": 8780,
      "Gir": 8781,
      "Joh": 8782,
      "Ob": 8783,
      "Oly": 8784,
      "RI": 8785,
      "RAM": 8786,
      "UK": 8787,
      "Wel": 8788,
      "jail": 8789,
      "mid": 8790,
      "range": 8791,
      "righte": 8792,
      "tty": 8793,
      "yal": 8794,
      "अंग्रे": 8795,
      "डिक": 8796,
      "ड्रा": 8797,
      "नयी": 8798,
      "वकी": 8799,
      "ఇవి": 8800,
      "ఎయి": 8801,
      "కాలి": 8802,
      "డమే": 8803,
      "డ్యూ": 8804,
      "ణీ": 8805,
      "తారా": 8806,
      "నారా": 8807,
      "మందు": 8808,
      "రక్ష": 8809,
      "వయ": 8810,
      "వని": 8811,
      "ానికి": 8812,
      "thou": 8813,
      "oned": 8814,
      "isgarh": 8815,
      "ening": 8816,
      "environment": 8817,
      "ork": 8818,
      "itself": 8819,
      "यात्रियों": 8820,
      "ताछ": 8821,
      "नात": 8822,
      "iment": 8823,
      "\"\",": 8824,
      "साझा": 8825,
      "निशा": 8826,
      "निधन": 8827,
      "చేస్తారు": 8828,
      "देर": 8829,
      "option": 8830,
      "बाग": 8831,
      "Indep": 8832,
      "क्षर": 8833,
      "రాత్రి": 8834,
      "వాల్": 8835,
      "मिलियन": 8836,
      "తిలో": 8837,
      "చివరి": 8838,
      "ముల": 8839,
      "నామా": 8840,
      "ద్దా": 8841,
      "కోండి": 8842,
      "లాండ్": 8843,
      "exchange": 8844,
      "లేరు": 8845,
      "పోష": 8846,
      "పోరా": 8847,
      "जीएसटी": 8848,
      "चालक": 8849,
      "राज्‍य": 8850,
      "cash": 8851,
      "बीएस": 8852,
      "कुर": 8853,
      "మెరు": 8854,
      "ष्टा": 8855,
      "print": 8856,
      "శాం": 8857,
      "శాసన": 8858,
      "परिषद": 8859,
      "प्रतिक्रिया": 8860,
      "ల్లోకి": 8861,
      "मिलती": 8862,
      "अनुसंधान": 8863,
      "सूचित": 8864,
      "ensions": 8865,
      "సినిమాను": 8866,
      "internal": 8867,
      "गुना": 8868,
      "चीनी": 8869,
      "బిల్లు": 8870,
      "అవార్": 8871,
      "version": 8872,
      "guard": 8873,
      "चेन्न": 8874,
      "एंट": 8875,
      "type": 8876,
      "ushka": 8877,
      "పార్ల": 8878,
      "కరమైన": 8879,
      "ficient": 8880,
      "पाकिस्तानी": 8881,
      "venue": 8882,
      "ordered": 8883,
      "కర్ణా": 8884,
      "स्थिर": 8885,
      "believed": 8886,
      "innings": 8887,
      "పర్యా": 8888,
      "विकल्प": 8889,
      "holding": 8890,
      "shows": 8891,
      "इस्ती": 8892,
      "ప్రజల": 8893,
      "signed": 8894,
      "प्रोत्सा": 8895,
      "దానిని": 8896,
      "सीटें": 8897,
      "accounts": 8898,
      "Janata": 8899,
      "मैचों": 8900,
      "స్వామ": 8901,
      "प्रिय": 8902,
      "टूर्ना": 8903,
      "terrorists": 8904,
      "उद्घाटन": 8905,
      "refused": 8906,
      "गतिविधि": 8907,
      "मिलेगी": 8908,
      "Address": 8909,
      "critical": 8910,
      "spoke": 8911,
      "Kalyan": 8912,
      "तिहासिक": 8913,
      "meaning": 8914,
      "awarded": 8915,
      "కళా": 8916,
      "Ravi": 8917,
      "rapid": 8918,
      "equip": 8919,
      "Farmers": 8920,
      "Opposition": 8921,
      "latest": 8922,
      "born": 8923,
      "फुट": 8924,
      "సాంకే": 8925,
      "France": 8926,
      "అదుపులోకి": 8927,
      "Corporation": 8928,
      "credit": 8929,
      "natural": 8930,
      "Afghanistan": 8931,
      "प्रशिक्षण": 8932,
      "Witnesses": 8933,
      "रिलीज": 8934,
      "Limited": 8935,
      "डब्ल्यू": 8936,
      "अफ्रीका": 8937,
      "ancient": 8938,
      "Bachchan": 8939,
      "traffic": 8940,
      "Olymp": 8941,
      "97": 8942,
      "Best": 8943,
      "Ir": 8944,
      "Mi": 8945,
      "Mam": 8946,
      "Raw": 8947,
      "Sinha": 8948,
      "Vis": 8949,
      "Yet": 8950,
      "billion": 8951,
      "danger": 8952,
      "east": 8953,
      "fat": 8954,
      "gency": 8955,
      "iya": 8956,
      "ju": 8957,
      "mill": 8958,
      "sides": 8959,
      "uter": 8960,
      "इमर": 8961,
      "ऑपरे": 8962,
      "चू": 8963,
      "जानी": 8964,
      "झार": 8965,
      "टर्": 8966,
      "दस्ता": 8967,
      "धरी": 8968,
      "धार्": 8969,
      "पणी": 8970,
      "रवि": 8971,
      "सच": 8972,
      "ेश": 8973,
      "्त": 8974,
      "ఎక్క": 8975,
      "ఐపీ": 8976,
      "ఒప్ప": 8977,
      "కన్నా": 8978,
      "కింగ్": 8979,
      "గారు": 8980,
      "చై": 8981,
      "జనం": 8982,
      "తార": 8983,
      "థా": 8984,
      "నడి": 8985,
      "నర్‌": 8986,
      "ఫల": 8987,
      "లింగ్": 8988,
      "శరీ": 8989,
      "సల్": 8990,
      "innov": 8991,
      "alore": 8992,
      "केश": 8993,
      "केशन": 8994,
      "itial": 8995,
      "నిధి": 8996,
      "iled": 8997,
      "stream": 8998,
      "స్నే": 8999,
      "స్పీ": 9000,
      "काता": 9001,
      "कोरिया": 9002,
      "स्पी": 9003,
      "aman": 9004,
      "sections": 9005,
      "urance": 9006,
      "విరా": 9007,
      "निगर": 9008,
      "తురు": 9009,
      "agon": 9010,
      "చేరు": 9011,
      "చేస్తూ": 9012,
      "माँ": 9013,
      "देकर": 9014,
      "elines": 9015,
      "ula": 9016,
      "waste": 9017,
      "संदेश": 9018,
      "ప్పి": 9019,
      "पाई": 9020,
      "apati": 9021,
      "neither": 9022,
      "లియన్": 9023,
      "overty": 9024,
      "मुद": 9025,
      "memor": 9026,
      "सिवा": 9027,
      "मंच": 9028,
      "पुष्टि": 9029,
      "ivas": 9030,
      "सरों": 9031,
      "ends": 9032,
      "క్షే": 9033,
      "avy": 9034,
      "Charan": 9035,
      "పిటి": 9036,
      "offers": 9037,
      "रुद्ध": 9038,
      "వెన": 9039,
      "पहल": 9040,
      "మోడ": 9041,
      "తేదీ": 9042,
      "boy": 9043,
      "राज्यसभा": 9044,
      "125": 9045,
      "హామీ": 9046,
      "Rajput": 9047,
      "बातों": 9048,
      "Anushka": 9049,
      "महसूस": 9050,
      "అతడు": 9051,
      "रखना": 9052,
      "आरंभ": 9053,
      "ट्रिक": 9054,
      "అధినేత": 9055,
      "इंसान": 9056,
      "भूत": 9057,
      "वनडे": 9058,
      "Adv": 9059,
      "बुरा": 9060,
      "వ్యాధి": 9061,
      "कॉन्": 9062,
      "అందరూ": 9063,
      "सर्वो": 9064,
      "stood": 9065,
      "truck": 9066,
      "అభిప్రా": 9067,
      "holders": 9068,
      "సభలో": 9069,
      "facing": 9070,
      "foundation": 9071,
      "रणनीति": 9072,
      "व्यक्तियों": 9073,
      "తూర్పు": 9074,
      "श्रम": 9075,
      "अगस्त": 9076,
      "ఖాన్": 9077,
      "जरूरी": 9078,
      "ప్రేక్ష": 9079,
      "benefits": 9080,
      "సింగ్‌": 9081,
      "denied": 9082,
      "ानिस्तान": 9083,
      "దేవుడు": 9084,
      "Additional": 9085,
      "tonnes": 9086,
      "collection": 9087,
      "Post": 9088,
      "कर्मचारी": 9089,
      "specific": 9090,
      "पढ़ें": 9091,
      "labour": 9092,
      "शब्दों": 9093,
      "दुर्घटना": 9094,
      "విశ్వా": 9095,
      "ప్రయాణి": 9096,
      "శేష": 9097,
      "నిర్మిస్తున్నారు": 9098,
      "Venk": 9099,
      "జరుపు": 9100,
      "Donald": 9101,
      "administration": 9102,
      "చేపట్టారు": 9103,
      "वास्तव": 9104,
      "నిమిత్తం": 9105,
      "पूछताछ": 9106,
      "felt": 9107,
      "सहमति": 9108,
      "agriculture": 9109,
      "ప్రాజెక్టు": 9110,
      "mountain": 9111,
      "Agriculture": 9112,
      "अंतरिक्ष": 9113,
      "Scheme": 9114,
      "ఆస్ట్రేలియా": 9115,
      "ఏడాది": 9116,
      "righteous": 9117,
      "కర్ణాటక": 9118,
      "टूर्नामेंट": 9119,
      "निगरानी": 9120,
      "Actor": 9121,
      "AAP": 9122,
      "Econom": 9123,
      "HI": 9124,
      "NU": 9125,
      "PF": 9126,
      "Pan": 9127,
      "Sid": 9128,
      "Sind": 9129,
      "Soc": 9130,
      "Tues": 9131,
      "Ve": 9132,
      "Val": 9133,
      "fit": 9134,
      "gun": 9135,
      "gree": 9136,
      "hat": 9137,
      "migr": 9138,
      "yes": 9139,
      "अत्य": 9140,
      "ऐतिहासिक": 9141,
      "ओवर": 9142,
      "कवि": 9143,
      "कमे": 9144,
      "खत्म": 9145,
      "ग्रे": 9146,
      "जहाँ": 9147,
      "हना": 9148,
      "िंग": 9149,
      "అదన": 9150,
      "డవ": 9151,
      "ణు": 9152,
      "దరి": 9153,
      "సల": 9154,
      "సంతా": 9155,
      "anath": 9156,
      "referred": 9157,
      "alam": 9158,
      "ora": 9159,
      "toms": 9160,
      "hear": 9161,
      "స్కృ": 9162,
      "amy": 9163,
      "amed": 9164,
      "sea": 9165,
      "territ": 9166,
      "ayed": 9167,
      "ప్రదర్శ": 9168,
      "ira": 9169,
      "हालत": 9170,
      "విన": 9171,
      "साद": 9172,
      "tried": 9173,
      "depart": 9174,
      "मात्र": 9175,
      "देह": 9176,
      "concl": 9177,
      "दिख": 9178,
      "ody": 9179,
      "comed": 9180,
      "compl": 9181,
      "सीई": 9182,
      "రుగా": 9183,
      "ప్లే": 9184,
      "गाह": 9185,
      "raise": 9186,
      "loan": 9187,
      "दाता": 9188,
      "दायर": 9189,
      "inish": 9190,
      "గురి": 9191,
      "లేవు": 9192,
      "ంలోనే": 9193,
      "रूस": 9194,
      "కేరళ": 9195,
      "dismis": 9196,
      "बीमा": 9197,
      "Chhatt": 9198,
      "actually": 9199,
      "earn": 9200,
      "ंदगी": 9201,
      "खाते": 9202,
      "खाद्य": 9203,
      "events": 9204,
      "వెనుక": 9205,
      "రూప": 9206,
      "రూపొంద": 9207,
      "ట్టా": 9208,
      "scient": 9209,
      "భారతీయ": 9210,
      "बेशक": 9211,
      "निर्यात": 9212,
      "उपकरण": 9213,
      "చేయలేదు": 9214,
      "डीजल": 9215,
      "डिग्री": 9216,
      "హాలు": 9217,
      "Raju": 9218,
      "क्षेत्रीय": 9219,
      "compared": 9220,
      "पार्ट": 9221,
      "మంత్ర": 9222,
      "పొడి": 9223,
      "Real": 9224,
      "इंजी": 9225,
      "जुट": 9226,
      "meetings": 9227,
      "Manmohan": 9228,
      "Governments": 9229,
      "టాటా": 9230,
      "Such": 9231,
      "throughout": 9232,
      "student": 9233,
      "न्‍न": 9234,
      "न्‍य": 9235,
      "posts": 9236,
      "ondon": 9237,
      "apply": 9238,
      "కార్యక్రమంలో": 9239,
      "surv": 9240,
      "విజయ్": 9241,
      "cycle": 9242,
      "सकें": 9243,
      "check": 9244,
      "falls": 9245,
      "interesting": 9246,
      "స్వామి": 9247,
      "उठाया": 9248,
      "ख्त": 9249,
      "గ్రామ": 9250,
      "keeping": 9251,
      "CCTV": 9252,
      "advoc": 9253,
      "celled": 9254,
      "संगठनों": 9255,
      "पश्चिमी": 9256,
      "Satur": 9257,
      "उम्मीदवारों": 9258,
      "Medical": 9259,
      "approval": 9260,
      "सम्मानित": 9261,
      "वार्ता": 9262,
      "తెరకెక్కు": 9263,
      "చట్టం": 9264,
      "potential": 9265,
      "स्क्री": 9266,
      "sitting": 9267,
      "काउंट": 9268,
      "कारोबार": 9269,
      "Germany": 9270,
      "సముద్ర": 9271,
      "islative": 9272,
      "स्मार्टफोन": 9273,
      "बिक्री": 9274,
      "घंटे": 9275,
      "तमिलनाडु": 9276,
      "कोलकाता": 9277,
      "हिमाचल": 9278,
      "prepared": 9279,
      "पूर्वोत्तर": 9280,
      "believers": 9281,
      "tournament": 9282,
      "appropriate": 9283,
      "ट्विटर": 9284,
      "हिरासत": 9285,
      "Family": 9286,
      "चेन्नई": 9287,
      "Chhattisgarh": 9288,
      "'.": 9289,
      "81": 9290,
      "Bad": 9291,
      "Bag": 9292,
      "Kat": 9293,
      "Mun": 9294,
      "Mess": 9295,
      "Nep": 9296,
      "Photo": 9297,
      "Sum": 9298,
      "SBI": 9299,
      "Tur": 9300,
      "Tend": 9301,
      "York": 9302,
      "cue": 9303,
      "digital": 9304,
      "fig": 9305,
      "mach": 9306,
      "nature": 9307,
      "pa": 9308,
      "rally": 9309,
      "slow": 9310,
      "ume": 9311,
      "yer": 9312,
      "आवास": 9313,
      "कठि": 9314,
      "जस्टि": 9315,
      "ड्र": 9316,
      "ड्यू": 9317,
      "दंड": 9318,
      "नारा": 9319,
      "बहन": 9320,
      "मती": 9321,
      "रब": 9322,
      "शही": 9323,
      "सॉ": 9324,
      "అడుగు": 9325,
      "ఇన్‌": 9326,
      "ఇష్టం": 9327,
      "ఉగ్ర": 9328,
      "ఘన": 9329,
      "ణంలో": 9330,
      "పారి": 9331,
      "పడే": 9332,
      "ఫొ": 9333,
      "ఫ్రా": 9334,
      "బాలి": 9335,
      "బద్ధ": 9336,
      "రచ": 9337,
      "వన": 9338,
      "సార": 9339,
      "erjee": 9340,
      "aspect": 9341,
      "నిరా": 9342,
      "ional": 9343,
      "icipal": 9344,
      "lect": 9345,
      "स्पर्": 9346,
      "ताल": 9347,
      "omb": 9348,
      "chann": 9349,
      "vert": 9350,
      "विपक्ष": 9351,
      "ప్రక్రియ": 9352,
      "लेते": 9353,
      "విధానం": 9354,
      "track": 9355,
      "defe": 9356,
      "deleg": 9357,
      "तिन": 9358,
      "निम्": 9359,
      "नियुक्त": 9360,
      "white": 9361,
      "agreed": 9362,
      "condem": 9363,
      "else": 9364,
      "ulkar": 9365,
      "univers": 9366,
      "संवाद": 9367,
      "संदर्भ": 9368,
      "సియా": 9369,
      "ित्व": 9370,
      "atever": 9371,
      "तीश": 9372,
      "पाक": 9373,
      "దిశ": 9374,
      "పుస్త": 9375,
      "race": 9376,
      "रिकॉ": 9377,
      "सिद्धा": 9378,
      "weh": 9379,
      "డాక్టర్": 9380,
      "performed": 9381,
      "దేవి": 9382,
      "గ్గా": 9383,
      "display": 9384,
      "उसको": 9385,
      "Prof": 9386,
      "నీర": 9387,
      "చెన్న": 9388,
      "offering": 9389,
      "आईआर": 9390,
      "regul": 9391,
      "ష్టంగా": 9392,
      "assess": 9393,
      "आपकी": 9394,
      "्राम": 9395,
      "चित्र": 9396,
      "ఒకరు": 9397,
      "धारण": 9398,
      "बिग": 9399,
      "హాన్ని": 9400,
      "శ్మీ": 9401,
      "compens": 9402,
      "महानि": 9403,
      "ogle": 9404,
      "producing": 9405,
      "matters": 9406,
      "relations": 9407,
      "phy": 9408,
      "ट्रै": 9409,
      "खिलाड़ी": 9410,
      "खुला": 9411,
      "खुदा": 9412,
      "incidents": 9413,
      "cert": 9414,
      "निकट": 9415,
      "मनु": 9416,
      "goods": 9417,
      "symp": 9418,
      "త్రిలో": 9419,
      "ఆమెను": 9420,
      "helped": 9421,
      "follows": 9422,
      "doesnt": 9423,
      "पंजी": 9424,
      "looks": 9425,
      "surpr": 9426,
      "Gov": 9427,
      "Google": 9428,
      "మహేష్": 9429,
      "तैय": 9430,
      "नोट": 9431,
      "MPs": 9432,
      "valid": 9433,
      "attacks": 9434,
      "సందే": 9435,
      "Work": 9436,
      "Plus": 9437,
      "Imran": 9438,
      "पश्चा": 9439,
      "कानूनी": 9440,
      "judicial": 9441,
      "ఉత్తమ": 9442,
      "Christians": 9443,
      "ప్రకటించింది": 9444,
      "వార్త": 9445,
      "green": 9446,
      "नागरिकों": 9447,
      "allegedly": 9448,
      "मार्टम": 9449,
      "initiative": 9450,
      "बरामद": 9451,
      "communication": 9452,
      "established": 9453,
      "Officer": 9454,
      "శేఖ": 9455,
      "agreement": 9456,
      "पर्यावरण": 9457,
      "window": 9458,
      "అసలు": 9459,
      "दोषी": 9460,
      "गरीब": 9461,
      "railway": 9462,
      "category": 9463,
      "Sushant": 9464,
      "banner": 9465,
      "College": 9466,
      "circum": 9467,
      "न्वयन": 9468,
      "డబ్బు": 9469,
      "ట్విట్ట": 9470,
      "జాబితా": 9471,
      "भरोसा": 9472,
      "Gupta": 9473,
      "Yahweh": 9474,
      "नायडू": 9475,
      "Tuesday": 9476,
      "Saturday": 9477,
      "Tendulkar": 9478,
      ".)": 9479,
      "110": 9480,
      "53": 9481,
      "98": 9482,
      "Aam": 9483,
      "Ba": 9484,
      "Bef": 9485,
      "Cro": 9486,
      "IO": 9487,
      "Loc": 9488,
      "London": 9489,
      "Nat": 9490,
      "Ple": 9491,
      "Rak": 9492,
      "Rukh": 9493,
      "Ser": 9494,
      "Tem": 9495,
      "bri": 9496,
      "cot": 9497,
      "cop": 9498,
      "drug": 9499,
      "fresh": 9500,
      "lal": 9501,
      "lines": 9502,
      "none": 9503,
      "pit": 9504,
      "ply": 9505,
      "ँच": 9506,
      "आजा": 9507,
      "इत": 9508,
      "इलेक्": 9509,
      "कना": 9510,
      "ख्या": 9511,
      "जहा": 9512,
      "ट्यू": 9513,
      "तें": 9514,
      "मशी": 9515,
      "शॉ": 9516,
      "हानि": 9517,
      "ुत": 9518,
      "ुप": 9519,
      "ृंख": 9520,
      "ఆదా": 9521,
      "ఓపె": 9522,
      "చం": 9523,
      "జ్య": 9524,
      "ణంగా": 9525,
      "తగిన": 9526,
      "నను": 9527,
      "నము": 9528,
      "నది": 9529,
      "పిం": 9530,
      "పవన్": 9531,
      "మళ్": 9532,
      "రహ": 9533,
      "సత్య": 9534,
      "హర్": 9535,
      "ining": 9536,
      "inch": 9537,
      "theast": 9538,
      "restrict": 9539,
      "assa": 9540,
      "toll": 9541,
      "iter": 9542,
      "stone": 9543,
      "किर": 9544,
      "ర్య": 9545,
      "करू": 9546,
      "bear": 9547,
      "idam": 9548,
      "ताव": 9549,
      "क्की": 9550,
      "प्रवक्ता": 9551,
      "cher": 9552,
      "वाहन": 9553,
      "image": 9554,
      "urch": 9555,
      "విశేష": 9556,
      "devot": 9557,
      "निगम": 9558,
      "जाओ": 9559,
      "చేత": 9560,
      "comments": 9561,
      "వాతా": 9562,
      "వాణి": 9563,
      "వాళ్ల": 9564,
      "moving": 9565,
      "కోలు": 9566,
      "Head": 9567,
      "ialog": 9568,
      "స్తుందని": 9569,
      "మిగిలి": 9570,
      "ంటో": 9571,
      "पीएस": 9572,
      "रेड्डी": 9573,
      "acts": 9574,
      "ండె": 9575,
      "మెగా": 9576,
      "awa": 9577,
      "మోటార్": 9578,
      "Star": 9579,
      "प्रतिबद्ध": 9580,
      "eshwar": 9581,
      "సీనియర్": 9582,
      "coach": 9583,
      "ప్పున": 9584,
      "branch": 9585,
      "डीए": 9586,
      "मौसम": 9587,
      "provision": 9588,
      "అయింది": 9589,
      "anniversary": 9590,
      "occup": 9591,
      "प्राधि": 9592,
      "सोम": 9593,
      "producer": 9594,
      "మూడో": 9595,
      "strate": 9596,
      "didn": 9597,
      "max": 9598,
      "ट्रॉ": 9599,
      "एनएस": 9600,
      "बुनिया": 9601,
      "Project": 9602,
      "होंगी": 9603,
      "despite": 9604,
      "corpor": 9605,
      "సూపర్": 9606,
      "सामग्री": 9607,
      "importance": 9608,
      "अभिने": 9609,
      "Conference": 9610,
      "holds": 9611,
      "ग्राह": 9612,
      "సాధించింది": 9613,
      "తొల": 9614,
      "letter": 9615,
      "चौधरी": 9616,
      "फरवरी": 9617,
      "career": 9618,
      "benefici": 9619,
      "నియంత్ర": 9620,
      "opened": 9621,
      "జిల్లాలో": 9622,
      "భూమి": 9623,
      "నటిస్తున్నారు": 9624,
      "nearly": 9625,
      "levels": 9626,
      "Amitabh": 9627,
      "జీవితం": 9628,
      "Bharati": 9629,
      "celebrated": 9630,
      "शानदार": 9631,
      "प्रकाशित": 9632,
      "Organ": 9633,
      "బైబి": 9634,
      "reduce": 9635,
      "सीसीआई": 9636,
      "Jait": 9637,
      "हिंदी": 9638,
      "తమిళనాడు": 9639,
      "promise": 9640,
      "పోయాయి": 9641,
      "rolled": 9642,
      "individuals": 9643,
      "Kingdom": 9644,
      "బయటకు": 9645,
      "suffered": 9646,
      "NTR": 9647,
      "carrying": 9648,
      "समझौते": 9649,
      "constitution": 9650,
      "प्रेरित": 9651,
      "తదితరులు": 9652,
      "फायदा": 9653,
      "granted": 9654,
      "వరుస": 9655,
      "Banerjee": 9656,
      "చొప్పున": 9657,
      "Dhawan": 9658,
      "Sunday": 9659,
      "टिप्पणी": 9660,
      "कृष्ण": 9661,
      "కెమెరా": 9662,
      "arrangements": 9663,
      "ఆత్మహ": 9664,
      "अफगानिस्तान": 9665,
      "झारखंड": 9666,
      "धार्मिक": 9667,
      "जस्टिस": 9668,
      "Before": 9669,
      "ृंखला": 9670,
      "06": 9671,
      "Did": 9672,
      "Ed": 9673,
      "El": 9674,
      "Kann": 9675,
      "Lad": 9676,
      "Mur": 9677,
      "Mission": 9678,
      "Nob": 9679,
      "Sir": 9680,
      "Sure": 9681,
      "UV": 9682,
      "aur": 9683,
      "bul": 9684,
      "bra": 9685,
      "broad": 9686,
      "ee": 9687,
      "flo": 9688,
      "lack": 9689,
      "ticket": 9690,
      "xy": 9691,
      "ंती": 9692,
      "असर": 9693,
      "आं": 9694,
      "आशा": 9695,
      "आत्म": 9696,
      "इरा": 9697,
      "खत": 9698,
      "खड़े": 9699,
      "झू": 9700,
      "तनाव": 9701,
      "दस": 9702,
      "पवि": 9703,
      "मस्": 9704,
      "शख्": 9705,
      "षित": 9706,
      "सवार": 9707,
      "ोतरी": 9708,
      "అన్నాడు": 9709,
      "ఆడ": 9710,
      "ఎక్కడ": 9711,
      "ఎప్పుడూ": 9712,
      "ఏమీ": 9713,
      "ఒత్తి": 9714,
      "గీ": 9715,
      "టర్‌": 9716,
      "దయ": 9717,
      "ప్యా": 9718,
      "పవర్": 9719,
      "పించింది": 9720,
      "బృ": 9721,
      "బ‌": 9722,
      "య్‌": 9723,
      "వసూ": 9724,
      "షు": 9725,
      "thi": 9726,
      "army": 9727,
      "assured": 9728,
      "stances": 9729,
      "करवा": 9730,
      "chol": 9731,
      "chaired": 9732,
      "परं": 9733,
      "विवाह": 9734,
      "ayan": 9735,
      "ప్రె": 9736,
      "ించవచ్చు": 9737,
      "trail": 9738,
      "deploy": 9739,
      "చేప": 9740,
      "composed": 9741,
      "संपत्ति": 9742,
      "కాన్": 9743,
      "shown": 9744,
      "లికి": 9745,
      "overs": 9746,
      "plans": 9747,
      "मुकद": 9748,
      "పురు": 9749,
      "Heavy": 9750,
      "सिस": 9751,
      "లేఖ": 9752,
      "పాటి": 9753,
      "పాజి": 9754,
      "जीलैंड": 9755,
      "త్రా": 9756,
      "ంటె": 9757,
      "मेगा": 9758,
      "मेडिक": 9759,
      "हिक": 9760,
      "सुख": 9761,
      "కేటా": 9762,
      "रोड": 9763,
      "రోహి": 9764,
      "తీర్": 9765,
      "మీటర్": 9766,
      "आईएस": 9767,
      "परिजनों": 9768,
      "cles": 9769,
      "टेक्": 9770,
      "शुक्र": 9771,
      "కెట్లు": 9772,
      "Therefore": 9773,
      "పరిష్": 9774,
      "चीफ": 9775,
      "मूसा": 9776,
      "స్థానం": 9777,
      "పొంది": 9778,
      "నెట్": 9779,
      "ట్‌లో": 9780,
      "happens": 9781,
      "laid": 9782,
      "maintain": 9783,
      "Energy": 9784,
      "temper": 9785,
      "ग्रुप": 9786,
      "shares": 9787,
      "ముఖ్యమైన": 9788,
      "Only": 9789,
      "యూని": 9790,
      "पंचा": 9791,
      "limit": 9792,
      "stopped": 9793,
      "చేసుకున్నారు": 9794,
      "चाहती": 9795,
      "महामारी": 9796,
      "attacked": 9797,
      "लंका": 9798,
      "sectors": 9799,
      "reportedly": 9800,
      "Play": 9801,
      "IPC": 9802,
      "Amendment": 9803,
      "daughters": 9804,
      "బ్యాంక్‌": 9805,
      "immediate": 9806,
      "ప్రకటించారు": 9807,
      "companied": 9808,
      "नेटवर्क": 9809,
      "దేశాలు": 9810,
      "रोकने": 9811,
      "initiatives": 9812,
      "seriously": 9813,
      "reduced": 9814,
      "jobs": 9815,
      "Maha": 9816,
      "వైరస్": 9817,
      "వినియోగ": 9818,
      "తెరకెక్కి": 9819,
      "पोस्टमार्टम": 9820,
      "Jagan": 9821,
      "audience": 9822,
      "అభ్యర్థ": 9823,
      "సొంత": 9824,
      "impact": 9825,
      "occurred": 9826,
      "title": 9827,
      "अक्टूबर": 9828,
      "आनंद": 9829,
      "Urban": 9830,
      "నిరసన": 9831,
      "నటుడు": 9832,
      "awareness": 9833,
      "రాజీనామా": 9834,
      "వచ్చాయి": 9835,
      "Similar": 9836,
      "కొనుగో": 9837,
      "మాట్లాడుతూ": 9838,
      "primary": 9839,
      "ometimes": 9840,
      "అందుబాటులో": 9841,
      "spokesperson": 9842,
      "కోహ్లీ": 9843,
      "accepted": 9844,
      "అంగీకర": 9845,
      "Sachin": 9846,
      "Nehru": 9847,
      "pandemic": 9848,
      "John": 9849,
      "वकील": 9850,
      "అవార్డు": 9851,
      "సాంకేతిక": 9852,
      "कमेटी": 9853,
      "ఫొటో": 9854,
      "निम्न": 9855,
      "सिद्धांत": 9856,
      "మళ్లీ": 9857,
      "73": 9858,
      "Bus": 9859,
      "Lanka": 9860,
      "Ri": 9861,
      "Sil": 9862,
      "bab": 9863,
      "eed": 9864,
      "hop": 9865,
      "lad": 9866,
      "lap": 9867,
      "mart": 9868,
      "mala": 9869,
      "nap": 9870,
      "oo": 9871,
[...]
